// Auto-generated TFLite model header
// Model: stage_b_int8.tflite
// Size: 23048 bytes (22.51 KB)

#ifndef STAGE_B_MODEL_H
#define STAGE_B_MODEL_H

#include <Arduino.h>

alignas(8) const unsigned char stage_b_model[] = {
  0x1c, 0x00, 0x00, 0x00, 0x54, 0x46, 0x4c, 0x33, 0x14, 0x00, 0x20, 0x00, 0x1c, 0x00, 0x18, 0x00,
  0x14, 0x00, 0x10, 0x00, 0x0c, 0x00, 0x00, 0x00, 0x08, 0x00, 0x04, 0x00, 0x14, 0x00, 0x00, 0x00,
  0x1c, 0x00, 0x00, 0x00, 0x90, 0x00, 0x00, 0x00, 0xe8, 0x00, 0x00, 0x00, 0x3c, 0x28, 0x00, 0x00,
  0x4c, 0x28, 0x00, 0x00, 0x60, 0x59, 0x00, 0x00, 0x03, 0x00, 0x00, 0x00, 0x01, 0x00, 0x00, 0x00,
  0x10, 0x00, 0x00, 0x00, 0x00, 0x00, 0x0a, 0x00, 0x10, 0x00, 0x0c, 0x00, 0x08, 0x00, 0x04, 0x00,
  0x0a, 0x00, 0x00, 0x00, 0x0c, 0x00, 0x00, 0x00, 0x1c, 0x00, 0x00, 0x00, 0x3c, 0x00, 0x00, 0x00,
  0x0f, 0x00, 0x00, 0x00, 0x73, 0x65, 0x72, 0x76, 0x69, 0x6e, 0x67, 0x5f, 0x64, 0x65, 0x66, 0x61,
  0x75, 0x6c, 0x74, 0x00, 0x01, 0x00, 0x00, 0x00, 0x04, 0x00, 0x00, 0x00, 0x98, 0xff, 0xff, 0xff,
  0x1e, 0x00, 0x00, 0x00, 0x04, 0x00, 0x00, 0x00, 0x08, 0x00, 0x00, 0x00, 0x6f, 0x75, 0x74, 0x70,
  0x75, 0x74, 0x5f, 0x30, 0x00, 0x00, 0x00, 0x00, 0x01, 0x00, 0x00, 0x00, 0x04, 0x00, 0x00, 0x00,
  0x9e, 0xd7, 0xff, 0xff, 0x04, 0x00, 0x00, 0x00, 0x05, 0x00, 0x00, 0x00, 0x69, 0x6e, 0x70, 0x75,
  0x74, 0x00, 0x00, 0x00, 0x02, 0x00, 0x00, 0x00, 0x34, 0x00, 0x00, 0x00, 0x04, 0x00, 0x00, 0x00,
  0xdc, 0xff, 0xff, 0xff, 0x21, 0x00, 0x00, 0x00, 0x04, 0x00, 0x00, 0x00, 0x13, 0x00, 0x00, 0x00,
  0x43, 0x4f, 0x4e, 0x56, 0x45, 0x52, 0x53, 0x49, 0x4f, 0x4e, 0x5f, 0x4d, 0x45, 0x54, 0x41, 0x44,
  0x41, 0x54, 0x41, 0x00, 0x08, 0x00, 0x0c, 0x00, 0x08, 0x00, 0x04, 0x00, 0x08, 0x00, 0x00, 0x00,
  0x20, 0x00, 0x00, 0x00, 0x04, 0x00, 0x00, 0x00, 0x13, 0x00, 0x00, 0x00, 0x6d, 0x69, 0x6e, 0x5f,
  0x72, 0x75, 0x6e, 0x74, 0x69, 0x6d, 0x65, 0x5f, 0x76, 0x65, 0x72, 0x73, 0x69, 0x6f, 0x6e, 0x00,
  0x22, 0x00, 0x00, 0x00, 0x50, 0x27, 0x00, 0x00, 0x48, 0x27, 0x00, 0x00, 0x30, 0x27, 0x00, 0x00,
  0x0c, 0x27, 0x00, 0x00, 0x5c, 0x26, 0x00, 0x00, 0xcc, 0x25, 0x00, 0x00, 0xbc, 0x1d, 0x00, 0x00,
  0xac, 0x1c, 0x00, 0x00, 0x9c, 0x10, 0x00, 0x00, 0xcc, 0x0f, 0x00, 0x00, 0x0c, 0x0e, 0x00, 0x00,
  0x3c, 0x0d, 0x00, 0x00, 0x2c, 0x07, 0x00, 0x00, 0x9c, 0x06, 0x00, 0x00, 0x6c, 0x05, 0x00, 0x00,
  0xdc, 0x04, 0x00, 0x00, 0xcc, 0x02, 0x00, 0x00, 0x7c, 0x02, 0x00, 0x00, 0xdc, 0x01, 0x00, 0x00,
  0x8c, 0x01, 0x00, 0x00, 0xec, 0x00, 0x00, 0x00, 0xe4, 0x00, 0x00, 0x00, 0xdc, 0x00, 0x00, 0x00,
  0xd4, 0x00, 0x00, 0x00, 0xcc, 0x00, 0x00, 0x00, 0xc4, 0x00, 0x00, 0x00, 0xbc, 0x00, 0x00, 0x00,
  0xb4, 0x00, 0x00, 0x00, 0xac, 0x00, 0x00, 0x00, 0xa4, 0x00, 0x00, 0x00, 0x9c, 0x00, 0x00, 0x00,
  0x94, 0x00, 0x00, 0x00, 0x74, 0x00, 0x00, 0x00, 0x04, 0x00, 0x00, 0x00, 0x9a, 0xd8, 0xff, 0xff,
  0x04, 0x00, 0x00, 0x00, 0x60, 0x00, 0x00, 0x00, 0x0c, 0x00, 0x00, 0x00, 0x08, 0x00, 0x0e, 0x00,
  0x08, 0x00, 0x04, 0x00, 0x08, 0x00, 0x00, 0x00, 0x10, 0x00, 0x00, 0x00, 0x28, 0x00, 0x00, 0x00,
  0x00, 0x00, 0x06, 0x00, 0x08, 0x00, 0x04, 0x00, 0x06, 0x00, 0x00, 0x00, 0x04, 0x00, 0x00, 0x00,
  0x01, 0x00, 0x00, 0x00, 0xeb, 0x03, 0x00, 0x00, 0x0c, 0x00, 0x18, 0x00, 0x14, 0x00, 0x10, 0x00,
  0x0c, 0x00, 0x04, 0x00, 0x0c, 0x00, 0x00, 0x00, 0x2a, 0x40, 0x63, 0xcb, 0xa8, 0xb8, 0xc1, 0x60,
  0x02, 0x00, 0x00, 0x00, 0x02, 0x00, 0x00, 0x00, 0x04, 0x00, 0x00, 0x00, 0x06, 0x00, 0x00, 0x00,
  0x32, 0x2e, 0x32, 0x30, 0x2e, 0x30, 0x00, 0x00, 0x06, 0xd9, 0xff, 0xff, 0x04, 0x00, 0x00, 0x00,
  0x10, 0x00, 0x00, 0x00, 0x31, 0x2e, 0x31, 0x34, 0x2e, 0x30, 0x00, 0x00, 0x00, 0x00, 0x00, 0x00,
  0x00, 0x00, 0x00, 0x00, 0x60, 0xa9, 0xff, 0xff, 0x64, 0xa9, 0xff, 0xff, 0x68, 0xa9, 0xff, 0xff,
  0x6c, 0xa9, 0xff, 0xff, 0x70, 0xa9, 0xff, 0xff, 0x74, 0xa9, 0xff, 0xff, 0x78, 0xa9, 0xff, 0xff,
  0x7c, 0xa9, 0xff, 0xff, 0x80, 0xa9, 0xff, 0xff, 0x84, 0xa9, 0xff, 0xff, 0x88, 0xa9, 0xff, 0xff,
  0x4e, 0xd9, 0xff, 0xff, 0x04, 0x00, 0x00, 0x00, 0x90, 0x00, 0x00, 0x00, 0x44, 0xb8, 0xc4, 0x4e,
  0xb9, 0x86, 0x7f, 0xba, 0x40, 0x02, 0x08, 0xc7, 0xd5, 0x27, 0x81, 0x0c, 0xf5, 0xb3, 0xd9, 0xca,
  0xb2, 0x27, 0xd0, 0x4d, 0x81, 0x94, 0x15, 0xd7, 0xff, 0xdc, 0xcb, 0x81, 0x27, 0x70, 0xce, 0xc9,
  0x61, 0x5a, 0xef, 0x6c, 0x2d, 0x25, 0x0a, 0x5c, 0x7f, 0x81, 0xea, 0xbb, 0x13, 0xf2, 0x85, 0x25,
  0x67, 0x63, 0xd3, 0x1e, 0x02, 0x7a, 0x7f, 0x1b, 0x3d, 0xbe, 0xf5, 0x4a, 0x0c, 0x19, 0x7f, 0xe1,
  0x1d, 0x18, 0xe4, 0x49, 0x9e, 0x1a, 0x52, 0x81, 0xf8, 0xff, 0x2f, 0xe3, 0x07, 0x60, 0xd9, 0x2d,
  0xa1, 0xeb, 0x81, 0xbe, 0xe8, 0xcc, 0x1a, 0xea, 0x1e, 0x73, 0x68, 0x46, 0xff, 0x81, 0x13, 0x7c,
  0x0a, 0x26, 0xfa, 0x81, 0xa3, 0xcd, 0x97, 0xd2, 0x9f, 0x53, 0x3b, 0x8f, 0x13, 0x73, 0x81, 0x4e,
  0x00, 0x1e, 0x34, 0x3c, 0x0b, 0xc4, 0x7f, 0xad, 0xfc, 0x64, 0xfc, 0x89, 0x06, 0x81, 0xbb, 0x3f,
  0xfc, 0x87, 0xa8, 0x81, 0xa0, 0x9b, 0x8a, 0x7c, 0x12, 0x58, 0x3b, 0x00, 0xea, 0xd9, 0xff, 0xff,
  0x04, 0x00, 0x00, 0x00, 0x40, 0x00, 0x00, 0x00, 0x96, 0x21, 0x00, 0x00, 0xdf, 0x8c, 0x00, 0x00,
  0xd9, 0xb2, 0x00, 0x00, 0x8c, 0x6a, 0x00, 0x00, 0x07, 0xb0, 0xfe, 0xff, 0x1e, 0x45, 0x00, 0x00,
  0x3a, 0x78, 0xff, 0xff, 0xee, 0x54, 0xff, 0xff, 0x66, 0x44, 0x00, 0x00, 0x01, 0xa1, 0x00, 0x00,
  0x89, 0x88, 0xff, 0xff, 0xed, 0x8a, 0x00, 0x00, 0xbc, 0xf8, 0xff, 0xff, 0xf5, 0x86, 0xff, 0xff,
  0xc9, 0xfa, 0x00, 0x00, 0xdc, 0x55, 0x00, 0x00, 0x36, 0xda, 0xff, 0xff, 0x04, 0x00, 0x00, 0x00,
  0x90, 0x00, 0x00, 0x00, 0x81, 0xe1, 0x0d, 0xe7, 0x3d, 0x6c, 0xff, 0xd0, 0xb6, 0x72, 0xa6, 0xa9,
  0x11, 0xca, 0xe0, 0xc4, 0x9d, 0x7f, 0xcf, 0x33, 0xdb, 0xe1, 0xc3, 0x02, 0x3e, 0xa5, 0xee, 0x1b,
  0x9f, 0x40, 0x4c, 0xce, 0x84, 0x06, 0x72, 0x17, 0xbb, 0x07, 0x30, 0xca, 0xa0, 0xb3, 0xac, 0x2f,
  0x7f, 0x9b, 0x7f, 0x10, 0xac, 0x23, 0x7f, 0x81, 0x55, 0x00, 0x30, 0x57, 0x16, 0x4c, 0x2e, 0x01,
  0xe6, 0x81, 0xb8, 0x81, 0xed, 0x29, 0xb9, 0x1d, 0x58, 0x52, 0x37, 0x38, 0x5b, 0x89, 0x0d, 0xae,
  0x5a, 0x10, 0xbe, 0x0f, 0x5e, 0xe5, 0x71, 0xc5, 0x1c, 0x5f, 0x7f, 0xb9, 0x55, 0xf1, 0xb2, 0x46,
  0x4c, 0x1d, 0x20, 0x27, 0x4f, 0x10, 0x2d, 0xd7, 0xec, 0x7f, 0x21, 0x7c, 0x81, 0x81, 0x81, 0x81,
  0x5a, 0x8f, 0x00, 0xc4, 0xfb, 0x01, 0x8d, 0xa7, 0x7f, 0x4e, 0x33, 0x1f, 0x95, 0x28, 0xf5, 0x18,
  0xd8, 0xad, 0xeb, 0x2d, 0x31, 0x0e, 0x16, 0x91, 0x0d, 0x49, 0xf4, 0x81, 0x3e, 0xca, 0xe8, 0x62,
  0x7e, 0x69, 0xba, 0x8f, 0xd2, 0xda, 0xff, 0xff, 0x04, 0x00, 0x00, 0x00, 0x40, 0x00, 0x00, 0x00,
  0xd7, 0x06, 0x00, 0x00, 0x70, 0xf9, 0xff, 0xff, 0xe7, 0xf9, 0xff, 0xff, 0x72, 0x0a, 0x00, 0x00,
  0x52, 0xf7, 0xff, 0xff, 0x11, 0xf3, 0xff, 0xff, 0x2e, 0xf8, 0xff, 0xff, 0xdd, 0xff, 0xff, 0xff,
  0x17, 0x04, 0x00, 0x00, 0xc7, 0x07, 0x00, 0x00, 0xf1, 0x0c, 0x00, 0x00, 0x6a, 0x00, 0x00, 0x00,
  0xd3, 0xfa, 0xff, 0xff, 0x89, 0x08, 0x00, 0x00, 0x5c, 0x01, 0x00, 0x00, 0x29, 0x0a, 0x00, 0x00,
  0x1e, 0xdb, 0xff, 0xff, 0x04, 0x00, 0x00, 0x00, 0x00, 0x02, 0x00, 0x00, 0x32, 0xaf, 0x2e, 0x11,
  0x91, 0x81, 0xab, 0x5f, 0xf6, 0xda, 0x54, 0xfd, 0x66, 0x59, 0x4d, 0x36, 0xe6, 0x94, 0xd4, 0x35,
  0xd5, 0x3b, 0x11, 0xe8, 0x94, 0x85, 0x81, 0xfc, 0xae, 0xa7, 0x63, 0x82, 0xf7, 0xfd, 0x35, 0xaf,
  0x0b, 0x27, 0xcd, 0xb7, 0xfc, 0x2e, 0xbb, 0x16, 0x21, 0xd5, 0x81, 0xf3, 0x58, 0x44, 0x90, 0xc8,
  0x94, 0xb3, 0xfc, 0x23, 0xb8, 0xa3, 0x03, 0x05, 0x7f, 0xdf, 0xb2, 0xdf, 0xde, 0xb6, 0x19, 0x53,
  0xb3, 0x2b, 0x48, 0xa7, 0x0d, 0x32, 0x32, 0x52, 0xf6, 0xf0, 0xb6, 0x7f, 0x1a, 0xa1, 0xf6, 0x7f,
  0x47, 0xcf, 0xcd, 0x0b, 0x03, 0x56, 0xde, 0xe0, 0x10, 0xd4, 0x57, 0x76, 0x60, 0xe9, 0x58, 0xee,
  0xdc, 0xdc, 0x1a, 0xf1, 0xef, 0x28, 0x2e, 0x34, 0x02, 0xfc, 0xef, 0x81, 0xda, 0x0b, 0x21, 0xdf,
  0x18, 0xcc, 0xea, 0x40, 0xac, 0x5b, 0xf7, 0x76, 0x7f, 0xc5, 0xd1, 0x1d, 0x4a, 0xbf, 0x34, 0xd0,
  0xb0, 0xdf, 0x26, 0x81, 0xd3, 0xbe, 0xd9, 0xf3, 0x31, 0x78, 0xaa, 0x37, 0x63, 0x33, 0x1b, 0x8b,
  0x0f, 0x81, 0xa6, 0xd9, 0xab, 0xe9, 0x2b, 0x1a, 0xfe, 0x0c, 0xcf, 0x46, 0x4d, 0xeb, 0x81, 0xf5,
  0xcb, 0xc0, 0xdd, 0xb1, 0xef, 0x0e, 0xb4, 0x0f, 0x24, 0xe6, 0x9f, 0x2a, 0x35, 0xcb, 0x00, 0xf4,
  0x53, 0xd4, 0xb7, 0x0d, 0x3a, 0xd1, 0x58, 0x6e, 0x31, 0xcc, 0x81, 0x20, 0xa7, 0x40, 0xfc, 0x8f,
  0xb2, 0xf3, 0xbf, 0xb1, 0x7f, 0x1a, 0x93, 0xaf, 0xe1, 0x1f, 0xb2, 0xb8, 0x43, 0x04, 0x0b, 0x5f,
  0x09, 0xb4, 0x0b, 0x29, 0xd2, 0x7f, 0x29, 0xf3, 0x51, 0xfc, 0xe8, 0xba, 0x88, 0x6e, 0x40, 0x8b,
  0xe2, 0xeb, 0x0f, 0x7f, 0x96, 0x37, 0x7e, 0x06, 0xd0, 0x3c, 0xb4, 0xa4, 0x57, 0x98, 0x01, 0xca,
  0xb4, 0x13, 0x9b, 0xe5, 0x08, 0x81, 0xd0, 0x9b, 0x38, 0x3b, 0xff, 0x9c, 0x14, 0xc9, 0x61, 0x7f,
  0x64, 0x9b, 0xfc, 0xe5, 0x49, 0xfc, 0x06, 0xab, 0x40, 0xaf, 0xce, 0x07, 0x92, 0xfc, 0x81, 0xc3,
  0x18, 0xe0, 0x34, 0xf9, 0x54, 0xef, 0xf4, 0x2a, 0x24, 0x3f, 0x36, 0x47, 0xa0, 0x17, 0x43, 0x3a,
  0x27, 0x2a, 0x16, 0x22, 0xe7, 0x81, 0x48, 0xcb, 0x2b, 0xf7, 0x3a, 0x2a, 0x0e, 0x95, 0x62, 0xce,
  0x5a, 0x64, 0xe8, 0x01, 0x0d, 0x4d, 0xaf, 0x08, 0x21, 0xd3, 0x92, 0x81, 0x7f, 0x01, 0xc8, 0xbc,
  0xdc, 0xa0, 0xbb, 0x0a, 0x5d, 0xda, 0x9e, 0xcc, 0x03, 0x03, 0xb7, 0xc7, 0xc7, 0xc1, 0xef, 0x66,
  0x55, 0x8d, 0x2c, 0x95, 0x4d, 0x62, 0x81, 0x22, 0x34, 0xa6, 0xdc, 0xa8, 0xb8, 0xd4, 0x1b, 0xb2,
  0xde, 0x51, 0xfd, 0xc7, 0xf1, 0x82, 0x35, 0x2e, 0x4c, 0xcb, 0x7f, 0xcd, 0xce, 0x39, 0xca, 0xe0,
  0xab, 0x2b, 0x81, 0xed, 0xdc, 0x4d, 0x24, 0xa5, 0xda, 0x2c, 0x7e, 0x63, 0x3a, 0x2d, 0xca, 0x47,
  0x81, 0x42, 0xbe, 0xdf, 0xc9, 0xd7, 0x70, 0x71, 0xf8, 0xf6, 0xa7, 0xa2, 0x29, 0x81, 0x19, 0x3d,
  0x9a, 0x12, 0x22, 0x74, 0x2b, 0x6f, 0xe5, 0x27, 0xd6, 0x6f, 0x55, 0xf3, 0x31, 0x7f, 0x18, 0xe7,
  0x6b, 0x3d, 0x88, 0x48, 0xd9, 0xd4, 0xbe, 0xff, 0x5f, 0x22, 0x40, 0x00, 0x3a, 0xa2, 0x7f, 0xa5,
  0x11, 0xc8, 0xdd, 0x9f, 0xee, 0x04, 0x48, 0x33, 0xc4, 0x82, 0x0f, 0x6d, 0x20, 0x33, 0xc0, 0xf0,
  0x81, 0x43, 0x0c, 0xe1, 0x0f, 0xa1, 0xdc, 0xb9, 0xb9, 0xea, 0x15, 0xed, 0xc7, 0xeb, 0x3b, 0x17,
  0x05, 0xeb, 0xe2, 0x74, 0x9e, 0x53, 0x0f, 0xb7, 0xfe, 0x5e, 0x81, 0x74, 0x76, 0x32, 0xef, 0x10,
  0x92, 0x63, 0xf2, 0x03, 0x2c, 0x81, 0xc8, 0xec, 0xdb, 0xa9, 0x44, 0x38, 0x54, 0x1f, 0x81, 0x39,
  0x3c, 0xb5, 0x05, 0x31, 0xcc, 0xf8, 0x2e, 0xc7, 0x0f, 0xcb, 0xb1, 0xc8, 0x2a, 0xdd, 0xff, 0xff,
  0x04, 0x00, 0x00, 0x00, 0x80, 0x00, 0x00, 0x00, 0xe5, 0xfc, 0xff, 0xff, 0xb5, 0x0a, 0x00, 0x00,
  0x86, 0x04, 0x00, 0x00, 0xc3, 0x05, 0x00, 0x00, 0x90, 0xfc, 0xff, 0xff, 0x7c, 0xfb, 0xff, 0xff,
  0xba, 0xff, 0xff, 0xff, 0x1f, 0xff, 0xff, 0xff, 0xd2, 0x02, 0x00, 0x00, 0x41, 0x02, 0x00, 0x00,
  0xfe, 0x05, 0x00, 0x00, 0x58, 0xff, 0xff, 0xff, 0xf7, 0x08, 0x00, 0x00, 0x71, 0xfc, 0xff, 0xff,
  0xc8, 0x01, 0x00, 0x00, 0x46, 0x08, 0x00, 0x00, 0x60, 0xfc, 0xff, 0xff, 0xf7, 0xfe, 0xff, 0xff,
  0xd3, 0xfc, 0xff, 0xff, 0x25, 0x03, 0x00, 0x00, 0xba, 0x06, 0x00, 0x00, 0xe3, 0x03, 0x00, 0x00,
  0x3e, 0x02, 0x00, 0x00, 0xf5, 0x01, 0x00, 0x00, 0xde, 0x02, 0x00, 0x00, 0xd3, 0xf8, 0xff, 0xff,
  0xcc, 0xfb, 0xff, 0xff, 0xab, 0x00, 0x00, 0x00, 0xfa, 0x05, 0x00, 0x00, 0x12, 0xff, 0xff, 0xff,
  0xc9, 0xff, 0xff, 0xff, 0x57, 0x02, 0x00, 0x00, 0xb6, 0xdd, 0xff, 0xff, 0x04, 0x00, 0x00, 0x00,
  0x20, 0x01, 0x00, 0x00, 0x13, 0xb7, 0xac, 0x11, 0x6a, 0x81, 0x59, 0x81, 0x30, 0x81, 0x5b, 0x3d,
  0x81, 0x4a, 0xad, 0xff, 0x15, 0xe6, 0x7f, 0xa8, 0x36, 0x23, 0x53, 0xc1, 0x7f, 0x5d, 0xd4, 0x2a,
  0xe7, 0x38, 0x7f, 0xcf, 0x97, 0xf6, 0xd8, 0xa5, 0x2d, 0x20, 0x74, 0xb7, 0xad, 0xae, 0x04, 0x3d,
  0x9f, 0x7f, 0x30, 0xe6, 0xc0, 0x92, 0xea, 0x87, 0x6b, 0x81, 0x39, 0x14, 0x32, 0x81, 0x9e, 0x36,
  0xa3, 0x48, 0x4f, 0x27, 0x25, 0x3e, 0xb0, 0x81, 0x81, 0xb2, 0x7f, 0xa9, 0xda, 0xde, 0xde, 0xc3,
  0x8a, 0x1b, 0x44, 0x37, 0xa7, 0x3a, 0x53, 0x8f, 0xee, 0x06, 0x81, 0x26, 0x2b, 0x4c, 0xff, 0x4f,
  0x81, 0xe9, 0xc5, 0xca, 0x4a, 0xd4, 0x81, 0xeb, 0x00, 0x60, 0x0b, 0x08, 0x45, 0x23, 0x81, 0xfd,
  0x6a, 0x42, 0x01, 0x81, 0x5b, 0xe8, 0xec, 0x41, 0x81, 0xfe, 0x4d, 0xe7, 0x3e, 0x35, 0x7f, 0x81,
  0x96, 0x81, 0x1c, 0xc5, 0xb2, 0x4a, 0x50, 0x1c, 0x33, 0xf0, 0x6d, 0xf0, 0x2a, 0x6b, 0x0c, 0x2c,
  0x14, 0xab, 0x8d, 0xab, 0x77, 0x4e, 0xe9, 0xfe, 0x93, 0xfc, 0xfc, 0x7f, 0x49, 0x3d, 0x2d, 0x37,
  0xd1, 0xca, 0x0a, 0x81, 0x5f, 0x51, 0x44, 0xc6, 0x06, 0x93, 0x57, 0x28, 0x35, 0xbc, 0x4d, 0xd9,
  0xfd, 0x91, 0x81, 0x37, 0xd5, 0x81, 0xc3, 0x81, 0xed, 0x06, 0xd4, 0xfd, 0xf1, 0xca, 0x0c, 0xe8,
  0xa7, 0x95, 0x15, 0x3c, 0x7f, 0xf6, 0x6d, 0xa3, 0xdd, 0x7d, 0x3b, 0x30, 0x81, 0xc5, 0x41, 0x00,
  0x97, 0xfb, 0x40, 0xd8, 0xf5, 0x30, 0x94, 0x01, 0x25, 0xcc, 0x56, 0xfa, 0x96, 0x00, 0x3e, 0xc8,
  0x83, 0x13, 0x8c, 0x3a, 0x03, 0xd4, 0x05, 0x06, 0x0a, 0x7d, 0x6e, 0x3a, 0x11, 0xe5, 0x0e, 0x7f,
  0xa4, 0xd1, 0x0f, 0xee, 0x7f, 0xfc, 0xc0, 0x16, 0x3b, 0xd6, 0x11, 0x2f, 0x9d, 0xac, 0x0e, 0x44,
  0xb6, 0x1d, 0x8b, 0xeb, 0xcb, 0x81, 0x26, 0x5f, 0x58, 0x5e, 0x3c, 0xf7, 0x0a, 0x26, 0xd3, 0xcc,
  0xb3, 0x09, 0x2e, 0xf0, 0x3b, 0xd2, 0x1e, 0x2e, 0xe5, 0xe2, 0x32, 0x16, 0x3e, 0x2c, 0x31, 0xc7,
  0x26, 0x4c, 0xce, 0x32, 0xe2, 0xde, 0xff, 0xff, 0x04, 0x00, 0x00, 0x00, 0x80, 0x00, 0x00, 0x00,
  0x07, 0xfd, 0xff, 0xff, 0x41, 0x02, 0x00, 0x00, 0x15, 0x01, 0x00, 0x00, 0x9b, 0x04, 0x00, 0x00,
  0xe5, 0xfc, 0xff, 0xff, 0x0f, 0xfe, 0xff, 0xff, 0xc2, 0xf1, 0xff, 0xff, 0x16, 0x02, 0x00, 0x00,
  0xc5, 0xff, 0xff, 0xff, 0x40, 0x04, 0x00, 0x00, 0xcf, 0xfe, 0xff, 0xff, 0x83, 0xfd, 0xff, 0xff,
  0x40, 0x07, 0x00, 0x00, 0xab, 0xfe, 0xff, 0xff, 0x07, 0x02, 0x00, 0x00, 0xd7, 0x04, 0x00, 0x00,
  0x5d, 0xfd, 0xff, 0xff, 0xe4, 0x00, 0x00, 0x00, 0x2b, 0x04, 0x00, 0x00, 0xb5, 0x05, 0x00, 0x00,
  0x89, 0xff, 0xff, 0xff, 0x61, 0x04, 0x00, 0x00, 0x49, 0xfc, 0xff, 0xff, 0x16, 0xfc, 0xff, 0xff,
  0x80, 0xfc, 0xff, 0xff, 0x17, 0xfe, 0xff, 0xff, 0xe0, 0xfe, 0xff, 0xff, 0xc1, 0x00, 0x00, 0x00,
  0xf3, 0x0c, 0x00, 0x00, 0x99, 0x00, 0x00, 0x00, 0x20, 0x02, 0x00, 0x00, 0x32, 0x02, 0x00, 0x00,
  0x6e, 0xdf, 0xff, 0xff, 0x04, 0x00, 0x00, 0x00, 0x00, 0x06, 0x00, 0x00, 0x0e, 0xb3, 0x23, 0xdd,
  0x84, 0xaa, 0xc1, 0x38, 0x04, 0xea, 0x2b, 0x4d, 0xe6, 0x4f, 0x70, 0x40, 0xff, 0x55, 0x13, 0x52,
  0xc1, 0x7f, 0x55, 0x0d, 0xf3, 0xf5, 0x01, 0x0d, 0x38, 0xcc, 0xd4, 0xf2, 0xce, 0xeb, 0x1c, 0x16,
  0xbe, 0x30, 0xac, 0xd7, 0x69, 0x29, 0xd6, 0x05, 0x81, 0xc0, 0x8f, 0x09, 0x43, 0x53, 0xf4, 0xd4,
  0xd0, 0x20, 0xaa, 0xcb, 0x4d, 0x9b, 0x28, 0xfe, 0x9e, 0xfd, 0x31, 0x3c, 0xd8, 0x00, 0xf1, 0xb8,
  0x06, 0xa7, 0x21, 0x1a, 0x0d, 0x6a, 0x7f, 0x9d, 0x1d, 0x2a, 0xd5, 0xde, 0xa1, 0x28, 0x00, 0xad,
  0x4b, 0x3b, 0x5b, 0xbe, 0xb1, 0x18, 0x92, 0xb9, 0xd4, 0x38, 0xf0, 0xc4, 0x4f, 0x23, 0x3a, 0xee,
  0x0b, 0x3b, 0x7f, 0x36, 0xe3, 0x0d, 0xf6, 0x63, 0xaa, 0x90, 0xcb, 0xc6, 0xa5, 0x02, 0xe4, 0x42,
  0xe8, 0x51, 0xb8, 0x40, 0xf7, 0x79, 0x84, 0xe7, 0x16, 0x05, 0x28, 0xa9, 0x50, 0x51, 0x08, 0x0a,
  0x99, 0xe9, 0x7f, 0x03, 0xef, 0x11, 0x15, 0x44, 0xb5, 0xf9, 0x96, 0x74, 0xaa, 0xb6, 0x2a, 0xd9,
  0xee, 0xf7, 0xee, 0xdd, 0xce, 0xff, 0xfd, 0x2a, 0xae, 0xaa, 0xff, 0x41, 0x16, 0x33, 0x24, 0x0d,
  0x0b, 0x1c, 0xf3, 0x81, 0xdd, 0x08, 0x0d, 0x02, 0x2e, 0x32, 0xf3, 0x03, 0x07, 0xe1, 0xef, 0x19,
  0x1d, 0xb8, 0x39, 0xb7, 0x85, 0x33, 0xef, 0xe6, 0x30, 0x4f, 0xc7, 0x23, 0x23, 0x0b, 0x4c, 0xb9,
  0xce, 0x81, 0x1d, 0x66, 0x3b, 0x43, 0x1f, 0x32, 0x1a, 0x74, 0x4d, 0xea, 0xcd, 0x13, 0xdb, 0xdd,
  0x31, 0x0b, 0x1d, 0xcf, 0xde, 0x09, 0xc7, 0xcb, 0x1a, 0x03, 0x2a, 0x50, 0xb8, 0x14, 0xca, 0xbc,
  0x4f, 0x28, 0xee, 0xcd, 0x6b, 0xcd, 0x30, 0x81, 0x61, 0xe5, 0xf7, 0xa0, 0x27, 0xce, 0x9d, 0xef,
  0x35, 0x1c, 0xaa, 0x14, 0x36, 0xe2, 0x1a, 0xd4, 0x84, 0x44, 0xfb, 0xf2, 0xb8, 0x6b, 0xe0, 0xcd,
  0xc1, 0x15, 0xaa, 0x81, 0x16, 0x61, 0xc0, 0xe5, 0x57, 0xe2, 0x1b, 0x22, 0x25, 0x33, 0x34, 0x84,
  0xed, 0x45, 0x02, 0xe1, 0xe1, 0x39, 0xd9, 0x85, 0x8b, 0xd8, 0x36, 0xca, 0xe1, 0x16, 0x28, 0xf2,
  0x36, 0x20, 0xc4, 0xee, 0x29, 0x18, 0x00, 0xef, 0x1e, 0xf5, 0x2a, 0x07, 0x38, 0xf5, 0x45, 0xf9,
  0x2d, 0xf2, 0x5a, 0x38, 0xec, 0x81, 0x1d, 0xfa, 0x82, 0xd3, 0x49, 0x1e, 0x13, 0xcc, 0x63, 0x05,
  0x03, 0x7f, 0xd9, 0x03, 0x34, 0x37, 0x5c, 0x4a, 0xa9, 0xf9, 0x9b, 0xac, 0x11, 0x1c, 0x51, 0x17,
  0xed, 0x31, 0x5c, 0xb6, 0x34, 0x4a, 0x5e, 0xe0, 0x43, 0xff, 0x17, 0x0e, 0xb1, 0xab, 0x2b, 0xa8,
  0x2c, 0x24, 0xd1, 0x22, 0xc9, 0x21, 0xcf, 0x0a, 0xd4, 0x0b, 0xf8, 0xd3, 0xe0, 0x0e, 0xd6, 0x7d,
  0x38, 0x17, 0xf2, 0x15, 0xb3, 0x2c, 0x81, 0xef, 0x24, 0x54, 0xc5, 0xc4, 0xc1, 0xc3, 0xb6, 0x1c,
  0xd3, 0xd8, 0x68, 0x77, 0xd0, 0x3a, 0xb7, 0xd0, 0xdf, 0xd8, 0x3c, 0xca, 0x08, 0x99, 0xf6, 0xde,
  0xd1, 0xbd, 0x81, 0xc2, 0xdf, 0xad, 0xdd, 0x24, 0x42, 0x85, 0x2f, 0x62, 0xef, 0xbd, 0x0b, 0x62,
  0x31, 0x0f, 0xe0, 0x1a, 0x8f, 0x07, 0x11, 0x23, 0x1e, 0x14, 0xcb, 0x18, 0x20, 0x06, 0x00, 0xe4,
  0x11, 0xb5, 0xad, 0x81, 0xd3, 0xd4, 0xa7, 0xb8, 0x26, 0x0c, 0x1b, 0xe1, 0x36, 0xc2, 0xf8, 0xee,
  0x1e, 0x15, 0x40, 0x81, 0x11, 0xd8, 0xfd, 0xc9, 0x1b, 0xf7, 0x0e, 0x4a, 0x20, 0x1b, 0x18, 0x1e,
  0x48, 0xbc, 0xfe, 0x28, 0x9b, 0xd5, 0xfa, 0x69, 0x66, 0xf2, 0xef, 0x0c, 0xed, 0x94, 0x08, 0x85,
  0x3b, 0x92, 0x25, 0xc4, 0xc5, 0x35, 0xda, 0x1a, 0xf4, 0xb2, 0x21, 0x55, 0xfd, 0x01, 0x06, 0xd8,
  0x43, 0x6e, 0x7f, 0xe0, 0x5f, 0xfa, 0x23, 0x1c, 0xc3, 0xec, 0x24, 0xda, 0x3e, 0x3b, 0x24, 0x6a,
  0x11, 0x32, 0xb1, 0xf7, 0x05, 0xb7, 0x28, 0xf9, 0xc1, 0x3e, 0x41, 0x23, 0xd1, 0xd6, 0x06, 0x0d,
  0x13, 0xdd, 0xef, 0xe2, 0x03, 0x03, 0x0d, 0x28, 0xf3, 0x35, 0x81, 0x0e, 0x1f, 0x19, 0x81, 0xf1,
  0x66, 0xea, 0x18, 0xc2, 0x46, 0x47, 0xd6, 0x0b, 0x1f, 0x36, 0x41, 0x4e, 0x01, 0xdb, 0xf3, 0xc1,
  0xb3, 0x0b, 0xe8, 0x0c, 0x6a, 0xf8, 0x56, 0xee, 0x38, 0x04, 0x7f, 0xc5, 0x5c, 0x66, 0x07, 0xd7,
  0xfe, 0xe1, 0xd7, 0xd8, 0x18, 0xee, 0xdf, 0xb8, 0x11, 0x62, 0xd6, 0xdd, 0xed, 0x43, 0x3f, 0x44,
  0x03, 0xcf, 0x21, 0xd0, 0x3a, 0xe5, 0x8d, 0xf2, 0x38, 0x81, 0x0f, 0x13, 0xff, 0x2a, 0xe0, 0x36,
  0xd4, 0xf6, 0xa5, 0x09, 0x0d, 0xc7, 0x2a, 0x03, 0x2e, 0xce, 0xfd, 0xe6, 0xdc, 0xeb, 0xfd, 0xe2,
  0xe5, 0xfa, 0xe6, 0x31, 0x2d, 0xe5, 0xed, 0x2b, 0x16, 0xdb, 0x81, 0xd2, 0x17, 0x11, 0x5d, 0xd8,
  0x22, 0xa3, 0x06, 0xc4, 0x25, 0x81, 0xec, 0x3a, 0x2a, 0xff, 0x22, 0x60, 0xf7, 0x11, 0x89, 0x43,
  0xda, 0x47, 0xee, 0xc9, 0x9e, 0xcc, 0x26, 0xa9, 0x4d, 0x13, 0xfb, 0xe4, 0xef, 0xf3, 0x0c, 0x67,
  0x38, 0x2f, 0xc3, 0x9e, 0x52, 0xc7, 0xc8, 0xf6, 0x61, 0x28, 0xcf, 0x77, 0x84, 0x26, 0xf9, 0x1e,
  0xd9, 0xdc, 0xca, 0xb5, 0x4c, 0x28, 0x23, 0xf5, 0x81, 0x88, 0x88, 0x87, 0xe2, 0x15, 0x04, 0x19,
  0x1c, 0x34, 0x10, 0xd0, 0xe4, 0xe6, 0x10, 0xd2, 0xce, 0x09, 0x4a, 0x14, 0xc2, 0x16, 0x11, 0x1b,
  0xc9, 0xa5, 0xa3, 0x4d, 0xfa, 0xf5, 0xac, 0x81, 0x18, 0x3e, 0xc9, 0x1b, 0xf2, 0xc1, 0x81, 0xeb,
  0xd0, 0x2b, 0xf5, 0xfe, 0xc4, 0xda, 0xdf, 0xe1, 0x2a, 0x17, 0xca, 0xe6, 0xe6, 0x0a, 0x11, 0x04,
  0xe3, 0xd5, 0x19, 0x0c, 0x34, 0xe2, 0xe1, 0x03, 0x07, 0xc9, 0xdb, 0xe7, 0x82, 0x2e, 0xd6, 0x07,
  0xa8, 0x43, 0x07, 0x39, 0x9e, 0x3c, 0xfc, 0xb3, 0xcf, 0x4c, 0xa7, 0xda, 0x05, 0x29, 0xbd, 0x68,
  0x03, 0xe5, 0xfa, 0x28, 0x8f, 0x78, 0x48, 0xd8, 0xcc, 0xb9, 0xd5, 0x7f, 0x00, 0x13, 0xca, 0x10,
  0xb7, 0x33, 0x29, 0xc2, 0x17, 0x6b, 0xf8, 0x15, 0x19, 0xf2, 0xf4, 0x8a, 0xfc, 0xc1, 0x9d, 0x02,
  0x67, 0x5b, 0x32, 0xfb, 0xae, 0x0c, 0xbc, 0xbb, 0xc3, 0x59, 0x81, 0xfb, 0xf4, 0xe1, 0x34, 0x3b,
  0xff, 0x60, 0x47, 0x0d, 0xe2, 0xd5, 0xda, 0xff, 0x3e, 0xc0, 0x04, 0xe9, 0x3b, 0xa8, 0x5a, 0xf8,
  0xb3, 0x04, 0xd7, 0xae, 0xf2, 0xe8, 0x4b, 0x67, 0xde, 0x81, 0xb4, 0x19, 0xfc, 0x2e, 0xd5, 0x32,
  0xe2, 0x0e, 0x1e, 0x39, 0x3f, 0x28, 0x81, 0x00, 0xbf, 0x49, 0xb0, 0x15, 0x4c, 0xb2, 0xd5, 0x38,
  0xcc, 0x0d, 0x00, 0x09, 0xcc, 0x30, 0x2c, 0x29, 0x9f, 0x4e, 0x8b, 0xf2, 0x19, 0xb6, 0x12, 0xbc,
  0x31, 0x0a, 0xd5, 0xc9, 0x04, 0x01, 0xdc, 0xde, 0x22, 0x44, 0xfe, 0x81, 0xe9, 0x14, 0x8d, 0x2f,
  0xfb, 0x26, 0x35, 0x39, 0x28, 0x1a, 0x14, 0xf0, 0xc2, 0x5a, 0x1d, 0x01, 0x14, 0x2d, 0xd3, 0xae,
  0xf3, 0xb4, 0x29, 0x4f, 0xf6, 0x86, 0x37, 0x23, 0xbc, 0x2e, 0x32, 0xee, 0x98, 0x32, 0x22, 0x1b,
  0xcf, 0x50, 0x81, 0xea, 0xcb, 0xd7, 0x1b, 0xd5, 0x47, 0x39, 0xc1, 0xd3, 0xcc, 0x3b, 0x7f, 0x26,
  0x0a, 0x1a, 0x30, 0xc7, 0x61, 0x22, 0xaf, 0xfb, 0xf1, 0x53, 0xc9, 0x7d, 0xfe, 0x46, 0xda, 0x6d,
  0xc1, 0x36, 0xf8, 0x1b, 0x2a, 0xe9, 0x35, 0xef, 0xc6, 0xee, 0xeb, 0x31, 0x12, 0x50, 0xf1, 0x3b,
  0xd4, 0xf7, 0xba, 0xc0, 0xfc, 0xd4, 0xd3, 0xb6, 0x9f, 0x1f, 0x58, 0x03, 0x4c, 0xdf, 0xb8, 0x50,
  0x9d, 0x0c, 0x11, 0x5d, 0xdc, 0x15, 0x81, 0xfb, 0xdf, 0x1a, 0xdb, 0x9d, 0xde, 0x35, 0x38, 0x31,
  0x0c, 0x32, 0x37, 0x7f, 0x23, 0xe1, 0x31, 0xfb, 0xb0, 0xaa, 0x55, 0x8c, 0xe2, 0x20, 0x19, 0xff,
  0xde, 0xfd, 0xab, 0x81, 0x1b, 0xe0, 0xb9, 0xc7, 0xb4, 0xfd, 0xa4, 0xf9, 0x15, 0x31, 0xa4, 0xf0,
  0x09, 0x05, 0xd7, 0xfb, 0x36, 0xc8, 0x44, 0x86, 0xac, 0xd9, 0x20, 0x90, 0x52, 0x71, 0x79, 0x4c,
  0x1a, 0x03, 0x52, 0xee, 0x0a, 0x1a, 0x86, 0x00, 0xd8, 0xd3, 0xe7, 0x7f, 0x33, 0x18, 0xf1, 0x31,
  0x27, 0xe1, 0xf7, 0xc9, 0x15, 0xf6, 0xdc, 0xf6, 0xe7, 0x54, 0xeb, 0x93, 0x05, 0xf9, 0xd2, 0xfd,
  0x47, 0x41, 0x0d, 0x81, 0xf1, 0xc2, 0xc7, 0x0b, 0xb9, 0x4f, 0x99, 0xf9, 0x3a, 0xfb, 0xe4, 0x2d,
  0xea, 0xa9, 0x28, 0xed, 0x6c, 0x3f, 0x58, 0x0e, 0x06, 0xee, 0xea, 0xf9, 0xe8, 0x2a, 0xbf, 0x81,
  0x13, 0x06, 0x19, 0x0d, 0x1f, 0x2f, 0xcf, 0x25, 0x25, 0x1f, 0xf8, 0x3a, 0x68, 0x2a, 0xc7, 0x9b,
  0x85, 0x75, 0xaa, 0x31, 0x0a, 0xd2, 0xf9, 0x09, 0x32, 0x4a, 0x5c, 0x2a, 0x03, 0xea, 0x3a, 0x44,
  0x81, 0xbd, 0xfa, 0x26, 0xbe, 0x69, 0xbe, 0x86, 0x89, 0xfd, 0x06, 0xb1, 0xda, 0x0d, 0x68, 0xbf,
  0x23, 0xa1, 0x22, 0xa1, 0x4f, 0xe1, 0x0f, 0x54, 0x17, 0xc5, 0x92, 0xf8, 0xfa, 0x2b, 0x81, 0x0d,
  0xdb, 0xfa, 0xf2, 0x15, 0xf9, 0x3b, 0x19, 0xda, 0x3f, 0x48, 0x44, 0x08, 0x44, 0xa9, 0xd0, 0x14,
  0xb2, 0xf8, 0xf2, 0x9e, 0x45, 0xef, 0x17, 0x15, 0xd9, 0xee, 0xda, 0xb9, 0x03, 0x6a, 0x20, 0x81,
  0x45, 0xbf, 0x13, 0x0f, 0xfa, 0xbe, 0x0a, 0x31, 0xef, 0xfc, 0xf7, 0x0c, 0xe3, 0x4f, 0x71, 0x07,
  0x5d, 0x30, 0xb3, 0x3d, 0xf1, 0x81, 0xb5, 0x1e, 0x2a, 0x7a, 0x65, 0x64, 0x36, 0x47, 0x9c, 0xf7,
  0x13, 0x94, 0x62, 0xa5, 0xa9, 0x1c, 0x1d, 0xb2, 0xec, 0x09, 0x15, 0xf2, 0x2b, 0x18, 0xb3, 0x1a,
  0xaa, 0x00, 0x09, 0xf6, 0xe8, 0x22, 0x22, 0x06, 0xee, 0xda, 0xc8, 0xd6, 0xf1, 0x2e, 0x6a, 0x33,
  0x34, 0xd6, 0x41, 0x81, 0xff, 0x2e, 0xcc, 0xf0, 0x14, 0xf2, 0x02, 0x10, 0x30, 0x76, 0x18, 0xe9,
  0xc8, 0x5b, 0xef, 0xc3, 0x24, 0x02, 0xe9, 0x34, 0xac, 0x95, 0x81, 0x0d, 0xf7, 0x09, 0x4a, 0x30,
  0x37, 0xd5, 0x30, 0x26, 0x1b, 0xd8, 0xf1, 0xcc, 0xcf, 0xbb, 0x3a, 0xf1, 0xd4, 0xf0, 0x9a, 0xbb,
  0xf8, 0x18, 0x06, 0xb1, 0x36, 0x31, 0xfb, 0x23, 0x94, 0xdb, 0x52, 0x69, 0xcf, 0x50, 0x5f, 0x0e,
  0xc6, 0xab, 0x9c, 0x0b, 0x7f, 0x33, 0x09, 0xdb, 0x14, 0xab, 0xdf, 0xec, 0xb1, 0x35, 0x39, 0x00,
  0x21, 0x57, 0xf5, 0xeb, 0x26, 0x0b, 0xa4, 0x52, 0x17, 0xbe, 0x1e, 0x7f, 0x02, 0xef, 0xd4, 0x62,
  0xed, 0x60, 0x3b, 0x3e, 0xbd, 0x5b, 0x4b, 0x3f, 0xeb, 0xfc, 0x4c, 0xd0, 0xd1, 0x00, 0xe2, 0xfc,
  0x3d, 0xda, 0x0f, 0x31, 0x3a, 0xf1, 0x3f, 0xfc, 0x60, 0xd3, 0x81, 0xdc, 0xe7, 0x32, 0xdf, 0x19,
  0x61, 0xa0, 0xe5, 0x55, 0x12, 0x0f, 0xcb, 0x39, 0xfd, 0xd0, 0x6d, 0xca, 0x2e, 0x0c, 0x00, 0xde,
  0xff, 0xd1, 0x3a, 0x18, 0xe1, 0x09, 0xb6, 0xb6, 0xfe, 0x87, 0xbb, 0x81, 0x2e, 0xe9, 0xd7, 0x39,
  0x3c, 0xed, 0xa1, 0xee, 0x15, 0xdc, 0xa3, 0x65, 0xd4, 0x30, 0x09, 0xe2, 0x2e, 0x91, 0x2b, 0xb8,
  0x2e, 0x0d, 0x94, 0xf9, 0xdc, 0x4e, 0xd9, 0x3b, 0x12, 0xb3, 0xd8, 0xb0, 0xcd, 0x62, 0x22, 0xad,
  0x41, 0x81, 0x1e, 0x4a, 0x16, 0xb7, 0xa8, 0xf7, 0x1a, 0xca, 0xd9, 0x5b, 0x36, 0xfe, 0xdb, 0x23,
  0x4e, 0x1c, 0x11, 0x29, 0x2e, 0x49, 0x30, 0xb7, 0x1b, 0x16, 0x00, 0x1a, 0xb4, 0x7f, 0x53, 0x18,
  0x1b, 0xde, 0xea, 0xfb, 0xf1, 0x24, 0x38, 0xe1, 0x1b, 0x6a, 0xb8, 0xc1, 0x7a, 0xe5, 0xff, 0xff,
  0x04, 0x00, 0x00, 0x00, 0xc0, 0x00, 0x00, 0x00, 0xf3, 0xf9, 0xff, 0xff, 0x1f, 0x06, 0x00, 0x00,
  0x10, 0x07, 0x00, 0x00, 0xe0, 0xff, 0xff, 0xff, 0xfa, 0x03, 0x00, 0x00, 0xcb, 0x07, 0x00, 0x00,
  0x8f, 0xfa, 0xff, 0xff, 0x4a, 0x06, 0x00, 0x00, 0x48, 0x03, 0x00, 0x00, 0x81, 0xf7, 0xff, 0xff,
  0x9a, 0xf1, 0xff, 0xff, 0x87, 0x08, 0x00, 0x00, 0xb8, 0x0a, 0x00, 0x00, 0xd4, 0x0f, 0x00, 0x00,
  0xcc, 0xfd, 0xff, 0xff, 0xcc, 0xff, 0xff, 0xff, 0x59, 0xfa, 0xff, 0xff, 0x78, 0xf2, 0xff, 0xff,
  0x21, 0xfe, 0xff, 0xff, 0x18, 0x05, 0x00, 0x00, 0x36, 0x01, 0x00, 0x00, 0x02, 0x06, 0x00, 0x00,
  0x8c, 0x04, 0x00, 0x00, 0x0e, 0x08, 0x00, 0x00, 0xc3, 0x07, 0x00, 0x00, 0xb4, 0x08, 0x00, 0x00,
  0x16, 0xfe, 0xff, 0xff, 0x78, 0x00, 0x00, 0x00, 0x8c, 0x05, 0x00, 0x00, 0xe8, 0x04, 0x00, 0x00,
  0x8f, 0xf2, 0xff, 0xff, 0x00, 0x08, 0x00, 0x00, 0x3b, 0x04, 0x00, 0x00, 0x34, 0x01, 0x00, 0x00,
  0x60, 0x08, 0x00, 0x00, 0xe0, 0xfa, 0xff, 0xff, 0x77, 0x02, 0x00, 0x00, 0x86, 0x01, 0x00, 0x00,
  0xf8, 0x05, 0x00, 0x00, 0x4e, 0x01, 0x00, 0x00, 0xb7, 0x00, 0x00, 0x00, 0x95, 0x01, 0x00, 0x00,
  0x64, 0xff, 0xff, 0xff, 0x55, 0xef, 0xff, 0xff, 0x63, 0x00, 0x00, 0x00, 0xc7, 0x0c, 0x00, 0x00,
  0xb6, 0x05, 0x00, 0x00, 0x8c, 0xf5, 0xff, 0xff, 0x46, 0xe6, 0xff, 0xff, 0x04, 0x00, 0x00, 0x00,
  0xb0, 0x01, 0x00, 0x00, 0xf5, 0xea, 0x4a, 0x08, 0x09, 0x43, 0xd7, 0x6c, 0xc9, 0xc6, 0x81, 0x40,
  0xf2, 0x81, 0x18, 0x27, 0x7b, 0x03, 0xd2, 0xcc, 0x0e, 0x2c, 0xcb, 0x3c, 0x26, 0x65, 0x81, 0x81,
  0xb4, 0x21, 0x38, 0xb2, 0x3f, 0x03, 0x30, 0x9c, 0x29, 0x15, 0xd1, 0xab, 0x7a, 0xd0, 0xdc, 0xeb,
  0x11, 0x81, 0x3a, 0x2e, 0xe0, 0x13, 0x78, 0x2b, 0x81, 0x25, 0x2c, 0x7f, 0xba, 0xd1, 0x4d, 0x7f,
  0x2c, 0xa2, 0xdc, 0x72, 0xbf, 0xe2, 0x81, 0x32, 0x61, 0x00, 0xdb, 0x11, 0x82, 0xc5, 0x22, 0x52,
  0xc8, 0x7f, 0x2c, 0xed, 0xf9, 0xa4, 0xaa, 0x81, 0x22, 0x81, 0x7f, 0x2a, 0x8a, 0x9f, 0xc4, 0x16,
  0x4a, 0xdc, 0x3c, 0x7f, 0x23, 0x18, 0x20, 0x11, 0x85, 0x50, 0xd9, 0x5b, 0x52, 0xab, 0xdd, 0xf2,
  0x0b, 0xd5, 0xc7, 0xac, 0x13, 0xb9, 0xf5, 0x4c, 0x19, 0x24, 0xf3, 0x46, 0x35, 0x34, 0xec, 0xd1,
  0x9d, 0xe3, 0x1d, 0xf0, 0x29, 0xa1, 0x18, 0xf5, 0xaa, 0xc1, 0x44, 0xd6, 0xde, 0x99, 0x26, 0x54,
  0x49, 0xca, 0x7f, 0x19, 0xe4, 0xbd, 0x4f, 0xe2, 0x0f, 0x1a, 0x8e, 0x4a, 0xe5, 0x81, 0xfc, 0xc9,
  0x1b, 0xa4, 0x3f, 0xdc, 0x81, 0xe6, 0x9e, 0xfd, 0x24, 0x0e, 0x81, 0x55, 0x92, 0x47, 0x1e, 0x5f,
  0x5e, 0xac, 0x0b, 0x1a, 0xda, 0x33, 0xac, 0xa7, 0xb3, 0x0f, 0x56, 0x4c, 0xfe, 0x3a, 0x44, 0x17,
  0x84, 0x08, 0x14, 0x48, 0x08, 0x2e, 0x6b, 0x81, 0x4c, 0x28, 0xf5, 0xf8, 0xb3, 0xad, 0xba, 0x34,
  0x16, 0x0f, 0x1f, 0x17, 0xab, 0xc2, 0x04, 0xce, 0x7f, 0x7f, 0xa4, 0x7f, 0x91, 0x38, 0xe2, 0xc1,
  0x49, 0xce, 0x00, 0xc9, 0xf7, 0x81, 0x12, 0xc3, 0x33, 0xcf, 0x36, 0x30, 0x92, 0x35, 0x6e, 0x20,
  0x59, 0x59, 0xe5, 0x4d, 0xb4, 0x81, 0x36, 0xea, 0x8d, 0xf8, 0x81, 0x49, 0xb2, 0xd2, 0x10, 0xe3,
  0x1f, 0x20, 0x4b, 0x38, 0x47, 0x34, 0x05, 0x81, 0x34, 0x40, 0x90, 0x6e, 0xcd, 0x73, 0x15, 0x32,
  0x7f, 0xb5, 0xab, 0x08, 0x81, 0x3e, 0x81, 0x12, 0x99, 0x9c, 0x4e, 0x3b, 0x35, 0x46, 0x7f, 0x3a,
  0xa9, 0x78, 0x26, 0x6f, 0xf6, 0x9d, 0x45, 0x8c, 0xe1, 0x81, 0xff, 0x43, 0x7f, 0x60, 0x1c, 0x2e,
  0xad, 0x70, 0x14, 0xb2, 0x4a, 0xe5, 0x09, 0x02, 0x14, 0xe8, 0xb4, 0x68, 0x44, 0x20, 0xb6, 0xb4,
  0xaf, 0xc6, 0xaf, 0x81, 0x1f, 0x1d, 0x16, 0x8a, 0x81, 0x01, 0xd5, 0x81, 0x19, 0xfc, 0x20, 0x2c,
  0x07, 0x29, 0x31, 0x1d, 0x81, 0xca, 0x7f, 0xfe, 0x2d, 0xaf, 0x04, 0x62, 0x3f, 0x5b, 0x0e, 0x48,
  0x22, 0x67, 0xbc, 0x81, 0x59, 0x81, 0xf4, 0x33, 0x6f, 0x9d, 0xbf, 0x1f, 0x81, 0x81, 0x3c, 0x39,
  0xd5, 0x71, 0x81, 0xfa, 0x9b, 0x27, 0xd9, 0xe4, 0x1f, 0xd0, 0x2c, 0x2b, 0xd5, 0x95, 0x48, 0x1d,
  0x7f, 0xeb, 0x08, 0x51, 0x93, 0xb3, 0x5d, 0xf3, 0x83, 0xbf, 0x26, 0x19, 0x7b, 0x65, 0x86, 0x6e,
  0x81, 0x45, 0x81, 0xfd, 0xbc, 0xf9, 0x16, 0x4e, 0x21, 0xac, 0xa3, 0xfe, 0x21, 0x83, 0xca, 0x09,
  0xe4, 0xcc, 0x20, 0x9b, 0x3d, 0xfb, 0xbd, 0xf7, 0xd9, 0xef, 0x1d, 0x02, 0x81, 0x81, 0x57, 0x81,
  0xf4, 0xd2, 0x53, 0x34, 0x02, 0xe8, 0xff, 0xff, 0x04, 0x00, 0x00, 0x00, 0xc0, 0x00, 0x00, 0x00,
  0xb4, 0x05, 0x00, 0x00, 0x51, 0x03, 0x00, 0x00, 0xe4, 0xf7, 0xff, 0xff, 0x8d, 0x04, 0x00, 0x00,
  0x39, 0x07, 0x00, 0x00, 0x02, 0xfe, 0xff, 0xff, 0x06, 0x05, 0x00, 0x00, 0x79, 0xf9, 0xff, 0xff,
  0x39, 0xff, 0xff, 0xff, 0xbf, 0xff, 0xff, 0xff, 0xd1, 0x02, 0x00, 0x00, 0x8f, 0xf8, 0xff, 0xff,
  0x6c, 0x00, 0x00, 0x00, 0xea, 0xff, 0xff, 0xff, 0x6f, 0xff, 0xff, 0xff, 0xae, 0x00, 0x00, 0x00,
  0xef, 0xfd, 0xff, 0xff, 0x3e, 0x03, 0x00, 0x00, 0xf5, 0x03, 0x00, 0x00, 0xb5, 0xfe, 0xff, 0xff,
  0xc2, 0xf9, 0xff, 0xff, 0x40, 0xfd, 0xff, 0xff, 0x7d, 0x0a, 0x00, 0x00, 0xea, 0xfa, 0xff, 0xff,
  0x08, 0x07, 0x00, 0x00, 0xf3, 0xfb, 0xff, 0xff, 0xa8, 0x02, 0x00, 0x00, 0xc2, 0xff, 0xff, 0xff,
  0x47, 0xff, 0xff, 0xff, 0xbc, 0xff, 0xff, 0xff, 0xaa, 0xff, 0xff, 0xff, 0x50, 0x06, 0x00, 0x00,
  0xa5, 0xff, 0xff, 0xff, 0x7f, 0x02, 0x00, 0x00, 0xb9, 0x03, 0x00, 0x00, 0x1a, 0x07, 0x00, 0x00,
  0x57, 0x02, 0x00, 0x00, 0x38, 0x07, 0x00, 0x00, 0xe5, 0xfb, 0xff, 0xff, 0x47, 0xfe, 0xff, 0xff,
  0xb0, 0x01, 0x00, 0x00, 0x70, 0x05, 0x00, 0x00, 0x1f, 0xf9, 0xff, 0xff, 0xf4, 0xfd, 0xff, 0xff,
  0xd1, 0xfb, 0xff, 0xff, 0x5d, 0xfe, 0xff, 0xff, 0xcf, 0xfb, 0xff, 0xff, 0xdd, 0xf2, 0xff, 0xff,
  0xce, 0xe8, 0xff, 0xff, 0x04, 0x00, 0x00, 0x00, 0x00, 0x0c, 0x00, 0x00, 0x4a, 0xe5, 0x11, 0xf2,
  0x0d, 0xfa, 0xf7, 0x03, 0x7f, 0xf8, 0xd7, 0xc6, 0xd1, 0x56, 0x51, 0x45, 0xf4, 0x24, 0xcf, 0xf8,
  0x15, 0xea, 0xe6, 0x44, 0xcf, 0xfc, 0xf0, 0xf0, 0xc5, 0xee, 0x1d, 0xfc, 0xd9, 0xc6, 0xdd, 0x16,
  0x5f, 0x59, 0xdc, 0x0c, 0x47, 0xde, 0x39, 0x11, 0xae, 0x12, 0xfa, 0xba, 0x03, 0xaf, 0x73, 0xe9,
  0xe2, 0xc7, 0xf1, 0x53, 0x0a, 0xbf, 0xe4, 0xe3, 0x2b, 0xf4, 0x1c, 0x04, 0xb5, 0x26, 0x27, 0xee,
  0xb4, 0x28, 0xf5, 0xd8, 0xf9, 0x7b, 0xd6, 0x33, 0xca, 0x35, 0xca, 0x36, 0xd3, 0x3a, 0xf0, 0x9e,
  0x7f, 0x6e, 0x17, 0xa7, 0x61, 0xb0, 0x25, 0xd0, 0xac, 0x3d, 0xc2, 0x19, 0x54, 0x81, 0x10, 0x4d,
  0xed, 0x2a, 0x36, 0xd8, 0x2d, 0xbe, 0xa1, 0x00, 0x0f, 0x3c, 0x2a, 0x37, 0x12, 0xd4, 0x01, 0x32,
  0xf2, 0x48, 0xdb, 0x2e, 0x10, 0xf2, 0xd6, 0x3f, 0x8f, 0x31, 0xfb, 0xb1, 0x32, 0x20, 0x0d, 0xf3,
  0x39, 0x1e, 0x27, 0x2c, 0xf4, 0x89, 0x39, 0x17, 0xa8, 0xe9, 0x0a, 0xe9, 0xf2, 0xdf, 0x61, 0xf6,
  0xf7, 0x9f, 0x09, 0x40, 0x2a, 0x1b, 0xd2, 0x39, 0x5a, 0xef, 0xba, 0xdf, 0xd0, 0x06, 0xfb, 0xb7,
  0xc8, 0xfa, 0x1d, 0xbf, 0xfc, 0x3a, 0xf9, 0xf6, 0x36, 0x05, 0xe7, 0x7f, 0xa9, 0xc3, 0xe7, 0xef,
  0x47, 0x57, 0xf4, 0xd0, 0x2f, 0x35, 0x0f, 0xff, 0x13, 0xe6, 0xa2, 0x05, 0x46, 0xee, 0xf1, 0xef,
  0x11, 0xef, 0xc6, 0x04, 0x7f, 0x21, 0xbe, 0xca, 0xf7, 0x78, 0xf9, 0x1d, 0xed, 0x12, 0xc8, 0x03,
  0x1d, 0xed, 0xde, 0x41, 0xb7, 0xfe, 0xc0, 0xe0, 0xe8, 0xf0, 0x3a, 0x0c, 0xf8, 0xd0, 0xcf, 0x54,
  0x44, 0x48, 0xbf, 0x12, 0x25, 0x03, 0x1d, 0x10, 0xbe, 0xfa, 0xeb, 0xb8, 0x53, 0x0c, 0xf0, 0xba,
  0x43, 0x36, 0xb6, 0x1c, 0x65, 0x72, 0x5d, 0xfa, 0xc0, 0x66, 0xd7, 0x1c, 0x02, 0x2d, 0xb3, 0xff,
  0x7f, 0xce, 0xee, 0x3b, 0xfb, 0x03, 0x17, 0xa4, 0x21, 0xdf, 0x5f, 0x5c, 0xe3, 0xcc, 0xd5, 0x79,
  0x18, 0x39, 0xaa, 0xd1, 0x33, 0x5b, 0xf0, 0x40, 0x06, 0x10, 0xf0, 0xd7, 0xdc, 0x3a, 0x4b, 0x22,
  0x4c, 0x11, 0xa7, 0x0f, 0x07, 0x99, 0x44, 0xc1, 0xe0, 0xe8, 0xd6, 0x53, 0xea, 0x32, 0x16, 0xd3,
  0xf9, 0xfd, 0x81, 0x03, 0x18, 0x27, 0x11, 0x0c, 0xe2, 0xf3, 0xa4, 0xe5, 0x16, 0x1f, 0xe0, 0xcc,
  0x1d, 0xfa, 0x1a, 0xaf, 0x19, 0xac, 0x47, 0xfd, 0xd1, 0x74, 0xed, 0xe6, 0xd6, 0xf5, 0xc4, 0x88,
  0xbf, 0xb5, 0xdf, 0x03, 0xc3, 0x43, 0xea, 0x58, 0x2f, 0xd3, 0x38, 0xe3, 0x1d, 0x1a, 0x7f, 0x1c,
  0x21, 0x0b, 0xdf, 0xe3, 0x65, 0xe9, 0xbc, 0x08, 0x7e, 0x0c, 0x08, 0xfc, 0x37, 0x24, 0x6a, 0xc6,
  0xbd, 0xe7, 0x1b, 0x11, 0x25, 0x24, 0xe2, 0xd2, 0x33, 0xa2, 0x65, 0x48, 0xb4, 0x7f, 0xa4, 0xa1,
  0xb3, 0x20, 0x09, 0x3f, 0xf6, 0x74, 0x41, 0x35, 0xd1, 0x33, 0x0c, 0xf2, 0xd0, 0x46, 0x3d, 0x59,
  0x3c, 0xc6, 0xeb, 0xda, 0x4a, 0xb3, 0x35, 0xd8, 0x4a, 0xea, 0x1b, 0x1e, 0xc7, 0xcb, 0x0e, 0x27,
  0xa2, 0x8c, 0xe9, 0x0a, 0x42, 0x60, 0xd3, 0xe7, 0x7e, 0xe2, 0x54, 0x4b, 0x17, 0x39, 0x9a, 0x86,
  0xbc, 0x3b, 0x4d, 0x9d, 0xce, 0x67, 0xd4, 0x06, 0x1e, 0xd9, 0x49, 0x0d, 0x46, 0xe3, 0x33, 0x54,
  0x2f, 0x64, 0x06, 0x00, 0x7f, 0x85, 0xd8, 0x2e, 0xda, 0x67, 0xc7, 0xcc, 0x52, 0x57, 0x5b, 0xcc,
  0xa6, 0xe1, 0x50, 0x22, 0xc6, 0xcc, 0xa3, 0x93, 0x0f, 0xb6, 0x71, 0x28, 0xb2, 0x48, 0x09, 0xeb,
  0xea, 0x8e, 0x0c, 0x4e, 0xf7, 0x1d, 0xe8, 0x54, 0xf4, 0xc4, 0xde, 0xac, 0x28, 0xef, 0x2a, 0xfc,
  0xcb, 0xef, 0x1a, 0xd5, 0x1d, 0x28, 0xd5, 0xf6, 0x7f, 0x06, 0x07, 0x27, 0xa2, 0xda, 0x26, 0xe9,
  0xdc, 0x98, 0xfe, 0x1c, 0xf1, 0x40, 0xea, 0xae, 0x40, 0xdb, 0x10, 0x27, 0x43, 0xbb, 0xf0, 0x5f,
  0xaf, 0x1e, 0x60, 0xd1, 0x3d, 0xf5, 0xa2, 0x39, 0x70, 0x3e, 0x25, 0x17, 0x03, 0x81, 0xd1, 0x20,
  0x12, 0x7e, 0xc5, 0x34, 0x12, 0xdb, 0x8d, 0x7b, 0x89, 0x5e, 0xfd, 0xb0, 0x16, 0x50, 0x20, 0xd6,
  0x41, 0x45, 0x38, 0x41, 0x03, 0xca, 0x49, 0x29, 0xac, 0xea, 0x02, 0xb0, 0xcb, 0xd4, 0xd1, 0xb4,
  0x9a, 0xb2, 0xf8, 0x36, 0x02, 0x39, 0xc1, 0x43, 0x0a, 0xea, 0x2e, 0xb9, 0x49, 0xc0, 0x00, 0x35,
  0xe2, 0x24, 0x47, 0xe4, 0x2c, 0xcc, 0x81, 0x1f, 0x3d, 0x57, 0xe4, 0x45, 0xf0, 0x01, 0x24, 0xe5,
  0xbc, 0xb8, 0x17, 0xcc, 0x00, 0x1f, 0xb8, 0xab, 0x13, 0xa7, 0x37, 0x1e, 0x2b, 0x00, 0xd3, 0xb6,
  0xd0, 0x2e, 0x12, 0xc6, 0xea, 0x17, 0xd7, 0x0c, 0x30, 0xe8, 0x03, 0x1c, 0x3a, 0xc9, 0x1d, 0x30,
  0x0d, 0x67, 0xe0, 0xf8, 0x65, 0xc4, 0xa5, 0x58, 0xe2, 0x6d, 0xaf, 0xd6, 0x47, 0x44, 0x63, 0xb1,
  0xf7, 0x06, 0x48, 0x7f, 0xeb, 0x9d, 0xfc, 0xc9, 0xe5, 0xd1, 0x4c, 0xf8, 0xb7, 0x1e, 0x47, 0x44,
  0x54, 0x23, 0xb2, 0x21, 0x19, 0xbc, 0x2c, 0xcc, 0xe8, 0x03, 0xf2, 0x69, 0xfd, 0x3e, 0xda, 0xc9,
  0xf5, 0xf7, 0x93, 0x22, 0x0a, 0x09, 0x35, 0x08, 0xb7, 0xf6, 0x95, 0x0c, 0xe9, 0x0e, 0xcd, 0xf1,
  0x58, 0x28, 0x23, 0xcc, 0x2c, 0xa1, 0x40, 0x15, 0x9e, 0x7f, 0xfb, 0xca, 0xdf, 0x0e, 0x2b, 0xe7,
  0x7f, 0x25, 0xbe, 0x23, 0x40, 0x02, 0x6b, 0xb1, 0xc9, 0x51, 0xf0, 0x4f, 0xdb, 0x50, 0x9a, 0xa9,
  0x40, 0xc0, 0xf2, 0x36, 0x13, 0xe8, 0x19, 0xcf, 0xd3, 0xcf, 0xbf, 0x2e, 0xed, 0xd3, 0xbf, 0x3c,
  0x5c, 0x4d, 0xe5, 0xd5, 0x42, 0xf0, 0x2c, 0xff, 0xe6, 0x5f, 0xfd, 0xdf, 0x4b, 0x03, 0xe2, 0xcd,
  0x3c, 0xe3, 0xad, 0x17, 0x6b, 0x7f, 0x1f, 0xc3, 0xc1, 0x69, 0xd4, 0xd3, 0xdc, 0x21, 0xb9, 0xf0,
  0x41, 0xd7, 0xe9, 0x40, 0xd9, 0xf5, 0x0e, 0xbc, 0x1b, 0xe7, 0x70, 0x4c, 0xf7, 0xc3, 0xac, 0x65,
  0x3a, 0x43, 0xb5, 0xee, 0x1d, 0x53, 0xf8, 0x11, 0xf5, 0x03, 0xe3, 0xe5, 0xf1, 0xf3, 0x64, 0x15,
  0x13, 0xae, 0xc3, 0x0d, 0xd6, 0xda, 0x0f, 0x02, 0x2e, 0xd6, 0xba, 0x29, 0xdb, 0x15, 0x4d, 0xcc,
  0xd5, 0x06, 0xbd, 0xc8, 0x02, 0x58, 0x0b, 0xf6, 0x02, 0xfe, 0xbd, 0xfe, 0xbc, 0x0c, 0xd3, 0xab,
  0x24, 0xda, 0x0e, 0x81, 0x1c, 0xda, 0x24, 0xe4, 0xf0, 0x44, 0xcc, 0x1e, 0x32, 0xf1, 0xe5, 0xe5,
  0x18, 0x73, 0x10, 0xa4, 0x0a, 0x38, 0xf0, 0xd3, 0x3d, 0xf3, 0x68, 0x5d, 0x33, 0xcb, 0x10, 0x7e,
  0x48, 0x79, 0xb8, 0x51, 0x5a, 0x81, 0x3a, 0x3d, 0xa6, 0x66, 0xd7, 0xde, 0x5d, 0x3d, 0x3f, 0x23,
  0xe9, 0xe5, 0x31, 0x47, 0x03, 0xa8, 0xdf, 0xf7, 0xed, 0xf3, 0x3c, 0xaf, 0x27, 0x1e, 0x22, 0x0a,
  0x7d, 0x2e, 0x9e, 0x25, 0x45, 0x5a, 0x4d, 0xa3, 0xeb, 0x75, 0x18, 0x1d, 0xb5, 0x42, 0x9d, 0xb8,
  0x4d, 0xa6, 0xbd, 0x3a, 0xea, 0xe8, 0xfd, 0xc5, 0x01, 0xc5, 0x17, 0x17, 0xfa, 0xc2, 0xbf, 0x48,
  0x73, 0x7f, 0xd0, 0xba, 0x25, 0x2d, 0x50, 0x26, 0xf5, 0x3f, 0x01, 0xcb, 0xc4, 0xc6, 0xe7, 0xb0,
  0xad, 0xce, 0x2d, 0x10, 0xd2, 0x1e, 0xac, 0x5d, 0x1b, 0xe7, 0x04, 0xc0, 0x56, 0x0e, 0x40, 0x20,
  0xd7, 0x33, 0xdc, 0xcb, 0x3a, 0xf4, 0x9a, 0x1d, 0x4a, 0x50, 0xfb, 0x1c, 0x06, 0x3c, 0x7f, 0x9d,
  0xc7, 0xcf, 0x37, 0xfc, 0xe1, 0xeb, 0x9b, 0xc9, 0x1c, 0xc0, 0x4e, 0x1e, 0xb8, 0x81, 0x31, 0x47,
  0xfe, 0x9d, 0x11, 0x13, 0xd4, 0xe6, 0xc5, 0x52, 0x34, 0xdc, 0x02, 0x96, 0x27, 0xe2, 0x65, 0x0b,
  0x99, 0x25, 0x11, 0xa2, 0x13, 0x43, 0xbf, 0x77, 0xf2, 0x38, 0xff, 0x2b, 0xfe, 0x45, 0x02, 0xc4,
  0x10, 0xde, 0x74, 0xda, 0xe8, 0xe8, 0x07, 0xd5, 0x12, 0xb5, 0xc5, 0xf4, 0xf8, 0x09, 0xd5, 0xb4,
  0xfd, 0x01, 0xf7, 0x0a, 0x0a, 0x7f, 0x1c, 0xf8, 0xe6, 0x2a, 0x0f, 0xf5, 0xf4, 0x36, 0xfb, 0x2b,
  0x44, 0xf8, 0xf9, 0x05, 0x09, 0xf5, 0x25, 0xdb, 0x2a, 0x08, 0x3c, 0x38, 0xf7, 0xf6, 0xe9, 0x42,
  0xfc, 0x06, 0xe3, 0xe0, 0x06, 0x5d, 0xc7, 0x13, 0x0a, 0xdf, 0x0e, 0x0c, 0x48, 0xd5, 0x13, 0xe7,
  0x51, 0x1d, 0xc8, 0x07, 0x70, 0x1c, 0xe8, 0xc3, 0xfa, 0x7f, 0x00, 0x01, 0xcc, 0xdf, 0xc2, 0xe0,
  0x2c, 0xd7, 0xf6, 0x4b, 0xc3, 0xf2, 0x02, 0xd2, 0xfc, 0xed, 0x4f, 0x3b, 0xd0, 0xca, 0xc4, 0x5b,
  0x48, 0x5f, 0xc2, 0xd9, 0x34, 0xe6, 0x33, 0x09, 0xcc, 0x15, 0xf0, 0xc5, 0xb7, 0x13, 0xae, 0x81,
  0xb9, 0xd2, 0x4f, 0x25, 0xed, 0x77, 0x00, 0x52, 0x2d, 0xf6, 0x0c, 0xc9, 0x1d, 0xf7, 0xf6, 0x6b,
  0x0a, 0x17, 0xfd, 0xdf, 0x70, 0xb0, 0x89, 0xf2, 0x38, 0x49, 0xb9, 0x41, 0xeb, 0xfb, 0x38, 0xee,
  0xc9, 0x97, 0x00, 0x24, 0xbd, 0x33, 0xaf, 0x93, 0x30, 0x9f, 0x45, 0x2a, 0x25, 0xff, 0x09, 0xec,
  0x34, 0xd4, 0xf1, 0x46, 0x1e, 0x3a, 0x4a, 0x25, 0xc8, 0xf6, 0xec, 0x06, 0xf2, 0x1a, 0x02, 0xfd,
  0x20, 0xdc, 0xf3, 0xde, 0xbc, 0x01, 0x0e, 0xc2, 0x64, 0xcd, 0x1e, 0xf9, 0x00, 0xc0, 0xd1, 0x17,
  0xfb, 0xfb, 0xcf, 0x0e, 0xe5, 0x7f, 0x01, 0x1c, 0x4d, 0xf5, 0x10, 0x2a, 0x36, 0xe0, 0x2e, 0x58,
  0x21, 0x21, 0x1f, 0xdd, 0x04, 0xc5, 0xad, 0xfb, 0x2b, 0x1a, 0xf2, 0x2a, 0x09, 0x07, 0x0b, 0x27,
  0xe9, 0x74, 0x88, 0x2d, 0x45, 0xff, 0xd7, 0x64, 0x9a, 0x39, 0xf2, 0xd5, 0xf2, 0x27, 0x09, 0x84,
  0x55, 0x3a, 0x37, 0xf4, 0xf4, 0x81, 0x3c, 0xfe, 0xb0, 0xf2, 0xfa, 0xd2, 0x0c, 0xdb, 0xe4, 0xd4,
  0xfc, 0xe8, 0xed, 0xb0, 0xd3, 0x1d, 0xa5, 0xf1, 0x6b, 0xed, 0x0c, 0xe1, 0x75, 0xf0, 0x53, 0x26,
  0xda, 0x63, 0x98, 0xef, 0x7f, 0xc9, 0xca, 0x50, 0xed, 0x7f, 0xee, 0xde, 0xfe, 0x43, 0x6c, 0xab,
  0xe2, 0xd7, 0x60, 0x65, 0xc8, 0x85, 0xbb, 0xc6, 0x06, 0xc1, 0x4c, 0x1e, 0xef, 0x2e, 0x31, 0x19,
  0x57, 0x42, 0xe8, 0x00, 0xf6, 0xb8, 0x72, 0xde, 0xaa, 0xfc, 0xd9, 0x61, 0xfd, 0x24, 0xf6, 0xdb,
  0xfd, 0xec, 0xb7, 0x0e, 0x02, 0x1a, 0x39, 0xdf, 0xf2, 0xe8, 0xa9, 0xe2, 0x28, 0x02, 0xb1, 0xdd,
  0xfd, 0xfe, 0x0a, 0xbd, 0xfb, 0xaa, 0x4d, 0x0b, 0xcc, 0x7f, 0xfc, 0x01, 0xc0, 0x44, 0xe4, 0xd3,
  0xd0, 0xa9, 0xf8, 0x21, 0xec, 0x11, 0x14, 0x50, 0xfc, 0xd9, 0x1e, 0xd9, 0x34, 0xf3, 0x2b, 0x3e,
  0xf0, 0xe9, 0xfa, 0xcf, 0x38, 0x15, 0x01, 0xf8, 0x7f, 0x11, 0xdc, 0x2b, 0xcb, 0xf4, 0x04, 0xd8,
  0xce, 0xa6, 0xeb, 0xfa, 0xf3, 0x51, 0xe2, 0xba, 0x4a, 0xbb, 0x37, 0x20, 0x1c, 0x30, 0xb8, 0xaa,
  0x17, 0x15, 0xf4, 0x03, 0xe6, 0x3d, 0x4f, 0xe6, 0xdc, 0xff, 0x29, 0x1e, 0x0a, 0x78, 0x44, 0x5d,
  0x7f, 0xce, 0xbb, 0x0c, 0x46, 0xd1, 0x4c, 0xd4, 0x39, 0x05, 0x1f, 0x2f, 0x3a, 0xb7, 0x1c, 0x34,
  0xb5, 0xb9, 0xe2, 0xc2, 0x03, 0x20, 0xe9, 0xd9, 0x6b, 0xef, 0x64, 0xf6, 0xc8, 0x31, 0x6f, 0x01,
  0x0f, 0xee, 0x81, 0x38, 0xf3, 0xc6, 0xe7, 0x23, 0x20, 0xd3, 0xb5, 0xec, 0xf3, 0x0c, 0x17, 0xba,
  0xbe, 0xeb, 0xb9, 0xc7, 0x0a, 0x53, 0x2a, 0xdd, 0xfb, 0xf2, 0xbc, 0x40, 0xbc, 0x3d, 0xc0, 0xba,
  0x32, 0xfc, 0x26, 0xac, 0x3b, 0x0e, 0x48, 0xfb, 0xf6, 0x77, 0xc6, 0xf6, 0x1a, 0xfd, 0x0c, 0xfb,
  0x57, 0x17, 0xca, 0x08, 0x5e, 0x20, 0x0f, 0xb1, 0xfe, 0x7f, 0x1d, 0x08, 0xcf, 0x07, 0xa8, 0xea,
  0x15, 0xdc, 0xc3, 0x53, 0xe8, 0xfd, 0xef, 0xdb, 0xed, 0xd9, 0x2a, 0x23, 0x07, 0xce, 0xbc, 0x59,
  0x48, 0x4b, 0xca, 0xf5, 0x44, 0xea, 0x1c, 0x0f, 0xc5, 0x14, 0xea, 0xbd, 0xba, 0x06, 0x4a, 0xf8,
  0x7a, 0x22, 0x81, 0x33, 0x3a, 0x00, 0x1b, 0x04, 0x23, 0x28, 0xe7, 0x48, 0x0d, 0x54, 0x91, 0x84,
  0x01, 0xbc, 0xad, 0x13, 0xe9, 0x14, 0xfd, 0xb0, 0xc3, 0xdd, 0x8b, 0x51, 0x09, 0xb9, 0x92, 0x1f,
  0x69, 0x6b, 0xf2, 0xc9, 0x32, 0xe9, 0x4a, 0x44, 0xc7, 0x3d, 0xef, 0xed, 0x15, 0x38, 0xee, 0x04,
  0x4e, 0xfb, 0xbf, 0x14, 0xe7, 0xf3, 0x76, 0x05, 0xab, 0xf1, 0xbc, 0x08, 0xa0, 0x2f, 0x2b, 0xc0,
  0x2b, 0xd9, 0xb6, 0xe8, 0xf8, 0x34, 0x21, 0xc5, 0x4f, 0xed, 0xde, 0xd7, 0x54, 0xde, 0xa5, 0xc0,
  0xf1, 0xdf, 0xec, 0xea, 0xe7, 0x2f, 0xf4, 0x08, 0x1f, 0x7f, 0x16, 0x33, 0x00, 0xe5, 0xaf, 0xb1,
  0xe8, 0xef, 0x4d, 0xa9, 0xe5, 0x4c, 0xc7, 0xe9, 0x44, 0xd0, 0x42, 0x02, 0x36, 0x01, 0x2f, 0x6d,
  0x25, 0x47, 0xc4, 0x1a, 0x57, 0xba, 0xd8, 0x14, 0xf5, 0x7f, 0xe8, 0x00, 0x45, 0x42, 0x1c, 0xe5,
  0xd0, 0xba, 0x26, 0x52, 0xd4, 0xb7, 0xc3, 0xab, 0x0b, 0xaa, 0x61, 0x1e, 0x1e, 0x1c, 0x14, 0x12,
  0x36, 0x3d, 0xd9, 0x02, 0x70, 0x0e, 0x0c, 0xbf, 0xe4, 0x7f, 0x36, 0x27, 0x04, 0x14, 0xb8, 0xe7,
  0x0c, 0xdd, 0x07, 0x40, 0xd8, 0xfc, 0xf6, 0xd9, 0xcb, 0xd9, 0xe8, 0x16, 0xe2, 0xc0, 0xbb, 0x3a,
  0x4d, 0x5e, 0xe3, 0xd6, 0x4c, 0xd7, 0x52, 0x06, 0xc6, 0x1f, 0xf5, 0xbc, 0xf5, 0x15, 0x30, 0xee,
  0xcd, 0x9b, 0xf2, 0x2e, 0xd5, 0xfe, 0x09, 0x6e, 0xec, 0xdc, 0x06, 0xd1, 0x0f, 0xe8, 0x7f, 0xd0,
  0xe6, 0x0b, 0xe3, 0xbd, 0xf9, 0x29, 0xf4, 0xe5, 0x70, 0xea, 0x2b, 0xf7, 0xd2, 0xff, 0xe2, 0xdf,
  0xc7, 0xc7, 0xf9, 0x0e, 0x17, 0x42, 0x10, 0xc8, 0x67, 0xef, 0xf5, 0x32, 0x04, 0xbd, 0x97, 0xaf,
  0xd2, 0x2a, 0x58, 0xdf, 0x34, 0x57, 0x8a, 0x45, 0x23, 0x7f, 0x46, 0xf8, 0x41, 0x15, 0xb5, 0x42,
  0x53, 0x71, 0xf9, 0x22, 0x47, 0xac, 0xa1, 0x29, 0x15, 0x6b, 0x6b, 0x03, 0xdd, 0x3b, 0x59, 0x34,
  0x08, 0xff, 0x1e, 0x47, 0xb5, 0x16, 0xe4, 0xd9, 0xa6, 0xb3, 0x2a, 0xdc, 0x34, 0x01, 0xf6, 0xea,
  0x46, 0x0f, 0xd4, 0x0a, 0x4a, 0x37, 0xff, 0xbc, 0xfa, 0x7f, 0x27, 0x1a, 0xe8, 0x18, 0xd9, 0xf7,
  0x2c, 0xcf, 0xd1, 0x2b, 0xdf, 0xe9, 0xf5, 0xd4, 0xe5, 0xe4, 0x05, 0x09, 0x0a, 0xd8, 0xb4, 0x2d,
  0x42, 0x42, 0xd6, 0xd3, 0x39, 0xf9, 0x2e, 0xfd, 0xe7, 0x0b, 0xfa, 0xdb, 0x53, 0xd8, 0xf9, 0x20,
  0x3a, 0x0b, 0x0a, 0xfd, 0x70, 0xdd, 0x85, 0xbf, 0x0d, 0x7f, 0x38, 0x73, 0xf8, 0x0b, 0xda, 0xfd,
  0x07, 0xfb, 0xa1, 0x43, 0xcc, 0x19, 0xc3, 0xef, 0xac, 0xf4, 0xd0, 0xc1, 0x0b, 0x00, 0xc7, 0x15,
  0x54, 0x52, 0xd9, 0xbb, 0x2f, 0xc9, 0x42, 0x2f, 0xaf, 0x0c, 0xfd, 0xc8, 0xee, 0xf5, 0x14, 0xb6,
  0xcc, 0x08, 0xf6, 0xb5, 0xb9, 0xeb, 0xe3, 0x24, 0x4a, 0xf7, 0xff, 0xcf, 0x44, 0x20, 0x6c, 0x34,
  0xd6, 0x35, 0xf4, 0xeb, 0x77, 0xe4, 0xca, 0x62, 0x18, 0x0a, 0xbf, 0xb7, 0x3c, 0x7c, 0x65, 0xaa,
  0xd6, 0xf9, 0x72, 0x15, 0xd4, 0x81, 0x0f, 0xe3, 0x0b, 0xbf, 0x56, 0xea, 0xc4, 0xef, 0x42, 0x26,
  0xd4, 0x81, 0xf4, 0x67, 0x26, 0x32, 0xed, 0x47, 0x56, 0xe3, 0xc8, 0xc1, 0xd4, 0x0e, 0x2b, 0xd4,
  0xb9, 0x06, 0x3d, 0xca, 0xf9, 0x58, 0xc6, 0xff, 0x5e, 0x08, 0x11, 0x75, 0xba, 0xdb, 0x1b, 0xf3,
  0x3d, 0x49, 0xf4, 0xd2, 0x02, 0x43, 0xf3, 0xf6, 0x1f, 0xe5, 0xc5, 0x25, 0xd9, 0xe6, 0xb5, 0x9a,
  0xac, 0xe4, 0x31, 0xdc, 0xe5, 0x34, 0xaf, 0xf8, 0x0d, 0xd6, 0x1a, 0xf6, 0x15, 0x1e, 0x19, 0x2b,
  0xf7, 0x5c, 0x00, 0xed, 0x70, 0x96, 0xcd, 0x3e, 0xfd, 0x7f, 0xe3, 0xff, 0x49, 0x4f, 0x56, 0xdc,
  0xb3, 0xb5, 0x35, 0x61, 0xd9, 0xf4, 0x9d, 0xad, 0x08, 0xaf, 0x53, 0x3c, 0xda, 0x10, 0xbe, 0xc2,
  0xff, 0xf7, 0xe6, 0x0d, 0x1a, 0x7f, 0x0d, 0xf2, 0xe6, 0x3c, 0x0d, 0xfe, 0x0d, 0xfc, 0xfc, 0x31,
  0x51, 0xfd, 0xf5, 0x02, 0x0b, 0xe5, 0xf5, 0xed, 0x2b, 0x25, 0x3b, 0x39, 0xdb, 0x0b, 0xe8, 0x32,
  0xf3, 0xf7, 0xdb, 0xc4, 0x02, 0x54, 0xe0, 0xee, 0x0d, 0xd4, 0x15, 0xe4, 0x4b, 0x9f, 0xf2, 0x31,
  0xf4, 0x3d, 0x68, 0xce, 0xed, 0xe8, 0xa9, 0x12, 0x48, 0x14, 0xf2, 0x26, 0x3a, 0xe7, 0x0f, 0x1e,
  0xff, 0x6d, 0xd6, 0x02, 0x2c, 0xf3, 0xe0, 0x7f, 0xa4, 0x56, 0xf9, 0x9a, 0x58, 0x60, 0x2e, 0xb9,
  0x15, 0x30, 0x59, 0xff, 0xe0, 0x8c, 0x16, 0x0d, 0xdc, 0xd2, 0x28, 0xd7, 0x59, 0xda, 0x12, 0xfc,
  0x49, 0x2c, 0xec, 0xff, 0x6b, 0xfb, 0x8d, 0xa9, 0x08, 0x7f, 0x2b, 0x5d, 0xd6, 0xec, 0xda, 0xf5,
  0x21, 0x02, 0x95, 0x55, 0xda, 0x10, 0xde, 0x00, 0xb9, 0xed, 0xe2, 0xcd, 0x0c, 0xd7, 0xd4, 0x1f,
  0x6b, 0x50, 0xde, 0x05, 0x4c, 0xaf, 0x4c, 0x13, 0x9d, 0x0b, 0xf4, 0x97, 0xc7, 0xf1, 0xb7, 0x98,
  0xbc, 0x1f, 0x35, 0xc8, 0xe1, 0x1c, 0xe4, 0x4d, 0x34, 0xbe, 0xfe, 0xf7, 0x27, 0x0c, 0x5e, 0x61,
  0x08, 0x2e, 0xae, 0x03, 0x6e, 0xdd, 0xee, 0x27, 0x28, 0x2f, 0x06, 0x11, 0x0d, 0x32, 0x67, 0xb2,
  0xc4, 0xde, 0x23, 0x44, 0xfe, 0xe9, 0xbc, 0xc5, 0x32, 0xae, 0x7f, 0x12, 0xe6, 0x0f, 0x06, 0x02,
  0xc8, 0x81, 0xe4, 0x3a, 0xdc, 0x12, 0xef, 0x35, 0xeb, 0xbb, 0xe4, 0x9d, 0x17, 0x1a, 0x3c, 0x19,
  0xae, 0x00, 0x19, 0xc3, 0x5d, 0x06, 0xd4, 0x22, 0x5e, 0x18, 0x09, 0x15, 0xfe, 0x10, 0x51, 0xda,
  0xda, 0x8a, 0x28, 0xf7, 0x07, 0x14, 0xda, 0xa8, 0x34, 0xcc, 0x1a, 0x0c, 0x01, 0xe1, 0x07, 0xea,
  0x09, 0xca, 0xdf, 0x20, 0x67, 0x31, 0xd9, 0x3a, 0xfe, 0x35, 0xe4, 0xd0, 0xe7, 0xb5, 0xcd, 0xf0,
  0x0a, 0xf8, 0x44, 0x05, 0xd2, 0x3a, 0xb3, 0xe5, 0x34, 0xd7, 0x7f, 0x58, 0xb5, 0xc7, 0xc4, 0x2e,
  0x26, 0x20, 0xc8, 0xf9, 0xec, 0x76, 0xeb, 0xda, 0x20, 0xe8, 0xe7, 0x07, 0x17, 0xdc, 0x41, 0x33,
  0xe2, 0xdc, 0xaa, 0xf0, 0xc5, 0x9e, 0xfb, 0x02, 0x30, 0xd5, 0xe6, 0xfc, 0x16, 0x34, 0x5f, 0x1f,
  0x99, 0x1a, 0x0c, 0xe6, 0x5c, 0x2e, 0xdc, 0x15, 0xf7, 0x1c, 0xbe, 0x84, 0x3a, 0x68, 0x17, 0xa7,
  0xcb, 0xe5, 0x6c, 0xd0, 0xdb, 0x81, 0x2e, 0xef, 0x03, 0x1e, 0x32, 0xf4, 0xc5, 0x13, 0x1c, 0xfa,
  0xe3, 0x81, 0xed, 0x54, 0xff, 0x2e, 0xe2, 0x37, 0xfd, 0xcc, 0x04, 0xbb, 0x0d, 0x10, 0x2b, 0xce,
  0xcb, 0x08, 0x15, 0xca, 0x05, 0x2c, 0xdb, 0xf5, 0x58, 0xfd, 0x22, 0x27, 0xeb, 0xdd, 0xfc, 0xf3,
  0xf8, 0xe0, 0xf6, 0xff, 0xf6, 0x55, 0xf8, 0xd5, 0x3e, 0xdb, 0xd1, 0x35, 0xe7, 0xed, 0x21, 0xf6,
  0xf7, 0x81, 0xfa, 0x5a, 0x23, 0x47, 0x1c, 0x29, 0x24, 0xef, 0xdc, 0xdd, 0xe2, 0xf9, 0x06, 0xa1,
  0xdb, 0xfc, 0x11, 0xd2, 0xed, 0x1a, 0xe6, 0xe0, 0x44, 0xdd, 0x01, 0x2a, 0xdb, 0xe6, 0xd8, 0xeb,
  0x27, 0xe6, 0xcf, 0x0d, 0xf3, 0x7b, 0xe5, 0xeb, 0x31, 0xef, 0xcd, 0x1e, 0xd5, 0xf6, 0xac, 0xb0,
  0xe8, 0x02, 0x1d, 0xe6, 0x12, 0x7f, 0x00, 0xdc, 0x0e, 0x0a, 0x0e, 0xf3, 0xfd, 0x1d, 0xe1, 0x65,
  0x3d, 0x19, 0xea, 0x20, 0x2c, 0xe1, 0xe0, 0xe9, 0x05, 0x28, 0x20, 0x4e, 0xf9, 0x1a, 0xf2, 0x28,
  0xf7, 0xdf, 0xeb, 0x2c, 0xe2, 0x3c, 0xcc, 0xd9, 0x19, 0xc2, 0x32, 0x06, 0xfb, 0xce, 0xb4, 0xe3,
  0xf8, 0x08, 0x04, 0xd6, 0xe4, 0x7f, 0xe6, 0xe6, 0x08, 0x26, 0x44, 0x25, 0x13, 0xf1, 0xf2, 0x5f,
  0x37, 0x3a, 0xec, 0x18, 0x2d, 0xbf, 0xe8, 0xf5, 0xf6, 0x4d, 0x17, 0xff, 0x0e, 0x4d, 0x26, 0x2c,
  0xd5, 0xe8, 0x14, 0x32, 0xda, 0x1c, 0xe3, 0xd4, 0xed, 0xc8, 0x22, 0x17, 0x3b, 0x81, 0xfe, 0x42,
  0xed, 0x30, 0x69, 0xd6, 0xf7, 0xc1, 0x8f, 0x03, 0x49, 0x2f, 0x29, 0x11, 0x27, 0xc1, 0xff, 0x2b,
  0xf5, 0x74, 0xda, 0x0c, 0x15, 0xea, 0xc4, 0x6d, 0xb5, 0x46, 0x10, 0xa3, 0xd9, 0x5f, 0x2c, 0xad,
  0x35, 0x2c, 0x49, 0x29, 0xcf, 0x98, 0x01, 0xfc, 0xd2, 0xde, 0x1f, 0xe0, 0xd1, 0x14, 0x6a, 0x1b,
  0x2c, 0x27, 0x05, 0x10, 0xf8, 0xa5, 0x34, 0xbf, 0xf6, 0x07, 0xb6, 0x45, 0x03, 0x1d, 0xfe, 0xda,
  0xcf, 0x08, 0xeb, 0xd7, 0x0d, 0x46, 0x01, 0x0b, 0xe5, 0x0c, 0x94, 0xfa, 0xd1, 0x3e, 0xc1, 0xee,
  0x44, 0x25, 0x2b, 0x85, 0xf5, 0x8c, 0x55, 0xf9, 0xd2, 0x7f, 0xc2, 0xfc, 0xca, 0xec, 0xb4, 0x93,
  0xbb, 0xd7, 0x39, 0xfa, 0xcc, 0x7f, 0xd7, 0x29, 0x40, 0x00, 0xfd, 0xfc, 0x0a, 0xcf, 0xee, 0x3f,
  0x05, 0x52, 0x05, 0xe3, 0x7d, 0xaf, 0xa0, 0x0c, 0x40, 0x7b, 0xb4, 0x07, 0x23, 0x26, 0x33, 0xea,
  0xd5, 0xe1, 0x23, 0x40, 0xfc, 0xeb, 0xcc, 0xbf, 0xf9, 0xa8, 0x4f, 0x1c, 0xaa, 0x08, 0x6e, 0x0f,
  0x1e, 0xfd, 0xc3, 0x44, 0x12, 0xd9, 0x00, 0x03, 0x1a, 0x01, 0xdb, 0x14, 0xf2, 0x68, 0xe2, 0xa1,
  0xf3, 0xd2, 0x1c, 0xdd, 0x02, 0x71, 0xfd, 0xc5, 0xee, 0xf1, 0xb0, 0x2d, 0xd2, 0x28, 0xba, 0xf7,
  0x67, 0x54, 0x0a, 0x81, 0x1d, 0xeb, 0x53, 0x3b, 0xbd, 0x62, 0xdf, 0x08, 0x20, 0x0d, 0xfc, 0xc0,
  0x53, 0x2a, 0xe8, 0x1a, 0x25, 0x37, 0x7f, 0xc8, 0xcb, 0x56, 0x05, 0x5d, 0x03, 0x6a, 0xb6, 0xd0,
  0x52, 0xbe, 0xda, 0x3e, 0x02, 0x01, 0x42, 0xb0, 0xf9, 0xd3, 0x1b, 0x03, 0x15, 0xbf, 0xde, 0x29,
  0x1d, 0x3d, 0xd0, 0xc9, 0x54, 0x0f, 0x19, 0x37, 0xff, 0x30, 0x01, 0xfa, 0x5d, 0xab, 0xfa, 0x28,
  0x02, 0x38, 0x4a, 0xcc, 0xf0, 0xf6, 0x97, 0xfe, 0x64, 0x24, 0x31, 0x38, 0x35, 0xd5, 0xf7, 0x3b,
  0xe3, 0x7e, 0xd4, 0x1d, 0x3b, 0x00, 0xc8, 0x7f, 0x96, 0x64, 0xd6, 0x84, 0x0f, 0x6c, 0x38, 0xe9,
  0x24, 0x07, 0x4b, 0x25, 0xbd, 0xa6, 0x10, 0x0d, 0xcd, 0xca, 0x2f, 0xdc, 0x0f, 0xde, 0xf8, 0x19,
  0x1c, 0xea, 0xe1, 0xfa, 0x58, 0x1b, 0xd7, 0xa1, 0xcf, 0x7a, 0x77, 0x7f, 0x13, 0x41, 0xda, 0x11,
  0x2d, 0xd7, 0xb6, 0x46, 0xd6, 0xf7, 0x2a, 0xd4, 0xb7, 0xed, 0x01, 0xd6, 0xe3, 0xe9, 0xd9, 0x46,
  0x4d, 0x43, 0xe8, 0xe0, 0x3f, 0x04, 0x21, 0x33, 0xc8, 0x12, 0xf4, 0xc4, 0x81, 0x24, 0x56, 0x04,
  0xe3, 0xca, 0x9e, 0x64, 0x0e, 0x28, 0x1a, 0x13, 0x00, 0xed, 0xb2, 0xf5, 0xda, 0x25, 0xec, 0x9b,
  0xd7, 0xc9, 0x2a, 0xbe, 0x08, 0x5e, 0x07, 0xec, 0x42, 0xf3, 0xcd, 0x58, 0xaf, 0x08, 0x01, 0x04,
  0x66, 0x19, 0xf3, 0xc2, 0x0d, 0x42, 0x1f, 0x11, 0xf7, 0x46, 0xbf, 0x33, 0x25, 0xd0, 0x41, 0x05,
  0xfe, 0xeb, 0xb8, 0x3f, 0x6c, 0x31, 0x9b, 0xe1, 0x31, 0x3b, 0x1e, 0x20, 0xb5, 0x1f, 0xa7, 0xdf,
  0xca, 0xe7, 0xe7, 0x12, 0xf5, 0x36, 0x0a, 0xf5, 0xf3, 0xf1, 0x6a, 0x2e, 0xcb, 0xf0, 0xf0, 0x4d,
  0x7f, 0x5a, 0xc1, 0x25, 0x47, 0xf8, 0x3d, 0x13, 0x93, 0x0a, 0xfa, 0xbd, 0xda, 0xf4, 0xff, 0xff,
  0x04, 0x00, 0x00, 0x00, 0x00, 0x01, 0x00, 0x00, 0xff, 0xf8, 0xff, 0xff, 0x9e, 0xf5, 0xff, 0xff,
  0xe6, 0xf9, 0xff, 0xff, 0x88, 0xf6, 0xff, 0xff, 0xab, 0xfb, 0xff, 0xff, 0x30, 0xe8, 0xff, 0xff,
  0x4b, 0xff, 0xff, 0xff, 0x7c, 0xfb, 0xff, 0xff, 0xf9, 0xf9, 0xff, 0xff, 0x2b, 0x00, 0x00, 0x00,
  0x8e, 0x05, 0x00, 0x00, 0xe4, 0xf2, 0xff, 0xff, 0xd9, 0x0c, 0x00, 0x00, 0x32, 0xfc, 0xff, 0xff,
  0xf9, 0xf8, 0xff, 0xff, 0xc1, 0xf0, 0xff, 0xff, 0xc0, 0xf2, 0xff, 0xff, 0x2d, 0x06, 0x00, 0x00,
  0x8b, 0xec, 0xff, 0xff, 0xd8, 0xea, 0xff, 0xff, 0x32, 0x07, 0x00, 0x00, 0x24, 0x02, 0x00, 0x00,
  0x90, 0xf4, 0xff, 0xff, 0x85, 0xf4, 0xff, 0xff, 0x2b, 0x08, 0x00, 0x00, 0x17, 0xf8, 0xff, 0xff,
  0x86, 0xf7, 0xff, 0xff, 0x9a, 0x01, 0x00, 0x00, 0xed, 0xfe, 0xff, 0xff, 0x11, 0x04, 0x00, 0x00,
  0xd0, 0xf3, 0xff, 0xff, 0x62, 0x02, 0x00, 0x00, 0xc4, 0xf6, 0xff, 0xff, 0x58, 0xf8, 0xff, 0xff,
  0xc3, 0x01, 0x00, 0x00, 0x1e, 0x01, 0x00, 0x00, 0xbe, 0xf4, 0xff, 0xff, 0x25, 0x01, 0x00, 0x00,
  0xed, 0xf5, 0xff, 0xff, 0xb9, 0xf8, 0xff, 0xff, 0xc7, 0xfb, 0xff, 0xff, 0x63, 0xfc, 0xff, 0xff,
  0x51, 0xf1, 0xff, 0xff, 0x5a, 0x06, 0x00, 0x00, 0x41, 0xfb, 0xff, 0xff, 0xb8, 0xf4, 0xff, 0xff,
  0xd8, 0xfa, 0xff, 0xff, 0x0b, 0xff, 0xff, 0xff, 0x7d, 0x06, 0x00, 0x00, 0xdc, 0xfb, 0xff, 0xff,
  0x2e, 0x04, 0x00, 0x00, 0x56, 0x00, 0x00, 0x00, 0x8c, 0x00, 0x00, 0x00, 0xbd, 0xfc, 0xff, 0xff,
  0x6f, 0xfb, 0xff, 0xff, 0xfc, 0xfa, 0xff, 0xff, 0x06, 0xfc, 0xff, 0xff, 0xbd, 0x04, 0x00, 0x00,
  0x2b, 0xf2, 0xff, 0xff, 0xa2, 0xed, 0xff, 0xff, 0xac, 0xf3, 0xff, 0xff, 0x8e, 0xf6, 0xff, 0xff,
  0x20, 0xf7, 0xff, 0xff, 0xfc, 0xf2, 0xff, 0xff, 0xe6, 0xf5, 0xff, 0xff, 0x04, 0x00, 0x00, 0x00,
  0x00, 0x08, 0x00, 0x00, 0x16, 0x19, 0xcc, 0xaa, 0x18, 0x6b, 0x14, 0x0d, 0x7b, 0x59, 0xe2, 0xda,
  0x0c, 0xfc, 0xc3, 0x0b, 0x10, 0xdb, 0x3b, 0xc6, 0x08, 0xd2, 0x7f, 0x06, 0xed, 0x57, 0xd9, 0xf9,
  0x21, 0x43, 0x70, 0x04, 0x04, 0xb3, 0x58, 0x21, 0x1d, 0x19, 0x07, 0x0e, 0xd6, 0xfa, 0xb3, 0x30,
  0x73, 0xee, 0x01, 0x6e, 0x40, 0xc9, 0x0f, 0x09, 0xf8, 0x67, 0x63, 0xc3, 0xc4, 0x3a, 0xd7, 0x22,
  0xd1, 0x47, 0xba, 0xfb, 0xd3, 0xcd, 0xd3, 0xa4, 0x5f, 0x95, 0x06, 0x06, 0xce, 0xff, 0x3b, 0xc4,
  0xba, 0xe8, 0x19, 0xd9, 0xd3, 0xcb, 0xe0, 0x05, 0x2d, 0xe3, 0xcf, 0x48, 0xa2, 0x28, 0x13, 0xaa,
  0xe0, 0xa1, 0x51, 0xdb, 0xc7, 0xff, 0x09, 0xb7, 0x31, 0xcf, 0xcc, 0xc0, 0x3d, 0xd6, 0x7f, 0xa9,
  0x63, 0x9b, 0x3c, 0x06, 0x9b, 0x66, 0xa7, 0x27, 0x4e, 0x16, 0xca, 0x37, 0x4f, 0x26, 0xe3, 0x06,
  0x16, 0x3a, 0xfd, 0x77, 0x95, 0xd7, 0x11, 0xe5, 0xd0, 0xed, 0xbf, 0x47, 0x46, 0x3d, 0x3d, 0xe1,
  0x7d, 0x59, 0x04, 0xa4, 0xee, 0x2c, 0x1d, 0xf3, 0x3a, 0x4a, 0x49, 0xfc, 0x7f, 0x3e, 0xd7, 0x65,
  0xd0, 0x52, 0x4e, 0x27, 0xd2, 0xa1, 0x26, 0x51, 0xc6, 0xff, 0x73, 0xe9, 0xc2, 0xfd, 0x03, 0x38,
  0x4d, 0x17, 0xd0, 0x5e, 0x3e, 0x59, 0xc5, 0xfc, 0xbe, 0x40, 0x24, 0xd4, 0xed, 0x48, 0x9a, 0x24,
  0xfe, 0xd8, 0x18, 0xca, 0xdd, 0xf3, 0x06, 0xbd, 0xea, 0x56, 0xee, 0x58, 0xc6, 0x24, 0xec, 0xf1,
  0xf2, 0xba, 0x5e, 0x58, 0xe3, 0x5b, 0x14, 0x51, 0xbb, 0xdd, 0x40, 0xe7, 0x36, 0xfe, 0xe2, 0xd3,
  0xf2, 0x12, 0x5d, 0x3b, 0x06, 0xbf, 0x7f, 0xf8, 0x40, 0x05, 0xc5, 0x16, 0xf0, 0xc5, 0xe4, 0xf7,
  0x01, 0xdb, 0xdb, 0xef, 0x45, 0xe7, 0xd9, 0x27, 0xb4, 0x1f, 0xf7, 0xcc, 0x60, 0xff, 0xee, 0xe4,
  0xfc, 0xca, 0x37, 0xdb, 0xf6, 0xe6, 0x47, 0xf1, 0x13, 0xee, 0xbf, 0x2f, 0xfc, 0x68, 0x0d, 0x27,
  0x4c, 0x2d, 0xb9, 0xc9, 0xf1, 0xe9, 0x13, 0xd4, 0x61, 0xeb, 0xee, 0x0f, 0x58, 0x09, 0x02, 0x4d,
  0xd4, 0x28, 0x39, 0xc3, 0x14, 0xc4, 0x0c, 0x5b, 0x03, 0xf2, 0xfd, 0xfe, 0x02, 0xe8, 0x2a, 0x7f,
  0x07, 0x2b, 0xdd, 0x1d, 0x29, 0xd6, 0xe9, 0x12, 0x35, 0x40, 0x3f, 0x62, 0x06, 0x62, 0xd3, 0xc9,
  0x6d, 0xc1, 0xf4, 0x08, 0x7b, 0x57, 0x02, 0x49, 0xfa, 0x35, 0x5d, 0x42, 0xed, 0xe1, 0xdd, 0xe9,
  0x22, 0xff, 0xf3, 0xd4, 0x18, 0xdd, 0xda, 0x6d, 0xa8, 0xf0, 0x2c, 0xf4, 0xe5, 0xc0, 0xed, 0xf9,
  0x6b, 0x2c, 0xed, 0xed, 0x7f, 0xe2, 0xdb, 0xc7, 0x16, 0xb4, 0xb4, 0x4f, 0xf3, 0xde, 0xe4, 0xdd,
  0xd3, 0xe7, 0x15, 0xc4, 0xb6, 0xf7, 0xe7, 0x12, 0xf7, 0xf0, 0xc1, 0xd5, 0xcc, 0x29, 0x2d, 0x76,
  0xf5, 0x26, 0x17, 0x5b, 0xe2, 0x13, 0xe1, 0x1f, 0xce, 0xad, 0x52, 0xf5, 0x02, 0xfa, 0xe9, 0xf8,
  0xf7, 0xd3, 0xc9, 0x0f, 0xea, 0x68, 0xb8, 0xd8, 0x1b, 0xc7, 0xbd, 0xd5, 0xdc, 0x32, 0x4d, 0xf2,
  0x2b, 0x0d, 0xd6, 0x7f, 0xc0, 0x0e, 0x02, 0x0d, 0xf9, 0x46, 0xc3, 0xe5, 0xda, 0xff, 0x73, 0x2d,
  0x01, 0xf5, 0xbe, 0x24, 0xd6, 0x46, 0xe6, 0x5e, 0x5f, 0xec, 0xfe, 0x17, 0x09, 0xef, 0x05, 0xd7,
  0xe6, 0xca, 0xcc, 0xd2, 0x17, 0x20, 0xea, 0x60, 0xa8, 0xe7, 0xfb, 0x4d, 0x52, 0xf6, 0x57, 0xf7,
  0x7f, 0xda, 0xbc, 0xdf, 0x03, 0xd9, 0xe4, 0xb2, 0x3a, 0x31, 0xea, 0xcb, 0x7b, 0x53, 0xbe, 0x1d,
  0xcc, 0x68, 0xd8, 0x30, 0xe4, 0xcf, 0xe5, 0xf3, 0x9e, 0x6d, 0x4d, 0xef, 0x8d, 0x3b, 0x32, 0xf8,
  0x5e, 0xce, 0x83, 0x4b, 0x43, 0xf4, 0x1a, 0x02, 0x49, 0x7a, 0x44, 0xf5, 0xca, 0x7c, 0x1b, 0xb2,
  0x28, 0xdd, 0x29, 0xbc, 0xd1, 0x47, 0x2e, 0x3f, 0xde, 0xc8, 0xf8, 0xe8, 0x3a, 0x81, 0xa5, 0x23,
  0x64, 0x2f, 0xe7, 0x01, 0xa5, 0x00, 0xdb, 0xfa, 0xbc, 0x1b, 0x0b, 0x21, 0xf1, 0xfd, 0xc8, 0x1b,
  0x22, 0x45, 0xb4, 0xff, 0xb0, 0x03, 0xf1, 0x0c, 0xe8, 0xb8, 0x98, 0xe3, 0xf4, 0xcd, 0xdd, 0x5d,
  0x1e, 0xff, 0xc7, 0xac, 0xb3, 0x2a, 0x93, 0x9e, 0x43, 0xd6, 0x4d, 0x22, 0x0c, 0xe6, 0x3a, 0x33,
  0xa4, 0xeb, 0x75, 0x50, 0xc4, 0x06, 0xfd, 0x20, 0x09, 0x8f, 0x30, 0x94, 0x2a, 0xe4, 0xc1, 0x81,
  0xf3, 0x42, 0x2c, 0x96, 0x1e, 0xf4, 0x15, 0x4d, 0xc8, 0x27, 0xe3, 0x11, 0x1a, 0xa8, 0xa3, 0x53,
  0x47, 0x34, 0xd2, 0x91, 0x40, 0xe9, 0x3d, 0x9a, 0x08, 0xb4, 0x98, 0xd2, 0x9f, 0xff, 0x89, 0xe2,
  0xf7, 0xa7, 0x0c, 0x9a, 0x4e, 0x18, 0xf4, 0x9e, 0xed, 0xe7, 0x1f, 0xa0, 0xbf, 0x97, 0x88, 0x37,
  0xfc, 0x2d, 0xe4, 0x35, 0xd2, 0xb8, 0xef, 0xf4, 0x58, 0x4d, 0x1e, 0xf7, 0x7d, 0x29, 0xfc, 0xaf,
  0x30, 0xe9, 0x1c, 0x12, 0x63, 0xbc, 0xcd, 0x61, 0xe6, 0xb5, 0x7f, 0xf2, 0x0c, 0x63, 0xb7, 0xea,
  0x05, 0x4b, 0xee, 0xce, 0x29, 0x14, 0x09, 0xd5, 0xdc, 0x32, 0x30, 0x29, 0x45, 0xe4, 0x39, 0x52,
  0x14, 0xee, 0xe8, 0xdf, 0xf0, 0x61, 0xbf, 0xd5, 0x5f, 0x10, 0x18, 0xd1, 0xeb, 0xdd, 0x06, 0x16,
  0x07, 0x2c, 0xf2, 0xf3, 0xe9, 0x32, 0xc2, 0xf6, 0x1e, 0x24, 0xed, 0xaf, 0x00, 0xb1, 0x26, 0xc4,
  0x58, 0xb7, 0x51, 0x20, 0x12, 0x52, 0x8b, 0x10, 0xde, 0x3f, 0xd4, 0x3a, 0xeb, 0x57, 0x17, 0xd6,
  0xce, 0x2a, 0xf0, 0xed, 0x11, 0x4d, 0x62, 0xd0, 0x26, 0x58, 0x96, 0xcb, 0x00, 0xc8, 0x59, 0xea,
  0x06, 0xd3, 0xb6, 0x18, 0x4b, 0x6a, 0x1e, 0x7f, 0x40, 0xbf, 0xad, 0xcd, 0xff, 0x2d, 0x37, 0xe4,
  0xc8, 0xe7, 0x71, 0x54, 0x67, 0x72, 0x26, 0x7f, 0xec, 0xbb, 0xdf, 0xfd, 0x9a, 0x3c, 0xd9, 0x69,
  0x2c, 0xff, 0x29, 0x30, 0xea, 0x31, 0xdd, 0x29, 0x1c, 0x78, 0xd1, 0x45, 0xf1, 0x1a, 0xf8, 0x47,
  0xab, 0xaa, 0x90, 0x72, 0x77, 0xf4, 0x81, 0xbb, 0x24, 0xfc, 0x48, 0xdb, 0x51, 0xd0, 0x57, 0xe3,
  0xcc, 0x21, 0xf2, 0xab, 0x50, 0x4d, 0xf3, 0x77, 0x0d, 0x3c, 0x1b, 0x31, 0x0e, 0x46, 0x1d, 0x05,
  0x23, 0xdf, 0x36, 0x6d, 0x45, 0x7a, 0x6b, 0x4b, 0x12, 0xe3, 0x6f, 0xb0, 0x1e, 0xfe, 0xad, 0x29,
  0xef, 0x41, 0x39, 0x0d, 0xd0, 0x29, 0xf8, 0x04, 0x26, 0x20, 0xa4, 0x37, 0xa0, 0x1e, 0x69, 0x29,
  0x76, 0xcf, 0xb3, 0x76, 0x33, 0x5c, 0x19, 0xfa, 0x07, 0xfd, 0x30, 0x2d, 0x16, 0x2b, 0x25, 0x13,
  0x81, 0x42, 0x20, 0x24, 0x11, 0xe1, 0x20, 0xb7, 0x15, 0x9a, 0xe1, 0x3e, 0x37, 0xdd, 0x2c, 0xcb,
  0x47, 0x4c, 0x64, 0x47, 0xd1, 0x16, 0xb7, 0x67, 0xf5, 0x57, 0x06, 0xc5, 0x1d, 0x9c, 0x7f, 0xaa,
  0xe7, 0xb3, 0xe3, 0x13, 0x01, 0x6a, 0xcb, 0xde, 0x0c, 0x15, 0x1b, 0xee, 0x0b, 0x2b, 0xc2, 0x24,
  0x05, 0x45, 0x47, 0x3f, 0xdb, 0x2a, 0x41, 0xb1, 0xb5, 0x7c, 0x23, 0xfa, 0xa3, 0xce, 0x40, 0xfd,
  0xee, 0xff, 0x1c, 0xea, 0x5d, 0x60, 0x34, 0x4b, 0x75, 0xb7, 0x93, 0xed, 0x51, 0xab, 0x2c, 0x06,
  0x89, 0xbd, 0x4b, 0x45, 0xee, 0x45, 0xf3, 0x2e, 0x57, 0x4f, 0xa6, 0x43, 0x0c, 0x03, 0x20, 0x47,
  0x71, 0x47, 0xaa, 0xc8, 0x67, 0xbd, 0x11, 0x04, 0x69, 0x27, 0x58, 0x45, 0x38, 0xbc, 0x18, 0xe1,
  0x8a, 0x5b, 0xc2, 0xb2, 0xd9, 0x13, 0x81, 0x05, 0x18, 0xf5, 0xc6, 0x0e, 0xa3, 0x0d, 0x75, 0x61,
  0x46, 0x1f, 0x0f, 0x09, 0x15, 0x43, 0xc8, 0x6c, 0x36, 0xc2, 0xc0, 0xdc, 0xa2, 0x62, 0xe2, 0xb9,
  0xab, 0x08, 0x1e, 0x71, 0x34, 0xda, 0x36, 0xdb, 0x7f, 0x0e, 0xe2, 0xf4, 0xc7, 0xe1, 0xea, 0x02,
  0x22, 0x17, 0x3e, 0x0d, 0x32, 0xc8, 0xfd, 0x28, 0xdd, 0xf1, 0x12, 0x59, 0x03, 0xe9, 0x0a, 0x1d,
  0xc9, 0xe3, 0xff, 0xf5, 0x32, 0xf7, 0xd2, 0xdc, 0x3d, 0x29, 0x4a, 0x58, 0x5e, 0x00, 0x19, 0x16,
  0x52, 0x22, 0x48, 0x39, 0xe2, 0x06, 0x21, 0x08, 0x06, 0xf4, 0x0e, 0x01, 0x03, 0x40, 0xe8, 0xfe,
  0x5a, 0x5a, 0xfa, 0x28, 0xf6, 0x53, 0x00, 0xc8, 0xbb, 0xc0, 0x45, 0x33, 0x09, 0x28, 0x25, 0xea,
  0x13, 0xd8, 0x70, 0x47, 0x1b, 0x52, 0x29, 0xcc, 0xf4, 0x20, 0x21, 0xdc, 0x06, 0x0c, 0xe9, 0xf5,
  0x7f, 0x39, 0x1a, 0x47, 0xe0, 0x46, 0x19, 0xdc, 0xef, 0x33, 0xc9, 0x19, 0x1c, 0x03, 0x17, 0x16,
  0xd8, 0xd6, 0xe0, 0xdb, 0xeb, 0xaf, 0x74, 0x3d, 0x40, 0xf4, 0xcf, 0xf7, 0x55, 0x12, 0x73, 0x35,
  0x1d, 0xfd, 0x36, 0xe1, 0x17, 0x85, 0x3f, 0xf6, 0x20, 0xa4, 0xd2, 0xa8, 0x92, 0x2a, 0xd5, 0xed,
  0xe3, 0xba, 0x47, 0xc6, 0xe4, 0x15, 0x19, 0x8e, 0xd5, 0x6f, 0x81, 0x00, 0xfe, 0x83, 0x40, 0x4c,
  0x95, 0xde, 0x32, 0x8d, 0x2b, 0x2d, 0x37, 0x91, 0xa9, 0x0a, 0xd0, 0x16, 0xa8, 0x21, 0x01, 0xfa,
  0x47, 0xe7, 0x0c, 0xed, 0x0f, 0xe6, 0xd3, 0x04, 0x56, 0x46, 0xb9, 0x5c, 0xf1, 0x03, 0x33, 0xc5,
  0xb7, 0x54, 0xa8, 0xe1, 0x1a, 0xc6, 0xef, 0x3c, 0xde, 0x00, 0xd9, 0xbf, 0x6d, 0x33, 0xe5, 0xb9,
  0xbe, 0x1d, 0x14, 0x51, 0x10, 0x15, 0x0d, 0x56, 0x08, 0x9c, 0x3e, 0x7f, 0x4e, 0x11, 0xe0, 0xb7,
  0x35, 0x10, 0x2c, 0xe1, 0x60, 0x51, 0xfb, 0x25, 0x2a, 0x07, 0x39, 0x48, 0x65, 0xa8, 0x09, 0x9c,
  0x43, 0xa6, 0xee, 0xbb, 0xdf, 0x05, 0xb3, 0x35, 0x0b, 0x4e, 0x24, 0xc3, 0x07, 0x1d, 0xb6, 0x26,
  0xc0, 0x01, 0x42, 0x1d, 0x14, 0xe0, 0x25, 0x1e, 0xa1, 0xd9, 0x53, 0xf6, 0x28, 0x63, 0x1c, 0x20,
  0x2c, 0x52, 0x4a, 0xd5, 0xac, 0xef, 0x74, 0xed, 0x75, 0x6b, 0xd6, 0x9d, 0x2b, 0xe1, 0xfd, 0x7f,
  0x09, 0x58, 0xed, 0x13, 0x9b, 0xb8, 0xd2, 0x57, 0xc4, 0x3b, 0x2e, 0xaf, 0xd6, 0x77, 0x31, 0x68,
  0x3c, 0x71, 0xdf, 0x74, 0x28, 0xc0, 0x4e, 0x3d, 0xcb, 0x1d, 0x3e, 0x40, 0x10, 0x76, 0xc5, 0xc8,
  0x03, 0x2f, 0x06, 0xb2, 0x81, 0xbb, 0xcf, 0xfc, 0x00, 0x98, 0x43, 0xc6, 0x12, 0xd2, 0xb1, 0x05,
  0xab, 0x10, 0xa3, 0xfb, 0x09, 0xa3, 0xc5, 0x12, 0x42, 0x08, 0xbc, 0xd3, 0x36, 0x41, 0x3b, 0x4d,
  0x21, 0x33, 0xa1, 0xff, 0x49, 0x46, 0x11, 0x87, 0xeb, 0x81, 0x34, 0x4c, 0xaf, 0x3c, 0xb9, 0x9a,
  0x83, 0xa7, 0x9a, 0x91, 0xca, 0x2d, 0x2e, 0x38, 0x3b, 0xbc, 0x1a, 0x8a, 0xef, 0xb0, 0x17, 0xa4,
  0x03, 0xdd, 0x36, 0x47, 0x40, 0x19, 0xf4, 0xe3, 0x6a, 0x47, 0x43, 0xe6, 0xf8, 0x0d, 0xaf, 0x58,
  0x23, 0xe1, 0x46, 0x54, 0x6b, 0xe1, 0x4f, 0x7a, 0xa8, 0x05, 0xe7, 0x20, 0xb7, 0xff, 0xfd, 0xde,
  0xf2, 0xcf, 0x47, 0xf0, 0x62, 0x20, 0xd4, 0xfb, 0x5b, 0xc8, 0x26, 0x7e, 0x34, 0xbc, 0x0e, 0xc7,
  0x59, 0xfd, 0x77, 0x01, 0xb9, 0x50, 0x1b, 0xa2, 0xd1, 0x33, 0x4f, 0x18, 0x5d, 0xf7, 0xd6, 0x19,
  0xdd, 0x7f, 0x49, 0x61, 0x44, 0x3b, 0x54, 0x2e, 0x5e, 0x64, 0x14, 0xcf, 0xe0, 0xe0, 0xe0, 0x4a,
  0x1f, 0xc6, 0x29, 0x5d, 0x12, 0x3f, 0x26, 0x1a, 0xc8, 0x01, 0x20, 0x7f, 0xe1, 0xfe, 0x13, 0xf5,
  0xe7, 0xff, 0xf0, 0x06, 0x73, 0x52, 0x19, 0xfd, 0x3b, 0xd2, 0x13, 0x64, 0x28, 0xe0, 0x15, 0x1d,
  0xfe, 0xf8, 0x65, 0x1d, 0xd5, 0x1b, 0xc3, 0xca, 0xd7, 0xe1, 0xeb, 0x23, 0xea, 0xc6, 0x4a, 0x67,
  0xf9, 0x17, 0xe3, 0xf9, 0xfe, 0xe4, 0x56, 0xdf, 0xb6, 0x4c, 0x33, 0x07, 0xe0, 0x77, 0xb1, 0x79,
  0x3a, 0x07, 0xe7, 0xea, 0x0e, 0xf5, 0x1b, 0xe2, 0xcf, 0xda, 0xc6, 0xff, 0x75, 0xf4, 0x33, 0x7f,
  0xef, 0x12, 0x22, 0xd1, 0x5b, 0xc2, 0xb7, 0x4d, 0x45, 0x1e, 0xde, 0xc9, 0x1e, 0x63, 0xb9, 0x00,
  0xb5, 0xd3, 0x0a, 0xee, 0x0a, 0xce, 0xe2, 0x3f, 0xb6, 0x46, 0x66, 0x20, 0x20, 0xae, 0xce, 0xc2,
  0x45, 0xff, 0xc7, 0xcf, 0x11, 0xed, 0x1e, 0x51, 0x33, 0xc5, 0x6d, 0xd9, 0xa3, 0x13, 0x17, 0xfc,
  0x24, 0x62, 0x68, 0xe3, 0xc7, 0x7f, 0xf6, 0x04, 0xf8, 0x4b, 0xab, 0xbd, 0x02, 0xc5, 0x2b, 0x0d,
  0x29, 0x23, 0xb3, 0xfa, 0xba, 0xe8, 0xd4, 0xcc, 0x43, 0x1e, 0xba, 0xe2, 0xe0, 0x36, 0xdb, 0x25,
  0x01, 0xe5, 0x3a, 0xdd, 0x30, 0x16, 0x73, 0xe8, 0x0c, 0xf5, 0x21, 0x1c, 0x57, 0x10, 0x7a, 0xcc,
  0x76, 0x04, 0xf1, 0xea, 0xda, 0x54, 0xd0, 0x2e, 0xf3, 0xfa, 0xe8, 0xf9, 0xce, 0x48, 0x00, 0xc7,
  0xb4, 0xe3, 0x25, 0x0b, 0x12, 0x44, 0xd3, 0x23, 0xdd, 0xf4, 0xc2, 0xf7, 0x3e, 0x1e, 0x6b, 0x64,
  0xe5, 0x0a, 0xf7, 0xe6, 0xce, 0xce, 0xe8, 0x14, 0xf9, 0xdc, 0x04, 0x2b, 0x56, 0xea, 0xc0, 0xe4,
  0xd3, 0x7f, 0xef, 0x0c, 0x14, 0xb0, 0xdc, 0xc4, 0xe0, 0xea, 0x02, 0x6a, 0x3f, 0xfa, 0xed, 0x1f,
  0xba, 0x37, 0xbe, 0xdc, 0x31, 0xb6, 0x48, 0xdc, 0x08, 0xb1, 0x1c, 0xb9, 0x89, 0x14, 0x15, 0xfd,
  0xcf, 0x08, 0xa5, 0x7f, 0xb2, 0x13, 0xef, 0xf0, 0xf1, 0x3f, 0x00, 0xd6, 0x03, 0xde, 0xd9, 0xe9,
  0x95, 0xd9, 0xf2, 0x15, 0x4c, 0xa3, 0x45, 0xdc, 0xe5, 0x1c, 0xf8, 0xe5, 0x1c, 0xb2, 0x0e, 0xac,
  0xf5, 0xb7, 0xfa, 0xaf, 0xff, 0xdf, 0x22, 0xdf, 0xf4, 0x5a, 0xc7, 0xaa, 0xd2, 0xc7, 0x14, 0xf1,
  0xb6, 0x69, 0x4c, 0xfd, 0x2d, 0x61, 0x42, 0xe6, 0x2c, 0xc6, 0x95, 0xe0, 0xa4, 0x3e, 0xd7, 0x24,
  0x02, 0xde, 0x2e, 0x13, 0x41, 0xfc, 0x26, 0x81, 0xc3, 0x51, 0x84, 0xc1, 0xda, 0xb2, 0xb8, 0x40,
  0xdb, 0x92, 0x00, 0x09, 0x5d, 0x61, 0xc8, 0x91, 0x37, 0x05, 0xf2, 0x1c, 0x16, 0x14, 0x49, 0x23,
  0x3b, 0x87, 0x95, 0xb7, 0xc6, 0xc8, 0x24, 0x1d, 0x5b, 0xc2, 0xfb, 0x22, 0x81, 0x1a, 0x27, 0x0c,
  0xfb, 0x52, 0xae, 0xcb, 0x7f, 0xe4, 0xe1, 0xef, 0x5a, 0x09, 0xf0, 0xd4, 0x07, 0x34, 0x13, 0x18,
  0xe6, 0x3a, 0xdd, 0xf7, 0x73, 0xaf, 0x42, 0x0c, 0xfa, 0x3a, 0x68, 0xea, 0xff, 0x41, 0xcf, 0x0b,
  0xe9, 0x27, 0xe2, 0xb8, 0xf2, 0xfa, 0xae, 0x63, 0x59, 0x09, 0x1d, 0x33, 0x27, 0xc6, 0xcf, 0x4c,
  0x21, 0xd7, 0x69, 0xdd, 0xc6, 0x6e, 0x02, 0xd6, 0x3b, 0x4f, 0x6e, 0x48, 0x01, 0x48, 0xb6, 0x1f,
  0xfc, 0x5c, 0xee, 0xdc, 0x81, 0x4b, 0xc3, 0x0a, 0x97, 0xbd, 0x4a, 0x47, 0xfd, 0x28, 0x43, 0xce,
  0x7b, 0x1d, 0x09, 0x06, 0xd3, 0xf3, 0xb4, 0x1a, 0x18, 0x2f, 0x18, 0xba, 0xf4, 0x67, 0xdc, 0x4c,
  0xc3, 0x66, 0x16, 0xd4, 0xc9, 0xf7, 0xd5, 0x12, 0xb9, 0x5a, 0xed, 0x86, 0xbb, 0x58, 0x5d, 0xe9,
  0xe5, 0xbd, 0xbf, 0x66, 0x4c, 0x4a, 0x30, 0x46, 0x69, 0xc5, 0x31, 0x42, 0x76, 0x25, 0xdc, 0xd7,
  0xf5, 0xa6, 0x48, 0x0f, 0x68, 0x00, 0x1f, 0x7f, 0x07, 0x0a, 0x5f, 0xd7, 0x2d, 0xb7, 0x41, 0xa3,
  0xc7, 0xab, 0x62, 0x27, 0x4f, 0xf3, 0xbe, 0x6d, 0x2f, 0x2e, 0x01, 0x55, 0xef, 0x7d, 0xb8, 0xad,
  0x41, 0x11, 0x0d, 0x61, 0xfb, 0x10, 0x09, 0xa9, 0x3b, 0xef, 0xc9, 0x10, 0xd3, 0xb3, 0x5f, 0xee,
  0x4d, 0x9b, 0x04, 0xdb, 0xc9, 0x10, 0xce, 0x1d, 0x70, 0x1c, 0xf8, 0xc7, 0x4a, 0xcb, 0x3e, 0x26,
  0xa4, 0x57, 0x37, 0x1d, 0xf2, 0xfd, 0xff, 0xff, 0x04, 0x00, 0x00, 0x00, 0x80, 0x00, 0x00, 0x00,
  0x97, 0x09, 0x00, 0x00, 0xb5, 0xf7, 0xff, 0xff, 0x6e, 0x05, 0x00, 0x00, 0x2a, 0x10, 0x00, 0x00,
  0xfb, 0x09, 0x00, 0x00, 0x97, 0x08, 0x00, 0x00, 0x47, 0x0b, 0x00, 0x00, 0x3b, 0x0a, 0x00, 0x00,
  0x1f, 0x00, 0x00, 0x00, 0xce, 0xed, 0xff, 0xff, 0xbd, 0xfe, 0xff, 0xff, 0x25, 0x0d, 0x00, 0x00,
  0x24, 0x02, 0x00, 0x00, 0x40, 0x14, 0x00, 0x00, 0x4a, 0x13, 0x00, 0x00, 0x59, 0xf7, 0xff, 0xff,
  0x9b, 0x0d, 0x00, 0x00, 0x90, 0x14, 0x00, 0x00, 0xa7, 0xee, 0xff, 0xff, 0x85, 0xff, 0xff, 0xff,
  0xb0, 0x17, 0x00, 0x00, 0x71, 0xeb, 0xff, 0xff, 0xc8, 0x13, 0x00, 0x00, 0xe1, 0x08, 0x00, 0x00,
  0xc4, 0xfe, 0xff, 0xff, 0x4f, 0x18, 0x00, 0x00, 0x8d, 0x0c, 0x00, 0x00, 0x5e, 0xfc, 0xff, 0xff,
  0x2c, 0xfc, 0xff, 0xff, 0xb5, 0xfc, 0xff, 0xff, 0x37, 0x14, 0x00, 0x00, 0xd5, 0x13, 0x00, 0x00,
  0x7e, 0xfe, 0xff, 0xff, 0x04, 0x00, 0x00, 0x00, 0xa0, 0x00, 0x00, 0x00, 0x3a, 0x06, 0x20, 0xb4,
  0x5a, 0x0a, 0xcf, 0x3b, 0xe2, 0x42, 0x7f, 0xc7, 0x1a, 0xa5, 0x12, 0x4e, 0x6e, 0x91, 0xde, 0x3f,
  0x95, 0xe1, 0xf6, 0x51, 0x57, 0xc4, 0xdb, 0xa3, 0xea, 0x57, 0x99, 0x0b, 0xcb, 0x3d, 0x16, 0xf0,
  0x0c, 0xd9, 0x5e, 0x4e, 0x49, 0xbc, 0x2f, 0x6f, 0xfe, 0x05, 0x7f, 0x25, 0xa0, 0x0e, 0x3e, 0xd4,
  0xfc, 0xbd, 0x87, 0xda, 0x1c, 0x45, 0x0d, 0xf5, 0xe5, 0x9e, 0x31, 0x27, 0xc5, 0xbd, 0xb7, 0xaf,
  0x39, 0xad, 0x1e, 0x95, 0x3b, 0xc0, 0xcb, 0xa4, 0x28, 0x7f, 0x97, 0xd7, 0x43, 0xff, 0x53, 0xa9,
  0x37, 0xb2, 0xf4, 0x3b, 0x3c, 0x65, 0x65, 0xce, 0x1b, 0xcb, 0xb8, 0xa6, 0x65, 0x02, 0x6e, 0xe4,
  0x60, 0x9c, 0xd3, 0x4c, 0x3c, 0xf3, 0x3a, 0xa2, 0x96, 0xd5, 0xcc, 0xe9, 0xdd, 0xfc, 0xd7, 0xf2,
  0x62, 0xec, 0x9e, 0xbf, 0x30, 0x03, 0x22, 0xb9, 0xd0, 0xe3, 0x01, 0x81, 0x42, 0xed, 0x91, 0x0d,
  0x9f, 0x54, 0xe1, 0xc9, 0xe0, 0xed, 0x65, 0x1b, 0xac, 0xff, 0x33, 0x97, 0x04, 0x10, 0xb4, 0x53,
  0x81, 0xc1, 0x26, 0x5b, 0xf1, 0xf4, 0xf2, 0x49, 0x31, 0xdc, 0xa9, 0x7b, 0x2a, 0xff, 0xff, 0xff,
  0x04, 0x00, 0x00, 0x00, 0x14, 0x00, 0x00, 0x00, 0x3a, 0xf9, 0xff, 0xff, 0x38, 0xfc, 0xff, 0xff,
  0xff, 0x04, 0x00, 0x00, 0x09, 0x01, 0x00, 0x00, 0xbd, 0x02, 0x00, 0x00, 0x4a, 0xff, 0xff, 0xff,
  0x04, 0x00, 0x00, 0x00, 0x08, 0x00, 0x00, 0x00, 0x01, 0x00, 0x00, 0x00, 0x02, 0x00, 0x00, 0x00,
  0x9c, 0xcf, 0xff, 0xff, 0xa0, 0xcf, 0xff, 0xff, 0x0f, 0x00, 0x00, 0x00, 0x4d, 0x4c, 0x49, 0x52,
  0x20, 0x43, 0x6f, 0x6e, 0x76, 0x65, 0x72, 0x74, 0x65, 0x64, 0x2e, 0x00, 0x01, 0x00, 0x00, 0x00,
  0x14, 0x00, 0x00, 0x00, 0x00, 0x00, 0x0e, 0x00, 0x18, 0x00, 0x14, 0x00, 0x10, 0x00, 0x0c, 0x00,
  0x08, 0x00, 0x04, 0x00, 0x0e, 0x00, 0x00, 0x00, 0x14, 0x00, 0x00, 0x00, 0x1c, 0x00, 0x00, 0x00,
  0x2c, 0x03, 0x00, 0x00, 0x30, 0x03, 0x00, 0x00, 0x34, 0x03, 0x00, 0x00, 0x04, 0x00, 0x00, 0x00,
  0x6d, 0x61, 0x69, 0x6e, 0x00, 0x00, 0x00, 0x00, 0x0b, 0x00, 0x00, 0x00, 0xc8, 0x02, 0x00, 0x00,
  0x60, 0x02, 0x00, 0x00, 0x10, 0x02, 0x00, 0x00, 0xc8, 0x01, 0x00, 0x00, 0x78, 0x01, 0x00, 0x00,
  0x30, 0x01, 0x00, 0x00, 0xf0, 0x00, 0x00, 0x00, 0xbc, 0x00, 0x00, 0x00, 0x78, 0x00, 0x00, 0x00,
  0x40, 0x00, 0x00, 0x00, 0x04, 0x00, 0x00, 0x00, 0xd6, 0xfd, 0xff, 0xff, 0x1c, 0x00, 0x00, 0x00,
  0x00, 0x00, 0x00, 0x09, 0x1c, 0x00, 0x00, 0x00, 0x20, 0x00, 0x00, 0x00, 0x04, 0x00, 0x00, 0x00,
  0x00, 0x00, 0x06, 0x00, 0x08, 0x00, 0x04, 0x00, 0x06, 0x00, 0x00, 0x00, 0x00, 0x00, 0x80, 0x3f,
  0x01, 0x00, 0x00, 0x00, 0x1e, 0x00, 0x00, 0x00, 0x01, 0x00, 0x00, 0x00, 0x1d, 0x00, 0x00, 0x00,
  0x9e, 0xfe, 0xff, 0xff, 0x14, 0x00, 0x00, 0x00, 0x00, 0x00, 0x00, 0x08, 0x10, 0x00, 0x00, 0x00,
  0x14, 0x00, 0x00, 0x00, 0x03, 0x00, 0x00, 0x00, 0x74, 0xd0, 0xff, 0xff, 0x01, 0x00, 0x00, 0x00,
  0x1d, 0x00, 0x00, 0x00, 0x03, 0x00, 0x00, 0x00, 0x1c, 0x00, 0x00, 0x00, 0x03, 0x00, 0x00, 0x00,
  0x02, 0x00, 0x00, 0x00, 0x42, 0xfe, 0xff, 0xff, 0x1c, 0x00, 0x00, 0x00, 0x00, 0x00, 0x00, 0x08,
  0x1c, 0x00, 0x00, 0x00, 0x20, 0x00, 0x00, 0x00, 0x03, 0x00, 0x00, 0x00, 0x00, 0x00, 0x06, 0x00,
  0x08, 0x00, 0x07, 0x00, 0x06, 0x00, 0x00, 0x00, 0x00, 0x00, 0x00, 0x01, 0x01, 0x00, 0x00, 0x00,
  0x1c, 0x00, 0x00, 0x00, 0x03, 0x00, 0x00, 0x00, 0x1b, 0x00, 0x00, 0x00, 0x05, 0x00, 0x00, 0x00,
  0x04, 0x00, 0x00, 0x00, 0x12, 0xff, 0xff, 0xff, 0x14, 0x00, 0x00, 0x00, 0x00, 0x00, 0x00, 0x1b,
  0x10, 0x00, 0x00, 0x00, 0x14, 0x00, 0x00, 0x00, 0x02, 0x00, 0x00, 0x00, 0xe8, 0xd0, 0xff, 0xff,
  0x01, 0x00, 0x00, 0x00, 0x1b, 0x00, 0x00, 0x00, 0x02, 0x00, 0x00, 0x00, 0x1a, 0x00, 0x00, 0x00,
  0x01, 0x00, 0x00, 0x00, 0x4e, 0xfe, 0xff, 0xff, 0x10, 0x00, 0x00, 0x00, 0x00, 0x00, 0x00, 0x01,
  0x18, 0x00, 0x00, 0x00, 0x1c, 0x00, 0x00, 0x00, 0x40, 0xfe, 0xff, 0xff, 0x00, 0x00, 0x00, 0x01,
  0x01, 0x00, 0x00, 0x00, 0x01, 0x00, 0x00, 0x00, 0x01, 0x00, 0x00, 0x00, 0x1a, 0x00, 0x00, 0x00,
  0x03, 0x00, 0x00, 0x00, 0x19, 0x00, 0x00, 0x00, 0x07, 0x00, 0x00, 0x00, 0x06, 0x00, 0x00, 0x00,
  0x7e, 0xff, 0xff, 0xff, 0x14, 0x00, 0x00, 0x00, 0x00, 0x00, 0x00, 0x02, 0x20, 0x00, 0x00, 0x00,
  0x24, 0x00, 0x00, 0x00, 0x01, 0x00, 0x00, 0x00, 0xde, 0xfe, 0xff, 0xff, 0x00, 0x00, 0x00, 0x01,
  0x01, 0x00, 0x00, 0x00, 0x02, 0x00, 0x00, 0x00, 0x02, 0x00, 0x00, 0x00, 0x01, 0x00, 0x00, 0x00,
  0x19, 0x00, 0x00, 0x00, 0x03, 0x00, 0x00, 0x00, 0x18, 0x00, 0x00, 0x00, 0x09, 0x00, 0x00, 0x00,
  0x08, 0x00, 0x00, 0x00, 0xce, 0xfe, 0xff, 0xff, 0x10, 0x00, 0x00, 0x00, 0x00, 0x00, 0x00, 0x01,
  0x18, 0x00, 0x00, 0x00, 0x1c, 0x00, 0x00, 0x00, 0xc0, 0xfe, 0xff, 0xff, 0x00, 0x00, 0x00, 0x01,
  0x01, 0x00, 0x00, 0x00, 0x01, 0x00, 0x00, 0x00, 0x01, 0x00, 0x00, 0x00, 0x18, 0x00, 0x00, 0x00,
  0x03, 0x00, 0x00, 0x00, 0x17, 0x00, 0x00, 0x00, 0x0b, 0x00, 0x00, 0x00, 0x0a, 0x00, 0x00, 0x00,
  0x00, 0x00, 0x0e, 0x00, 0x18, 0x00, 0x14, 0x00, 0x10, 0x00, 0x0c, 0x00, 0x0b, 0x00, 0x04, 0x00,
  0x0e, 0x00, 0x00, 0x00, 0x14, 0x00, 0x00, 0x00, 0x00, 0x00, 0x00, 0x02, 0x20, 0x00, 0x00, 0x00,
  0x24, 0x00, 0x00, 0x00, 0x01, 0x00, 0x00, 0x00, 0x6e, 0xff, 0xff, 0xff, 0x00, 0x00, 0x00, 0x01,
  0x01, 0x00, 0x00, 0x00, 0x02, 0x00, 0x00, 0x00, 0x02, 0x00, 0x00, 0x00, 0x01, 0x00, 0x00, 0x00,
  0x17, 0x00, 0x00, 0x00, 0x03, 0x00, 0x00, 0x00, 0x16, 0x00, 0x00, 0x00, 0x0d, 0x00, 0x00, 0x00,
  0x0c, 0x00, 0x00, 0x00, 0x5e, 0xff, 0xff, 0xff, 0x10, 0x00, 0x00, 0x00, 0x00, 0x00, 0x00, 0x01,
  0x18, 0x00, 0x00, 0x00, 0x1c, 0x00, 0x00, 0x00, 0x50, 0xff, 0xff, 0xff, 0x00, 0x00, 0x00, 0x01,
  0x01, 0x00, 0x00, 0x00, 0x01, 0x00, 0x00, 0x00, 0x01, 0x00, 0x00, 0x00, 0x16, 0x00, 0x00, 0x00,
  0x03, 0x00, 0x00, 0x00, 0x15, 0x00, 0x00, 0x00, 0x0f, 0x00, 0x00, 0x00, 0x0e, 0x00, 0x00, 0x00,
  0x00, 0x00, 0x0e, 0x00, 0x1a, 0x00, 0x14, 0x00, 0x10, 0x00, 0x0c, 0x00, 0x0b, 0x00, 0x04, 0x00,
  0x0e, 0x00, 0x00, 0x00, 0x24, 0x00, 0x00, 0x00, 0x00, 0x00, 0x00, 0x02, 0x30, 0x00, 0x00, 0x00,
  0x34, 0x00, 0x00, 0x00, 0x01, 0x00, 0x00, 0x00, 0x00, 0x00, 0x0e, 0x00, 0x14, 0x00, 0x00, 0x00,
  0x10, 0x00, 0x0c, 0x00, 0x08, 0x00, 0x07, 0x00, 0x0e, 0x00, 0x00, 0x00, 0x00, 0x00, 0x00, 0x01,
  0x01, 0x00, 0x00, 0x00, 0x02, 0x00, 0x00, 0x00, 0x02, 0x00, 0x00, 0x00, 0x01, 0x00, 0x00, 0x00,
  0x15, 0x00, 0x00, 0x00, 0x03, 0x00, 0x00, 0x00, 0x14, 0x00, 0x00, 0x00, 0x11, 0x00, 0x00, 0x00,
  0x10, 0x00, 0x00, 0x00, 0x00, 0x00, 0x0e, 0x00, 0x14, 0x00, 0x00, 0x00, 0x10, 0x00, 0x0c, 0x00,
  0x0b, 0x00, 0x04, 0x00, 0x0e, 0x00, 0x00, 0x00, 0x1c, 0x00, 0x00, 0x00, 0x00, 0x00, 0x00, 0x01,
  0x24, 0x00, 0x00, 0x00, 0x28, 0x00, 0x00, 0x00, 0x0c, 0x00, 0x10, 0x00, 0x00, 0x00, 0x0c, 0x00,
  0x08, 0x00, 0x07, 0x00, 0x0c, 0x00, 0x00, 0x00, 0x00, 0x00, 0x00, 0x01, 0x02, 0x00, 0x00, 0x00,
  0x02, 0x00, 0x00, 0x00, 0x01, 0x00, 0x00, 0x00, 0x14, 0x00, 0x00, 0x00, 0x03, 0x00, 0x00, 0x00,
  0x00, 0x00, 0x00, 0x00, 0x13, 0x00, 0x00, 0x00, 0x12, 0x00, 0x00, 0x00, 0x01, 0x00, 0x00, 0x00,
  0x1e, 0x00, 0x00, 0x00, 0x01, 0x00, 0x00, 0x00, 0x00, 0x00, 0x00, 0x00, 0x1f, 0x00, 0x00, 0x00,
  0x20, 0x2d, 0x00, 0x00, 0xc4, 0x2c, 0x00, 0x00, 0x1c, 0x2c, 0x00, 0x00, 0x88, 0x2b, 0x00, 0x00,
  0xb4, 0x29, 0x00, 0x00, 0xd8, 0x27, 0x00, 0x00, 0x84, 0x24, 0x00, 0x00, 0x20, 0x21, 0x00, 0x00,
  0x8c, 0x1e, 0x00, 0x00, 0xd0, 0x1b, 0x00, 0x00, 0x24, 0x19, 0x00, 0x00, 0x80, 0x16, 0x00, 0x00,
  0xac, 0x14, 0x00, 0x00, 0xc4, 0x12, 0x00, 0x00, 0xec, 0x10, 0x00, 0x00, 0x08, 0x0f, 0x00, 0x00,
  0xf4, 0x0d, 0x00, 0x00, 0xcc, 0x0c, 0x00, 0x00, 0xb4, 0x0b, 0x00, 0x00, 0x90, 0x0a, 0x00, 0x00,
  0x8c, 0x09, 0x00, 0x00, 0x38, 0x08, 0x00, 0x00, 0x2c, 0x07, 0x00, 0x00, 0xd8, 0x05, 0x00, 0x00,
  0xcc, 0x04, 0x00, 0x00, 0x78, 0x03, 0x00, 0x00, 0x6c, 0x02, 0x00, 0x00, 0xf0, 0x01, 0x00, 0x00,
  0x24, 0x01, 0x00, 0x00, 0x80, 0x00, 0x00, 0x00, 0x04, 0x00, 0x00, 0x00, 0x72, 0xd3, 0xff, 0xff,
  0x00, 0x00, 0x00, 0x01, 0x18, 0x00, 0x00, 0x00, 0x20, 0x00, 0x00, 0x00, 0x3c, 0x00, 0x00, 0x00,
  0x1f, 0x00, 0x00, 0x00, 0x00, 0x00, 0x00, 0x09, 0x50, 0x00, 0x00, 0x00, 0x02, 0x00, 0x00, 0x00,
  0xff, 0xff, 0xff, 0xff, 0x05, 0x00, 0x00, 0x00, 0x54, 0xd3, 0xff, 0xff, 0x08, 0x00, 0x00, 0x00,
  0x10, 0x00, 0x00, 0x00, 0x01, 0x00, 0x00, 0x00, 0x80, 0xff, 0xff, 0xff, 0xff, 0xff, 0xff, 0xff,
  0x01, 0x00, 0x00, 0x00, 0x00, 0x00, 0x80, 0x3b, 0x1b, 0x00, 0x00, 0x00, 0x53, 0x74, 0x61, 0x74,
  0x65, 0x66, 0x75, 0x6c, 0x50, 0x61, 0x72, 0x74, 0x69, 0x74, 0x69, 0x6f, 0x6e, 0x65, 0x64, 0x43,
  0x61, 0x6c, 0x6c, 0x5f, 0x31, 0x3a, 0x30, 0x00, 0x02, 0x00, 0x00, 0x00, 0x01, 0x00, 0x00, 0x00,
  0x05, 0x00, 0x00, 0x00, 0xea, 0xd3, 0xff, 0xff, 0x00, 0x00, 0x00, 0x01, 0x18, 0x00, 0x00, 0x00,
  0x20, 0x00, 0x00, 0x00, 0x3c, 0x00, 0x00, 0x00, 0x1e, 0x00, 0x00, 0x00, 0x00, 0x00, 0x00, 0x09,
  0x78, 0x00, 0x00, 0x00, 0x02, 0x00, 0x00, 0x00, 0xff, 0xff, 0xff, 0xff, 0x05, 0x00, 0x00, 0x00,
  0xcc, 0xd3, 0xff, 0xff, 0x08, 0x00, 0x00, 0x00, 0x10, 0x00, 0x00, 0x00, 0x01, 0x00, 0x00, 0x00,
  0x05, 0x00, 0x00, 0x00, 0x00, 0x00, 0x00, 0x00, 0x01, 0x00, 0x00, 0x00, 0x9c, 0xf6, 0x83, 0x3d,
  0x42, 0x00, 0x00, 0x00, 0x46, 0x61, 0x63, 0x65, 0x52, 0x65, 0x63, 0x6f, 0x67, 0x6e, 0x69, 0x7a,
  0x65, 0x72, 0x5f, 0x31, 0x2f, 0x6f, 0x75, 0x74, 0x70, 0x75, 0x74, 0x5f, 0x31, 0x2f, 0x4d, 0x61,
  0x74, 0x4d, 0x75, 0x6c, 0x3b, 0x46, 0x61, 0x63, 0x65, 0x52, 0x65, 0x63, 0x6f, 0x67, 0x6e, 0x69,
  0x7a, 0x65, 0x72, 0x5f, 0x31, 0x2f, 0x6f, 0x75, 0x74, 0x70, 0x75, 0x74, 0x5f, 0x31, 0x2f, 0x42,
  0x69, 0x61, 0x73, 0x41, 0x64, 0x64, 0x00, 0x00, 0x02, 0x00, 0x00, 0x00, 0x01, 0x00, 0x00, 0x00,
  0x05, 0x00, 0x00, 0x00, 0x8a, 0xd4, 0xff, 0xff, 0x00, 0x00, 0x00, 0x01, 0x18, 0x00, 0x00, 0x00,
  0x20, 0x00, 0x00, 0x00, 0x3c, 0x00, 0x00, 0x00, 0x1d, 0x00, 0x00, 0x00, 0x00, 0x00, 0x00, 0x09,
  0xa0, 0x00, 0x00, 0x00, 0x02, 0x00, 0x00, 0x00, 0xff, 0xff, 0xff, 0xff, 0x20, 0x00, 0x00, 0x00,
  0x6c, 0xd4, 0xff, 0xff, 0x08, 0x00, 0x00, 0x00, 0x10, 0x00, 0x00, 0x00, 0x01, 0x00, 0x00, 0x00,
  0x80, 0xff, 0xff, 0xff, 0xff, 0xff, 0xff, 0xff, 0x01, 0x00, 0x00, 0x00, 0x8b, 0x1d, 0x92, 0x3c,
  0x6a, 0x00, 0x00, 0x00, 0x46, 0x61, 0x63, 0x65, 0x52, 0x65, 0x63, 0x6f, 0x67, 0x6e, 0x69, 0x7a,
  0x65, 0x72, 0x5f, 0x31, 0x2f, 0x65, 0x6d, 0x62, 0x65, 0x64, 0x64, 0x69, 0x6e, 0x67, 0x5f, 0x31,
  0x2f, 0x4d, 0x61, 0x74, 0x4d, 0x75, 0x6c, 0x3b, 0x46, 0x61, 0x63, 0x65, 0x52, 0x65, 0x63, 0x6f,
  0x67, 0x6e, 0x69, 0x7a, 0x65, 0x72, 0x5f, 0x31, 0x2f, 0x65, 0x6d, 0x62, 0x65, 0x64, 0x64, 0x69,
  0x6e, 0x67, 0x5f, 0x31, 0x2f, 0x52, 0x65, 0x6c, 0x75, 0x3b, 0x46, 0x61, 0x63, 0x65, 0x52, 0x65,
  0x63, 0x6f, 0x67, 0x6e, 0x69, 0x7a, 0x65, 0x72, 0x5f, 0x31, 0x2f, 0x65, 0x6d, 0x62, 0x65, 0x64,
  0x64, 0x69, 0x6e, 0x67, 0x5f, 0x31, 0x2f, 0x42, 0x69, 0x61, 0x73, 0x41, 0x64, 0x64, 0x00, 0x00,
  0x02, 0x00, 0x00, 0x00, 0x01, 0x00, 0x00, 0x00, 0x20, 0x00, 0x00, 0x00, 0x52, 0xd5, 0xff, 0xff,
  0x00, 0x00, 0x00, 0x01, 0x18, 0x00, 0x00, 0x00, 0x20, 0x00, 0x00, 0x00, 0x3c, 0x00, 0x00, 0x00,
  0x1c, 0x00, 0x00, 0x00, 0x00, 0x00, 0x00, 0x09, 0x50, 0x00, 0x00, 0x00, 0x02, 0x00, 0x00, 0x00,
  0xff, 0xff, 0xff, 0xff, 0x40, 0x00, 0x00, 0x00, 0x34, 0xd5, 0xff, 0xff, 0x08, 0x00, 0x00, 0x00,
  0x10, 0x00, 0x00, 0x00, 0x01, 0x00, 0x00, 0x00, 0x80, 0xff, 0xff, 0xff, 0xff, 0xff, 0xff, 0xff,
  0x01, 0x00, 0x00, 0x00, 0xef, 0xd1, 0x9d, 0x3b, 0x1b, 0x00, 0x00, 0x00, 0x46, 0x61, 0x63, 0x65,
  0x52, 0x65, 0x63, 0x6f, 0x67, 0x6e, 0x69, 0x7a, 0x65, 0x72, 0x5f, 0x31, 0x2f, 0x67, 0x61, 0x70,
  0x5f, 0x31, 0x2f, 0x4d, 0x65, 0x61, 0x6e, 0x00, 0x02, 0x00, 0x00, 0x00, 0x01, 0x00, 0x00, 0x00,
  0x40, 0x00, 0x00, 0x00, 0xca, 0xd5, 0xff, 0xff, 0x00, 0x00, 0x00, 0x01, 0x18, 0x00, 0x00, 0x00,
  0x28, 0x00, 0x00, 0x00, 0x48, 0x00, 0x00, 0x00, 0x1b, 0x00, 0x00, 0x00, 0x00, 0x00, 0x00, 0x09,
  0xd8, 0x00, 0x00, 0x00, 0x04, 0x00, 0x00, 0x00, 0xff, 0xff, 0xff, 0xff, 0x06, 0x00, 0x00, 0x00,
  0x06, 0x00, 0x00, 0x00, 0x40, 0x00, 0x00, 0x00, 0xb4, 0xd5, 0xff, 0xff, 0x08, 0x00, 0x00, 0x00,
  0x14, 0x00, 0x00, 0x00, 0x01, 0x00, 0x00, 0x00, 0x80, 0xff, 0xff, 0xff, 0xff, 0xff, 0xff, 0xff,
  0x00, 0x00, 0x00, 0x00, 0x01, 0x00, 0x00, 0x00, 0x8d, 0x8f, 0x0d, 0x3d, 0x94, 0x00, 0x00, 0x00,
  0x46, 0x61, 0x63, 0x65, 0x52, 0x65, 0x63, 0x6f, 0x67, 0x6e, 0x69, 0x7a, 0x65, 0x72, 0x5f, 0x31,
  0x2f, 0x72, 0x65, 0x6c, 0x75, 0x34, 0x62, 0x5f, 0x31, 0x2f, 0x52, 0x65, 0x6c, 0x75, 0x3b, 0x46,
  0x61, 0x63, 0x65, 0x52, 0x65, 0x63, 0x6f, 0x67, 0x6e, 0x69, 0x7a, 0x65, 0x72, 0x5f, 0x31, 0x2f,
  0x62, 0x6e, 0x34, 0x62, 0x5f, 0x31, 0x2f, 0x62, 0x61, 0x74, 0x63, 0x68, 0x6e, 0x6f, 0x72, 0x6d,
  0x2f, 0x61, 0x64, 0x64, 0x5f, 0x31, 0x3b, 0x46, 0x61, 0x63, 0x65, 0x52, 0x65, 0x63, 0x6f, 0x67,
  0x6e, 0x69, 0x7a, 0x65, 0x72, 0x5f, 0x31, 0x2f, 0x70, 0x77, 0x5f, 0x63, 0x6f, 0x6e, 0x76, 0x34,
  0x5f, 0x31, 0x2f, 0x63, 0x6f, 0x6e, 0x76, 0x6f, 0x6c, 0x75, 0x74, 0x69, 0x6f, 0x6e, 0x3b, 0x46,
  0x61, 0x63, 0x65, 0x52, 0x65, 0x63, 0x6f, 0x67, 0x6e, 0x69, 0x7a, 0x65, 0x72, 0x5f, 0x31, 0x2f,
  0x62, 0x6e, 0x34, 0x62, 0x5f, 0x31, 0x2f, 0x62, 0x61, 0x74, 0x63, 0x68, 0x6e, 0x6f, 0x72, 0x6d,
  0x2f, 0x73, 0x75, 0x62, 0x00, 0x00, 0x00, 0x00, 0x04, 0x00, 0x00, 0x00, 0x01, 0x00, 0x00, 0x00,
  0x06, 0x00, 0x00, 0x00, 0x06, 0x00, 0x00, 0x00, 0x40, 0x00, 0x00, 0x00, 0xd2, 0xd6, 0xff, 0xff,
  0x00, 0x00, 0x00, 0x01, 0x18, 0x00, 0x00, 0x00, 0x28, 0x00, 0x00, 0x00, 0x44, 0x00, 0x00, 0x00,
  0x1a, 0x00, 0x00, 0x00, 0x00, 0x00, 0x00, 0x09, 0x20, 0x01, 0x00, 0x00, 0x04, 0x00, 0x00, 0x00,
  0xff, 0xff, 0xff, 0xff, 0x06, 0x00, 0x00, 0x00, 0x06, 0x00, 0x00, 0x00, 0x30, 0x00, 0x00, 0x00,
  0xbc, 0xd6, 0xff, 0xff, 0x08, 0x00, 0x00, 0x00, 0x10, 0x00, 0x00, 0x00, 0x01, 0x00, 0x00, 0x00,
  0x80, 0xff, 0xff, 0xff, 0xff, 0xff, 0xff, 0xff, 0x01, 0x00, 0x00, 0x00, 0x4d, 0x24, 0x21, 0x3d,
  0xe0, 0x00, 0x00, 0x00, 0x46, 0x61, 0x63, 0x65, 0x52, 0x65, 0x63, 0x6f, 0x67, 0x6e, 0x69, 0x7a,
  0x65, 0x72, 0x5f, 0x31, 0x2f, 0x72, 0x65, 0x6c, 0x75, 0x34, 0x61, 0x5f, 0x31, 0x2f, 0x52, 0x65,
  0x6c, 0x75, 0x3b, 0x46, 0x61, 0x63, 0x65, 0x52, 0x65, 0x63, 0x6f, 0x67, 0x6e, 0x69, 0x7a, 0x65,
  0x72, 0x5f, 0x31, 0x2f, 0x62, 0x6e, 0x34, 0x61, 0x5f, 0x31, 0x2f, 0x62, 0x61, 0x74, 0x63, 0x68,
  0x6e, 0x6f, 0x72, 0x6d, 0x2f, 0x61, 0x64, 0x64, 0x5f, 0x31, 0x3b, 0x46, 0x61, 0x63, 0x65, 0x52,
  0x65, 0x63, 0x6f, 0x67, 0x6e, 0x69, 0x7a, 0x65, 0x72, 0x5f, 0x31, 0x2f, 0x62, 0x6e, 0x34, 0x61,
  0x5f, 0x31, 0x2f, 0x62, 0x61, 0x74, 0x63, 0x68, 0x6e, 0x6f, 0x72, 0x6d, 0x2f, 0x6d, 0x75, 0x6c,
  0x5f, 0x31, 0x3b, 0x46, 0x61, 0x63, 0x65, 0x52, 0x65, 0x63, 0x6f, 0x67, 0x6e, 0x69, 0x7a, 0x65,
  0x72, 0x5f, 0x31, 0x2f, 0x64, 0x77, 0x5f, 0x63, 0x6f, 0x6e, 0x76, 0x34, 0x5f, 0x31, 0x2f, 0x64,
  0x65, 0x70, 0x74, 0x68, 0x77, 0x69, 0x73, 0x65, 0x3b, 0x46, 0x61, 0x63, 0x65, 0x52, 0x65, 0x63,
  0x6f, 0x67, 0x6e, 0x69, 0x7a, 0x65, 0x72, 0x5f, 0x31, 0x2f, 0x62, 0x6e, 0x34, 0x61, 0x5f, 0x31,
  0x2f, 0x62, 0x61, 0x74, 0x63, 0x68, 0x6e, 0x6f, 0x72, 0x6d, 0x2f, 0x6d, 0x75, 0x6c, 0x3b, 0x46,
  0x61, 0x63, 0x65, 0x52, 0x65, 0x63, 0x6f, 0x67, 0x6e, 0x69, 0x7a, 0x65, 0x72, 0x5f, 0x31, 0x2f,
  0x62, 0x6e, 0x34, 0x61, 0x5f, 0x31, 0x2f, 0x62, 0x61, 0x74, 0x63, 0x68, 0x6e, 0x6f, 0x72, 0x6d,
  0x2f, 0x73, 0x75, 0x62, 0x00, 0x00, 0x00, 0x00, 0x04, 0x00, 0x00, 0x00, 0x01, 0x00, 0x00, 0x00,
  0x06, 0x00, 0x00, 0x00, 0x06, 0x00, 0x00, 0x00, 0x30, 0x00, 0x00, 0x00, 0x22, 0xd8, 0xff, 0xff,
  0x00, 0x00, 0x00, 0x01, 0x18, 0x00, 0x00, 0x00, 0x28, 0x00, 0x00, 0x00, 0x48, 0x00, 0x00, 0x00,
  0x19, 0x00, 0x00, 0x00, 0x00, 0x00, 0x00, 0x09, 0xd8, 0x00, 0x00, 0x00, 0x04, 0x00, 0x00, 0x00,
  0xff, 0xff, 0xff, 0xff, 0x0c, 0x00, 0x00, 0x00, 0x0c, 0x00, 0x00, 0x00, 0x30, 0x00, 0x00, 0x00,
  0x0c, 0xd8, 0xff, 0xff, 0x08, 0x00, 0x00, 0x00, 0x14, 0x00, 0x00, 0x00, 0x01, 0x00, 0x00, 0x00,
  0x80, 0xff, 0xff, 0xff, 0xff, 0xff, 0xff, 0xff, 0x00, 0x00, 0x00, 0x00, 0x01, 0x00, 0x00, 0x00,
  0xf5, 0x90, 0x85, 0x3d, 0x94, 0x00, 0x00, 0x00, 0x46, 0x61, 0x63, 0x65, 0x52, 0x65, 0x63, 0x6f,
  0x67, 0x6e, 0x69, 0x7a, 0x65, 0x72, 0x5f, 0x31, 0x2f, 0x72, 0x65, 0x6c, 0x75, 0x33, 0x62, 0x5f,
  0x31, 0x2f, 0x52, 0x65, 0x6c, 0x75, 0x3b, 0x46, 0x61, 0x63, 0x65, 0x52, 0x65, 0x63, 0x6f, 0x67,
  0x6e, 0x69, 0x7a, 0x65, 0x72, 0x5f, 0x31, 0x2f, 0x62, 0x6e, 0x33, 0x62, 0x5f, 0x31, 0x2f, 0x62,
  0x61, 0x74, 0x63, 0x68, 0x6e, 0x6f, 0x72, 0x6d, 0x2f, 0x61, 0x64, 0x64, 0x5f, 0x31, 0x3b, 0x46,
  0x61, 0x63, 0x65, 0x52, 0x65, 0x63, 0x6f, 0x67, 0x6e, 0x69, 0x7a, 0x65, 0x72, 0x5f, 0x31, 0x2f,
  0x70, 0x77, 0x5f, 0x63, 0x6f, 0x6e, 0x76, 0x33, 0x5f, 0x31, 0x2f, 0x63, 0x6f, 0x6e, 0x76, 0x6f,
  0x6c, 0x75, 0x74, 0x69, 0x6f, 0x6e, 0x3b, 0x46, 0x61, 0x63, 0x65, 0x52, 0x65, 0x63, 0x6f, 0x67,
  0x6e, 0x69, 0x7a, 0x65, 0x72, 0x5f, 0x31, 0x2f, 0x62, 0x6e, 0x33, 0x62, 0x5f, 0x31, 0x2f, 0x62,
  0x61, 0x74, 0x63, 0x68, 0x6e, 0x6f, 0x72, 0x6d, 0x2f, 0x73, 0x75, 0x62, 0x00, 0x00, 0x00, 0x00,
  0x04, 0x00, 0x00, 0x00, 0x01, 0x00, 0x00, 0x00, 0x0c, 0x00, 0x00, 0x00, 0x0c, 0x00, 0x00, 0x00,
  0x30, 0x00, 0x00, 0x00, 0x2a, 0xd9, 0xff, 0xff, 0x00, 0x00, 0x00, 0x01, 0x18, 0x00, 0x00, 0x00,
  0x28, 0x00, 0x00, 0x00, 0x44, 0x00, 0x00, 0x00, 0x18, 0x00, 0x00, 0x00, 0x00, 0x00, 0x00, 0x09,
  0x20, 0x01, 0x00, 0x00, 0x04, 0x00, 0x00, 0x00, 0xff, 0xff, 0xff, 0xff, 0x0c, 0x00, 0x00, 0x00,
  0x0c, 0x00, 0x00, 0x00, 0x20, 0x00, 0x00, 0x00, 0x14, 0xd9, 0xff, 0xff, 0x08, 0x00, 0x00, 0x00,
  0x10, 0x00, 0x00, 0x00, 0x01, 0x00, 0x00, 0x00, 0x80, 0xff, 0xff, 0xff, 0xff, 0xff, 0xff, 0xff,
  0x01, 0x00, 0x00, 0x00, 0xa8, 0x71, 0x7e, 0x3d, 0xe0, 0x00, 0x00, 0x00, 0x46, 0x61, 0x63, 0x65,
  0x52, 0x65, 0x63, 0x6f, 0x67, 0x6e, 0x69, 0x7a, 0x65, 0x72, 0x5f, 0x31, 0x2f, 0x72, 0x65, 0x6c,
  0x75, 0x33, 0x61, 0x5f, 0x31, 0x2f, 0x52, 0x65, 0x6c, 0x75, 0x3b, 0x46, 0x61, 0x63, 0x65, 0x52,
  0x65, 0x63, 0x6f, 0x67, 0x6e, 0x69, 0x7a, 0x65, 0x72, 0x5f, 0x31, 0x2f, 0x62, 0x6e, 0x33, 0x61,
  0x5f, 0x31, 0x2f, 0x62, 0x61, 0x74, 0x63, 0x68, 0x6e, 0x6f, 0x72, 0x6d, 0x2f, 0x61, 0x64, 0x64,
  0x5f, 0x31, 0x3b, 0x46, 0x61, 0x63, 0x65, 0x52, 0x65, 0x63, 0x6f, 0x67, 0x6e, 0x69, 0x7a, 0x65,
  0x72, 0x5f, 0x31, 0x2f, 0x62, 0x6e, 0x33, 0x61, 0x5f, 0x31, 0x2f, 0x62, 0x61, 0x74, 0x63, 0x68,
  0x6e, 0x6f, 0x72, 0x6d, 0x2f, 0x6d, 0x75, 0x6c, 0x5f, 0x31, 0x3b, 0x46, 0x61, 0x63, 0x65, 0x52,
  0x65, 0x63, 0x6f, 0x67, 0x6e, 0x69, 0x7a, 0x65, 0x72, 0x5f, 0x31, 0x2f, 0x64, 0x77, 0x5f, 0x63,
  0x6f, 0x6e, 0x76, 0x33, 0x5f, 0x31, 0x2f, 0x64, 0x65, 0x70, 0x74, 0x68, 0x77, 0x69, 0x73, 0x65,
  0x3b, 0x46, 0x61, 0x63, 0x65, 0x52, 0x65, 0x63, 0x6f, 0x67, 0x6e, 0x69, 0x7a, 0x65, 0x72, 0x5f,
  0x31, 0x2f, 0x62, 0x6e, 0x33, 0x61, 0x5f, 0x31, 0x2f, 0x62, 0x61, 0x74, 0x63, 0x68, 0x6e, 0x6f,
  0x72, 0x6d, 0x2f, 0x6d, 0x75, 0x6c, 0x3b, 0x46, 0x61, 0x63, 0x65, 0x52, 0x65, 0x63, 0x6f, 0x67,
  0x6e, 0x69, 0x7a, 0x65, 0x72, 0x5f, 0x31, 0x2f, 0x62, 0x6e, 0x33, 0x61, 0x5f, 0x31, 0x2f, 0x62,
  0x61, 0x74, 0x63, 0x68, 0x6e, 0x6f, 0x72, 0x6d, 0x2f, 0x73, 0x75, 0x62, 0x00, 0x00, 0x00, 0x00,
  0x04, 0x00, 0x00, 0x00, 0x01, 0x00, 0x00, 0x00, 0x0c, 0x00, 0x00, 0x00, 0x0c, 0x00, 0x00, 0x00,
  0x20, 0x00, 0x00, 0x00, 0x7a, 0xda, 0xff, 0xff, 0x00, 0x00, 0x00, 0x01, 0x18, 0x00, 0x00, 0x00,
  0x28, 0x00, 0x00, 0x00, 0x48, 0x00, 0x00, 0x00, 0x17, 0x00, 0x00, 0x00, 0x00, 0x00, 0x00, 0x09,
  0xd8, 0x00, 0x00, 0x00, 0x04, 0x00, 0x00, 0x00, 0xff, 0xff, 0xff, 0xff, 0x18, 0x00, 0x00, 0x00,
  0x18, 0x00, 0x00, 0x00, 0x20, 0x00, 0x00, 0x00, 0x64, 0xda, 0xff, 0xff, 0x08, 0x00, 0x00, 0x00,
  0x14, 0x00, 0x00, 0x00, 0x01, 0x00, 0x00, 0x00, 0x80, 0xff, 0xff, 0xff, 0xff, 0xff, 0xff, 0xff,
  0x00, 0x00, 0x00, 0x00, 0x01, 0x00, 0x00, 0x00, 0xbc, 0x2b, 0x9f, 0x3d, 0x94, 0x00, 0x00, 0x00,
  0x46, 0x61, 0x63, 0x65, 0x52, 0x65, 0x63, 0x6f, 0x67, 0x6e, 0x69, 0x7a, 0x65, 0x72, 0x5f, 0x31,
  0x2f, 0x72, 0x65, 0x6c, 0x75, 0x32, 0x62, 0x5f, 0x31, 0x2f, 0x52, 0x65, 0x6c, 0x75, 0x3b, 0x46,
  0x61, 0x63, 0x65, 0x52, 0x65, 0x63, 0x6f, 0x67, 0x6e, 0x69, 0x7a, 0x65, 0x72, 0x5f, 0x31, 0x2f,
  0x62, 0x6e, 0x32, 0x62, 0x5f, 0x31, 0x2f, 0x62, 0x61, 0x74, 0x63, 0x68, 0x6e, 0x6f, 0x72, 0x6d,
  0x2f, 0x61, 0x64, 0x64, 0x5f, 0x31, 0x3b, 0x46, 0x61, 0x63, 0x65, 0x52, 0x65, 0x63, 0x6f, 0x67,
  0x6e, 0x69, 0x7a, 0x65, 0x72, 0x5f, 0x31, 0x2f, 0x70, 0x77, 0x5f, 0x63, 0x6f, 0x6e, 0x76, 0x32,
  0x5f, 0x31, 0x2f, 0x63, 0x6f, 0x6e, 0x76, 0x6f, 0x6c, 0x75, 0x74, 0x69, 0x6f, 0x6e, 0x3b, 0x46,
  0x61, 0x63, 0x65, 0x52, 0x65, 0x63, 0x6f, 0x67, 0x6e, 0x69, 0x7a, 0x65, 0x72, 0x5f, 0x31, 0x2f,
  0x62, 0x6e, 0x32, 0x62, 0x5f, 0x31, 0x2f, 0x62, 0x61, 0x74, 0x63, 0x68, 0x6e, 0x6f, 0x72, 0x6d,
  0x2f, 0x73, 0x75, 0x62, 0x00, 0x00, 0x00, 0x00, 0x04, 0x00, 0x00, 0x00, 0x01, 0x00, 0x00, 0x00,
  0x18, 0x00, 0x00, 0x00, 0x18, 0x00, 0x00, 0x00, 0x20, 0x00, 0x00, 0x00, 0x82, 0xdb, 0xff, 0xff,
  0x00, 0x00, 0x00, 0x01, 0x18, 0x00, 0x00, 0x00, 0x28, 0x00, 0x00, 0x00, 0x44, 0x00, 0x00, 0x00,
  0x16, 0x00, 0x00, 0x00, 0x00, 0x00, 0x00, 0x09, 0x20, 0x01, 0x00, 0x00, 0x04, 0x00, 0x00, 0x00,
  0xff, 0xff, 0xff, 0xff, 0x18, 0x00, 0x00, 0x00, 0x18, 0x00, 0x00, 0x00, 0x10, 0x00, 0x00, 0x00,
  0x6c, 0xdb, 0xff, 0xff, 0x08, 0x00, 0x00, 0x00, 0x10, 0x00, 0x00, 0x00, 0x01, 0x00, 0x00, 0x00,
  0x80, 0xff, 0xff, 0xff, 0xff, 0xff, 0xff, 0xff, 0x01, 0x00, 0x00, 0x00, 0xd6, 0x39, 0xbe, 0x3d,
  0xe0, 0x00, 0x00, 0x00, 0x46, 0x61, 0x63, 0x65, 0x52, 0x65, 0x63, 0x6f, 0x67, 0x6e, 0x69, 0x7a,
  0x65, 0x72, 0x5f, 0x31, 0x2f, 0x72, 0x65, 0x6c, 0x75, 0x32, 0x61, 0x5f, 0x31, 0x2f, 0x52, 0x65,
  0x6c, 0x75, 0x3b, 0x46, 0x61, 0x63, 0x65, 0x52, 0x65, 0x63, 0x6f, 0x67, 0x6e, 0x69, 0x7a, 0x65,
  0x72, 0x5f, 0x31, 0x2f, 0x62, 0x6e, 0x32, 0x61, 0x5f, 0x31, 0x2f, 0x62, 0x61, 0x74, 0x63, 0x68,
  0x6e, 0x6f, 0x72, 0x6d, 0x2f, 0x61, 0x64, 0x64, 0x5f, 0x31, 0x3b, 0x46, 0x61, 0x63, 0x65, 0x52,
  0x65, 0x63, 0x6f, 0x67, 0x6e, 0x69, 0x7a, 0x65, 0x72, 0x5f, 0x31, 0x2f, 0x62, 0x6e, 0x32, 0x61,
  0x5f, 0x31, 0x2f, 0x62, 0x61, 0x74, 0x63, 0x68, 0x6e, 0x6f, 0x72, 0x6d, 0x2f, 0x6d, 0x75, 0x6c,
  0x5f, 0x31, 0x3b, 0x46, 0x61, 0x63, 0x65, 0x52, 0x65, 0x63, 0x6f, 0x67, 0x6e, 0x69, 0x7a, 0x65,
  0x72, 0x5f, 0x31, 0x2f, 0x64, 0x77, 0x5f, 0x63, 0x6f, 0x6e, 0x76, 0x32, 0x5f, 0x31, 0x2f, 0x64,
  0x65, 0x70, 0x74, 0x68, 0x77, 0x69, 0x73, 0x65, 0x3b, 0x46, 0x61, 0x63, 0x65, 0x52, 0x65, 0x63,
  0x6f, 0x67, 0x6e, 0x69, 0x7a, 0x65, 0x72, 0x5f, 0x31, 0x2f, 0x62, 0x6e, 0x32, 0x61, 0x5f, 0x31,
  0x2f, 0x62, 0x61, 0x74, 0x63, 0x68, 0x6e, 0x6f, 0x72, 0x6d, 0x2f, 0x6d, 0x75, 0x6c, 0x3b, 0x46,
  0x61, 0x63, 0x65, 0x52, 0x65, 0x63, 0x6f, 0x67, 0x6e, 0x69, 0x7a, 0x65, 0x72, 0x5f, 0x31, 0x2f,
  0x62, 0x6e, 0x32, 0x61, 0x5f, 0x31, 0x2f, 0x62, 0x61, 0x74, 0x63, 0x68, 0x6e, 0x6f, 0x72, 0x6d,
  0x2f, 0x73, 0x75, 0x62, 0x00, 0x00, 0x00, 0x00, 0x04, 0x00, 0x00, 0x00, 0x01, 0x00, 0x00, 0x00,
  0x18, 0x00, 0x00, 0x00, 0x18, 0x00, 0x00, 0x00, 0x10, 0x00, 0x00, 0x00, 0xd2, 0xdc, 0xff, 0xff,
  0x00, 0x00, 0x00, 0x01, 0x18, 0x00, 0x00, 0x00, 0x28, 0x00, 0x00, 0x00, 0x48, 0x00, 0x00, 0x00,
  0x15, 0x00, 0x00, 0x00, 0x00, 0x00, 0x00, 0x09, 0xd0, 0x00, 0x00, 0x00, 0x04, 0x00, 0x00, 0x00,
  0xff, 0xff, 0xff, 0xff, 0x30, 0x00, 0x00, 0x00, 0x30, 0x00, 0x00, 0x00, 0x10, 0x00, 0x00, 0x00,
  0xbc, 0xdc, 0xff, 0xff, 0x08, 0x00, 0x00, 0x00, 0x14, 0x00, 0x00, 0x00, 0x01, 0x00, 0x00, 0x00,
  0x80, 0xff, 0xff, 0xff, 0xff, 0xff, 0xff, 0xff, 0x00, 0x00, 0x00, 0x00, 0x01, 0x00, 0x00, 0x00,
  0x57, 0x64, 0x3d, 0x3d, 0x8f, 0x00, 0x00, 0x00, 0x46, 0x61, 0x63, 0x65, 0x52, 0x65, 0x63, 0x6f,
  0x67, 0x6e, 0x69, 0x7a, 0x65, 0x72, 0x5f, 0x31, 0x2f, 0x72, 0x65, 0x6c, 0x75, 0x31, 0x5f, 0x31,
  0x2f, 0x52, 0x65, 0x6c, 0x75, 0x3b, 0x46, 0x61, 0x63, 0x65, 0x52, 0x65, 0x63, 0x6f, 0x67, 0x6e,
  0x69, 0x7a, 0x65, 0x72, 0x5f, 0x31, 0x2f, 0x62, 0x6e, 0x31, 0x5f, 0x31, 0x2f, 0x62, 0x61, 0x74,
  0x63, 0x68, 0x6e, 0x6f, 0x72, 0x6d, 0x2f, 0x61, 0x64, 0x64, 0x5f, 0x31, 0x3b, 0x46, 0x61, 0x63,
  0x65, 0x52, 0x65, 0x63, 0x6f, 0x67, 0x6e, 0x69, 0x7a, 0x65, 0x72, 0x5f, 0x31, 0x2f, 0x63, 0x6f,
  0x6e, 0x76, 0x31, 0x5f, 0x31, 0x2f, 0x63, 0x6f, 0x6e, 0x76, 0x6f, 0x6c, 0x75, 0x74, 0x69, 0x6f,
  0x6e, 0x3b, 0x46, 0x61, 0x63, 0x65, 0x52, 0x65, 0x63, 0x6f, 0x67, 0x6e, 0x69, 0x7a, 0x65, 0x72,
  0x5f, 0x31, 0x2f, 0x62, 0x6e, 0x31, 0x5f, 0x31, 0x2f, 0x62, 0x61, 0x74, 0x63, 0x68, 0x6e, 0x6f,
  0x72, 0x6d, 0x2f, 0x73, 0x75, 0x62, 0x31, 0x00, 0x04, 0x00, 0x00, 0x00, 0x01, 0x00, 0x00, 0x00,
  0x30, 0x00, 0x00, 0x00, 0x30, 0x00, 0x00, 0x00, 0x10, 0x00, 0x00, 0x00, 0x2a, 0xde, 0xff, 0xff,
  0x00, 0x00, 0x00, 0x01, 0x14, 0x00, 0x00, 0x00, 0xe8, 0x00, 0x00, 0x00, 0x14, 0x00, 0x00, 0x00,
  0x00, 0x00, 0x00, 0x09, 0xf4, 0x00, 0x00, 0x00, 0xa4, 0xdd, 0xff, 0xff, 0x08, 0x00, 0x00, 0x00,
  0x8c, 0x00, 0x00, 0x00, 0x10, 0x00, 0x00, 0x00, 0x00, 0x00, 0x00, 0x00, 0x00, 0x00, 0x00, 0x00,
  0x00, 0x00, 0x00, 0x00, 0x00, 0x00, 0x00, 0x00, 0x00, 0x00, 0x00, 0x00, 0x00, 0x00, 0x00, 0x00,
  0x00, 0x00, 0x00, 0x00, 0x00, 0x00, 0x00, 0x00, 0x00, 0x00, 0x00, 0x00, 0x00, 0x00, 0x00, 0x00,
  0x00, 0x00, 0x00, 0x00, 0x00, 0x00, 0x00, 0x00, 0x00, 0x00, 0x00, 0x00, 0x00, 0x00, 0x00, 0x00,
  0x00, 0x00, 0x00, 0x00, 0x00, 0x00, 0x00, 0x00, 0x00, 0x00, 0x00, 0x00, 0x00, 0x00, 0x00, 0x00,
  0x00, 0x00, 0x00, 0x00, 0x00, 0x00, 0x00, 0x00, 0x00, 0x00, 0x00, 0x00, 0x00, 0x00, 0x00, 0x00,
  0x00, 0x00, 0x00, 0x00, 0x00, 0x00, 0x00, 0x00, 0x00, 0x00, 0x00, 0x00, 0x00, 0x00, 0x00, 0x00,
  0x00, 0x00, 0x00, 0x00, 0x00, 0x00, 0x00, 0x00, 0x00, 0x00, 0x00, 0x00, 0x00, 0x00, 0x00, 0x00,
  0x00, 0x00, 0x00, 0x00, 0x00, 0x00, 0x00, 0x00, 0x00, 0x00, 0x00, 0x00, 0x10, 0x00, 0x00, 0x00,
  0x45, 0xf3, 0xe4, 0x3c, 0xf1, 0x17, 0x91, 0x3c, 0x71, 0xfd, 0x62, 0x3c, 0xda, 0xc8, 0xbb, 0x3c,
  0x1a, 0x88, 0x00, 0x3c, 0xbb, 0x30, 0xb8, 0x3c, 0x42, 0x1b, 0x96, 0x3c, 0x7f, 0xd9, 0x7b, 0x3c,
  0x20, 0x14, 0xf5, 0x3c, 0xfb, 0xd5, 0x79, 0x3c, 0x20, 0xbb, 0xa2, 0x3c, 0xca, 0x52, 0x74, 0x3c,
  0x28, 0xe1, 0x0b, 0x3d, 0x80, 0xf3, 0xa2, 0x3c, 0x38, 0x06, 0x38, 0x3c, 0x0b, 0x1c, 0xe1, 0x3c,
  0x13, 0x00, 0x00, 0x00, 0x74, 0x66, 0x6c, 0x2e, 0x70, 0x73, 0x65, 0x75, 0x64, 0x6f, 0x5f, 0x71,
  0x63, 0x6f, 0x6e, 0x73, 0x74, 0x31, 0x37, 0x00, 0x04, 0x00, 0x00, 0x00, 0x10, 0x00, 0x00, 0x00,
  0x03, 0x00, 0x00, 0x00, 0x03, 0x00, 0x00, 0x00, 0x01, 0x00, 0x00, 0x00, 0x4a, 0xdf, 0xff, 0xff,
  0x00, 0x00, 0x00, 0x01, 0x14, 0x00, 0x00, 0x00, 0xe8, 0x00, 0x00, 0x00, 0x13, 0x00, 0x00, 0x00,
  0x00, 0x00, 0x00, 0x02, 0xf4, 0x00, 0x00, 0x00, 0xc4, 0xde, 0xff, 0xff, 0x08, 0x00, 0x00, 0x00,
  0x8c, 0x00, 0x00, 0x00, 0x10, 0x00, 0x00, 0x00, 0x00, 0x00, 0x00, 0x00, 0x00, 0x00, 0x00, 0x00,
  0x00, 0x00, 0x00, 0x00, 0x00, 0x00, 0x00, 0x00, 0x00, 0x00, 0x00, 0x00, 0x00, 0x00, 0x00, 0x00,
  0x00, 0x00, 0x00, 0x00, 0x00, 0x00, 0x00, 0x00, 0x00, 0x00, 0x00, 0x00, 0x00, 0x00, 0x00, 0x00,
  0x00, 0x00, 0x00, 0x00, 0x00, 0x00, 0x00, 0x00, 0x00, 0x00, 0x00, 0x00, 0x00, 0x00, 0x00, 0x00,
  0x00, 0x00, 0x00, 0x00, 0x00, 0x00, 0x00, 0x00, 0x00, 0x00, 0x00, 0x00, 0x00, 0x00, 0x00, 0x00,
  0x00, 0x00, 0x00, 0x00, 0x00, 0x00, 0x00, 0x00, 0x00, 0x00, 0x00, 0x00, 0x00, 0x00, 0x00, 0x00,
  0x00, 0x00, 0x00, 0x00, 0x00, 0x00, 0x00, 0x00, 0x00, 0x00, 0x00, 0x00, 0x00, 0x00, 0x00, 0x00,
  0x00, 0x00, 0x00, 0x00, 0x00, 0x00, 0x00, 0x00, 0x00, 0x00, 0x00, 0x00, 0x00, 0x00, 0x00, 0x00,
  0x00, 0x00, 0x00, 0x00, 0x00, 0x00, 0x00, 0x00, 0x00, 0x00, 0x00, 0x00, 0x10, 0x00, 0x00, 0x00,
  0x1f, 0xd9, 0xe5, 0x38, 0x9b, 0xa9, 0x91, 0x38, 0x53, 0xe1, 0x63, 0x38, 0x60, 0x85, 0xbc, 0x38,
  0x24, 0x09, 0x01, 0x38, 0xa5, 0xe9, 0xb8, 0x38, 0xf5, 0xb1, 0x96, 0x38, 0x56, 0xd6, 0x7c, 0x38,
  0x2b, 0x0a, 0xf6, 0x38, 0xcd, 0xd0, 0x7a, 0x38, 0x7f, 0x5e, 0xa3, 0x38, 0x13, 0x48, 0x75, 0x38,
  0x96, 0x6d, 0x0c, 0x39, 0x18, 0x97, 0xa3, 0x38, 0xf8, 0xbe, 0x38, 0x38, 0x0a, 0xfe, 0xe1, 0x38,
  0x13, 0x00, 0x00, 0x00, 0x74, 0x66, 0x6c, 0x2e, 0x70, 0x73, 0x65, 0x75, 0x64, 0x6f, 0x5f, 0x71,
  0x63, 0x6f, 0x6e, 0x73, 0x74, 0x31, 0x36, 0x00, 0x01, 0x00, 0x00, 0x00, 0x10, 0x00, 0x00, 0x00,
  0x5e, 0xe0, 0xff, 0xff, 0x00, 0x00, 0x00, 0x01, 0x14, 0x00, 0x00, 0x00, 0xec, 0x00, 0x00, 0x00,
  0x12, 0x00, 0x00, 0x00, 0x00, 0x00, 0x00, 0x09, 0xf8, 0x00, 0x00, 0x00, 0x1a, 0xf1, 0xff, 0xff,
  0x03, 0x00, 0x00, 0x00, 0x08, 0x00, 0x00, 0x00, 0x8c, 0x00, 0x00, 0x00, 0x10, 0x00, 0x00, 0x00,
  0x00, 0x00, 0x00, 0x00, 0x00, 0x00, 0x00, 0x00, 0x00, 0x00, 0x00, 0x00, 0x00, 0x00, 0x00, 0x00,
  0x00, 0x00, 0x00, 0x00, 0x00, 0x00, 0x00, 0x00, 0x00, 0x00, 0x00, 0x00, 0x00, 0x00, 0x00, 0x00,
  0x00, 0x00, 0x00, 0x00, 0x00, 0x00, 0x00, 0x00, 0x00, 0x00, 0x00, 0x00, 0x00, 0x00, 0x00, 0x00,
  0x00, 0x00, 0x00, 0x00, 0x00, 0x00, 0x00, 0x00, 0x00, 0x00, 0x00, 0x00, 0x00, 0x00, 0x00, 0x00,
  0x00, 0x00, 0x00, 0x00, 0x00, 0x00, 0x00, 0x00, 0x00, 0x00, 0x00, 0x00, 0x00, 0x00, 0x00, 0x00,
  0x00, 0x00, 0x00, 0x00, 0x00, 0x00, 0x00, 0x00, 0x00, 0x00, 0x00, 0x00, 0x00, 0x00, 0x00, 0x00,
  0x00, 0x00, 0x00, 0x00, 0x00, 0x00, 0x00, 0x00, 0x00, 0x00, 0x00, 0x00, 0x00, 0x00, 0x00, 0x00,
  0x00, 0x00, 0x00, 0x00, 0x00, 0x00, 0x00, 0x00, 0x00, 0x00, 0x00, 0x00, 0x00, 0x00, 0x00, 0x00,
  0x00, 0x00, 0x00, 0x00, 0x10, 0x00, 0x00, 0x00, 0x17, 0x6f, 0x0e, 0x3c, 0x55, 0xc2, 0x05, 0x3c,
  0x83, 0xfa, 0xfb, 0x3b, 0xb1, 0x5b, 0xc8, 0x3b, 0x00, 0x8f, 0xe8, 0x3b, 0xf4, 0x3c, 0xa5, 0x3b,
  0x1b, 0xd2, 0xeb, 0x3b, 0x86, 0xf9, 0x88, 0x3c, 0x77, 0x60, 0x37, 0x3c, 0x24, 0xad, 0xfe, 0x3b,
  0x45, 0xbd, 0xb6, 0x3b, 0x9b, 0x40, 0x50, 0x3c, 0x20, 0xfb, 0x06, 0x3c, 0xd8, 0x73, 0xe1, 0x3b,
  0xc7, 0x83, 0x66, 0x3c, 0x37, 0xb3, 0xf4, 0x3b, 0x13, 0x00, 0x00, 0x00, 0x74, 0x66, 0x6c, 0x2e,
  0x70, 0x73, 0x65, 0x75, 0x64, 0x6f, 0x5f, 0x71, 0x63, 0x6f, 0x6e, 0x73, 0x74, 0x31, 0x35, 0x00,
  0x04, 0x00, 0x00, 0x00, 0x01, 0x00, 0x00, 0x00, 0x03, 0x00, 0x00, 0x00, 0x03, 0x00, 0x00, 0x00,
  0x10, 0x00, 0x00, 0x00, 0x82, 0xe1, 0xff, 0xff, 0x00, 0x00, 0x00, 0x01, 0x14, 0x00, 0x00, 0x00,
  0xe4, 0x00, 0x00, 0x00, 0x11, 0x00, 0x00, 0x00, 0x00, 0x00, 0x00, 0x02, 0xf0, 0x00, 0x00, 0x00,
  0xfc, 0xe0, 0xff, 0xff, 0x08, 0x00, 0x00, 0x00, 0x88, 0x00, 0x00, 0x00, 0x10, 0x00, 0x00, 0x00,
  0x00, 0x00, 0x00, 0x00, 0x00, 0x00, 0x00, 0x00, 0x00, 0x00, 0x00, 0x00, 0x00, 0x00, 0x00, 0x00,
  0x00, 0x00, 0x00, 0x00, 0x00, 0x00, 0x00, 0x00, 0x00, 0x00, 0x00, 0x00, 0x00, 0x00, 0x00, 0x00,
  0x00, 0x00, 0x00, 0x00, 0x00, 0x00, 0x00, 0x00, 0x00, 0x00, 0x00, 0x00, 0x00, 0x00, 0x00, 0x00,
  0x00, 0x00, 0x00, 0x00, 0x00, 0x00, 0x00, 0x00, 0x00, 0x00, 0x00, 0x00, 0x00, 0x00, 0x00, 0x00,
  0x00, 0x00, 0x00, 0x00, 0x00, 0x00, 0x00, 0x00, 0x00, 0x00, 0x00, 0x00, 0x00, 0x00, 0x00, 0x00,
  0x00, 0x00, 0x00, 0x00, 0x00, 0x00, 0x00, 0x00, 0x00, 0x00, 0x00, 0x00, 0x00, 0x00, 0x00, 0x00,
  0x00, 0x00, 0x00, 0x00, 0x00, 0x00, 0x00, 0x00, 0x00, 0x00, 0x00, 0x00, 0x00, 0x00, 0x00, 0x00,
  0x00, 0x00, 0x00, 0x00, 0x00, 0x00, 0x00, 0x00, 0x00, 0x00, 0x00, 0x00, 0x00, 0x00, 0x00, 0x00,
  0x10, 0x00, 0x00, 0x00, 0xb0, 0xbf, 0xd2, 0x39, 0xcc, 0xe9, 0xc5, 0x39, 0xb6, 0x6a, 0xba, 0x39,
  0x3a, 0x3a, 0x94, 0x39, 0xba, 0x0c, 0xac, 0x39, 0x88, 0x7d, 0x74, 0x39, 0x8c, 0x76, 0xae, 0x39,
  0xd0, 0xab, 0x4a, 0x3a, 0x18, 0xaa, 0x07, 0x3a, 0xa6, 0x69, 0xbc, 0x39, 0x5c, 0x31, 0x87, 0x39,
  0x52, 0x11, 0x1a, 0x3a, 0x9d, 0xb8, 0xc7, 0x39, 0xe4, 0xca, 0xa6, 0x39, 0xa4, 0x89, 0x2a, 0x3a,
  0x39, 0x08, 0xb5, 0x39, 0x13, 0x00, 0x00, 0x00, 0x74, 0x66, 0x6c, 0x2e, 0x70, 0x73, 0x65, 0x75,
  0x64, 0x6f, 0x5f, 0x71, 0x63, 0x6f, 0x6e, 0x73, 0x74, 0x31, 0x34, 0x00, 0x01, 0x00, 0x00, 0x00,
  0x10, 0x00, 0x00, 0x00, 0x92, 0xe2, 0xff, 0xff, 0x00, 0x00, 0x00, 0x01, 0x14, 0x00, 0x00, 0x00,
  0xa8, 0x01, 0x00, 0x00, 0x10, 0x00, 0x00, 0x00, 0x00, 0x00, 0x00, 0x09, 0xb4, 0x01, 0x00, 0x00,
  0x0c, 0xe2, 0xff, 0xff, 0x08, 0x00, 0x00, 0x00, 0x0c, 0x01, 0x00, 0x00, 0x20, 0x00, 0x00, 0x00,
  0x00, 0x00, 0x00, 0x00, 0x00, 0x00, 0x00, 0x00, 0x00, 0x00, 0x00, 0x00, 0x00, 0x00, 0x00, 0x00,
  0x00, 0x00, 0x00, 0x00, 0x00, 0x00, 0x00, 0x00, 0x00, 0x00, 0x00, 0x00, 0x00, 0x00, 0x00, 0x00,
  0x00, 0x00, 0x00, 0x00, 0x00, 0x00, 0x00, 0x00, 0x00, 0x00, 0x00, 0x00, 0x00, 0x00, 0x00, 0x00,
  0x00, 0x00, 0x00, 0x00, 0x00, 0x00, 0x00, 0x00, 0x00, 0x00, 0x00, 0x00, 0x00, 0x00, 0x00, 0x00,
  0x00, 0x00, 0x00, 0x00, 0x00, 0x00, 0x00, 0x00, 0x00, 0x00, 0x00, 0x00, 0x00, 0x00, 0x00, 0x00,
  0x00, 0x00, 0x00, 0x00, 0x00, 0x00, 0x00, 0x00, 0x00, 0x00, 0x00, 0x00, 0x00, 0x00, 0x00, 0x00,
  0x00, 0x00, 0x00, 0x00, 0x00, 0x00, 0x00, 0x00, 0x00, 0x00, 0x00, 0x00, 0x00, 0x00, 0x00, 0x00,
  0x00, 0x00, 0x00, 0x00, 0x00, 0x00, 0x00, 0x00, 0x00, 0x00, 0x00, 0x00, 0x00, 0x00, 0x00, 0x00,
  0x00, 0x00, 0x00, 0x00, 0x00, 0x00, 0x00, 0x00, 0x00, 0x00, 0x00, 0x00, 0x00, 0x00, 0x00, 0x00,
  0x00, 0x00, 0x00, 0x00, 0x00, 0x00, 0x00, 0x00, 0x00, 0x00, 0x00, 0x00, 0x00, 0x00, 0x00, 0x00,
  0x00, 0x00, 0x00, 0x00, 0x00, 0x00, 0x00, 0x00, 0x00, 0x00, 0x00, 0x00, 0x00, 0x00, 0x00, 0x00,
  0x00, 0x00, 0x00, 0x00, 0x00, 0x00, 0x00, 0x00, 0x00, 0x00, 0x00, 0x00, 0x00, 0x00, 0x00, 0x00,
  0x00, 0x00, 0x00, 0x00, 0x00, 0x00, 0x00, 0x00, 0x00, 0x00, 0x00, 0x00, 0x00, 0x00, 0x00, 0x00,
  0x00, 0x00, 0x00, 0x00, 0x00, 0x00, 0x00, 0x00, 0x00, 0x00, 0x00, 0x00, 0x00, 0x00, 0x00, 0x00,
  0x00, 0x00, 0x00, 0x00, 0x00, 0x00, 0x00, 0x00, 0x00, 0x00, 0x00, 0x00, 0x00, 0x00, 0x00, 0x00,
  0x00, 0x00, 0x00, 0x00, 0x00, 0x00, 0x00, 0x00, 0x00, 0x00, 0x00, 0x00, 0x00, 0x00, 0x00, 0x00,
  0x00, 0x00, 0x00, 0x00, 0x20, 0x00, 0x00, 0x00, 0x28, 0x0a, 0xa6, 0x3b, 0x89, 0xfb, 0xf1, 0x3b,
  0xf6, 0x77, 0x1b, 0x3c, 0x44, 0xdc, 0xbd, 0x3b, 0xf0, 0x8f, 0x0e, 0x3c, 0xda, 0x69, 0xa6, 0x3b,
  0x29, 0x19, 0x29, 0x3c, 0xf1, 0x1d, 0xe8, 0x3b, 0x0d, 0x90, 0xbe, 0x3b, 0x21, 0x8e, 0xfd, 0x3b,
  0x11, 0x25, 0x98, 0x3b, 0x9c, 0x1e, 0x03, 0x3c, 0xbf, 0x09, 0xc8, 0x3b, 0x32, 0xab, 0x07, 0x3c,
  0xcc, 0x8c, 0x96, 0x3b, 0x1c, 0x4d, 0xc7, 0x3b, 0x4a, 0xda, 0x96, 0x3b, 0xae, 0x01, 0xf0, 0x3b,
  0x41, 0x6a, 0xf8, 0x3b, 0xc2, 0x3d, 0xef, 0x3b, 0x71, 0xaf, 0xca, 0x3b, 0x45, 0x59, 0x9b, 0x3b,
  0xc6, 0x20, 0x96, 0x3b, 0xa5, 0x87, 0x8c, 0x3b, 0xd9, 0xb4, 0xa0, 0x3b, 0x4f, 0xc9, 0xb8, 0x3b,
  0x65, 0x17, 0xc6, 0x3b, 0x45, 0xf0, 0xde, 0x3b, 0x02, 0x5a, 0xce, 0x3b, 0x1a, 0x91, 0xe2, 0x3b,
  0x75, 0xa9, 0xf2, 0x3b, 0xea, 0xc6, 0xb1, 0x3b, 0x13, 0x00, 0x00, 0x00, 0x74, 0x66, 0x6c, 0x2e,
  0x70, 0x73, 0x65, 0x75, 0x64, 0x6f, 0x5f, 0x71, 0x63, 0x6f, 0x6e, 0x73, 0x74, 0x31, 0x33, 0x00,
  0x04, 0x00, 0x00, 0x00, 0x20, 0x00, 0x00, 0x00, 0x01, 0x00, 0x00, 0x00, 0x01, 0x00, 0x00, 0x00,
  0x10, 0x00, 0x00, 0x00, 0x72, 0xe4, 0xff, 0xff, 0x00, 0x00, 0x00, 0x01, 0x14, 0x00, 0x00, 0x00,
  0xa8, 0x01, 0x00, 0x00, 0x0f, 0x00, 0x00, 0x00, 0x00, 0x00, 0x00, 0x02, 0xb4, 0x01, 0x00, 0x00,
  0xec, 0xe3, 0xff, 0xff, 0x08, 0x00, 0x00, 0x00, 0x0c, 0x01, 0x00, 0x00, 0x20, 0x00, 0x00, 0x00,
  0x00, 0x00, 0x00, 0x00, 0x00, 0x00, 0x00, 0x00, 0x00, 0x00, 0x00, 0x00, 0x00, 0x00, 0x00, 0x00,
  0x00, 0x00, 0x00, 0x00, 0x00, 0x00, 0x00, 0x00, 0x00, 0x00, 0x00, 0x00, 0x00, 0x00, 0x00, 0x00,
  0x00, 0x00, 0x00, 0x00, 0x00, 0x00, 0x00, 0x00, 0x00, 0x00, 0x00, 0x00, 0x00, 0x00, 0x00, 0x00,
  0x00, 0x00, 0x00, 0x00, 0x00, 0x00, 0x00, 0x00, 0x00, 0x00, 0x00, 0x00, 0x00, 0x00, 0x00, 0x00,
  0x00, 0x00, 0x00, 0x00, 0x00, 0x00, 0x00, 0x00, 0x00, 0x00, 0x00, 0x00, 0x00, 0x00, 0x00, 0x00,
  0x00, 0x00, 0x00, 0x00, 0x00, 0x00, 0x00, 0x00, 0x00, 0x00, 0x00, 0x00, 0x00, 0x00, 0x00, 0x00,
  0x00, 0x00, 0x00, 0x00, 0x00, 0x00, 0x00, 0x00, 0x00, 0x00, 0x00, 0x00, 0x00, 0x00, 0x00, 0x00,
  0x00, 0x00, 0x00, 0x00, 0x00, 0x00, 0x00, 0x00, 0x00, 0x00, 0x00, 0x00, 0x00, 0x00, 0x00, 0x00,
  0x00, 0x00, 0x00, 0x00, 0x00, 0x00, 0x00, 0x00, 0x00, 0x00, 0x00, 0x00, 0x00, 0x00, 0x00, 0x00,
  0x00, 0x00, 0x00, 0x00, 0x00, 0x00, 0x00, 0x00, 0x00, 0x00, 0x00, 0x00, 0x00, 0x00, 0x00, 0x00,
  0x00, 0x00, 0x00, 0x00, 0x00, 0x00, 0x00, 0x00, 0x00, 0x00, 0x00, 0x00, 0x00, 0x00, 0x00, 0x00,
  0x00, 0x00, 0x00, 0x00, 0x00, 0x00, 0x00, 0x00, 0x00, 0x00, 0x00, 0x00, 0x00, 0x00, 0x00, 0x00,
  0x00, 0x00, 0x00, 0x00, 0x00, 0x00, 0x00, 0x00, 0x00, 0x00, 0x00, 0x00, 0x00, 0x00, 0x00, 0x00,
  0x00, 0x00, 0x00, 0x00, 0x00, 0x00, 0x00, 0x00, 0x00, 0x00, 0x00, 0x00, 0x00, 0x00, 0x00, 0x00,
  0x00, 0x00, 0x00, 0x00, 0x00, 0x00, 0x00, 0x00, 0x00, 0x00, 0x00, 0x00, 0x00, 0x00, 0x00, 0x00,
  0x00, 0x00, 0x00, 0x00, 0x00, 0x00, 0x00, 0x00, 0x00, 0x00, 0x00, 0x00, 0x00, 0x00, 0x00, 0x00,
  0x00, 0x00, 0x00, 0x00, 0x20, 0x00, 0x00, 0x00, 0x19, 0xc2, 0xf6, 0x39, 0x5b, 0xcf, 0x33, 0x3a,
  0x51, 0x0c, 0x67, 0x3a, 0x5f, 0x14, 0x0d, 0x3a, 0x13, 0xde, 0x53, 0x3a, 0x51, 0x50, 0xf7, 0x39,
  0xc1, 0x4d, 0x7b, 0x3a, 0xaa, 0x7a, 0x2c, 0x3a, 0xf7, 0x99, 0x0d, 0x3a, 0xc5, 0x68, 0x3c, 0x3a,
  0xc4, 0x1b, 0xe2, 0x39, 0xae, 0xdc, 0x42, 0x3a, 0x6d, 0xa4, 0x14, 0x3a, 0x6b, 0x9f, 0x49, 0x3a,
  0x05, 0xbd, 0xdf, 0x39, 0x42, 0x18, 0x14, 0x3a, 0x2f, 0x30, 0xe0, 0x39, 0x78, 0x57, 0x32, 0x3a,
  0xfc, 0x96, 0x38, 0x3a, 0xe3, 0xc5, 0x31, 0x3a, 0x00, 0x9c, 0x16, 0x3a, 0xb4, 0xde, 0xe6, 0x39,
  0x7b, 0x1c, 0xdf, 0x39, 0xd8, 0xd8, 0xd0, 0x39, 0x0f, 0xd5, 0xee, 0x39, 0x28, 0x4f, 0x09, 0x3a,
  0x1e, 0x32, 0x13, 0x3a, 0xb1, 0xa8, 0x25, 0x3a, 0x6c, 0x55, 0x19, 0x3a, 0xe1, 0x5a, 0x28, 0x3a,
  0x97, 0x50, 0x34, 0x3a, 0xcc, 0x19, 0x04, 0x3a, 0x13, 0x00, 0x00, 0x00, 0x74, 0x66, 0x6c, 0x2e,
  0x70, 0x73, 0x65, 0x75, 0x64, 0x6f, 0x5f, 0x71, 0x63, 0x6f, 0x6e, 0x73, 0x74, 0x31, 0x32, 0x00,
  0x01, 0x00, 0x00, 0x00, 0x20, 0x00, 0x00, 0x00, 0x46, 0xe6, 0xff, 0xff, 0x00, 0x00, 0x00, 0x01,
  0x14, 0x00, 0x00, 0x00, 0xac, 0x01, 0x00, 0x00, 0x0e, 0x00, 0x00, 0x00, 0x00, 0x00, 0x00, 0x09,
  0xb8, 0x01, 0x00, 0x00, 0x02, 0xf7, 0xff, 0xff, 0x03, 0x00, 0x00, 0x00, 0x08, 0x00, 0x00, 0x00,
  0x0c, 0x01, 0x00, 0x00, 0x20, 0x00, 0x00, 0x00, 0x00, 0x00, 0x00, 0x00, 0x00, 0x00, 0x00, 0x00,
  0x00, 0x00, 0x00, 0x00, 0x00, 0x00, 0x00, 0x00, 0x00, 0x00, 0x00, 0x00, 0x00, 0x00, 0x00, 0x00,
  0x00, 0x00, 0x00, 0x00, 0x00, 0x00, 0x00, 0x00, 0x00, 0x00, 0x00, 0x00, 0x00, 0x00, 0x00, 0x00,
  0x00, 0x00, 0x00, 0x00, 0x00, 0x00, 0x00, 0x00, 0x00, 0x00, 0x00, 0x00, 0x00, 0x00, 0x00, 0x00,
  0x00, 0x00, 0x00, 0x00, 0x00, 0x00, 0x00, 0x00, 0x00, 0x00, 0x00, 0x00, 0x00, 0x00, 0x00, 0x00,
  0x00, 0x00, 0x00, 0x00, 0x00, 0x00, 0x00, 0x00, 0x00, 0x00, 0x00, 0x00, 0x00, 0x00, 0x00, 0x00,
  0x00, 0x00, 0x00, 0x00, 0x00, 0x00, 0x00, 0x00, 0x00, 0x00, 0x00, 0x00, 0x00, 0x00, 0x00, 0x00,
  0x00, 0x00, 0x00, 0x00, 0x00, 0x00, 0x00, 0x00, 0x00, 0x00, 0x00, 0x00, 0x00, 0x00, 0x00, 0x00,
  0x00, 0x00, 0x00, 0x00, 0x00, 0x00, 0x00, 0x00, 0x00, 0x00, 0x00, 0x00, 0x00, 0x00, 0x00, 0x00,
  0x00, 0x00, 0x00, 0x00, 0x00, 0x00, 0x00, 0x00, 0x00, 0x00, 0x00, 0x00, 0x00, 0x00, 0x00, 0x00,
