// Auto-generated TFLite model header
// Model: stage_a_int8.tflite
// Size: 17944 bytes (17.52 KB)

#ifndef STAGE_A_MODEL_H
#define STAGE_A_MODEL_H

#include <Arduino.h>

alignas(8) const unsigned char stage_a_model[] = {
  0x1c, 0x00, 0x00, 0x00, 0x54, 0x46, 0x4c, 0x33, 0x14, 0x00, 0x20, 0x00, 0x1c, 0x00, 0x18, 0x00,
  0x14, 0x00, 0x10, 0x00, 0x0c, 0x00, 0x00, 0x00, 0x08, 0x00, 0x04, 0x00, 0x14, 0x00, 0x00, 0x00,
  0x1c, 0x00, 0x00, 0x00, 0x90, 0x00, 0x00, 0x00, 0xe8, 0x00, 0x00, 0x00, 0x48, 0x31, 0x00, 0x00,
  0x58, 0x31, 0x00, 0x00, 0x84, 0x45, 0x00, 0x00, 0x03, 0x00, 0x00, 0x00, 0x01, 0x00, 0x00, 0x00,
  0x10, 0x00, 0x00, 0x00, 0x00, 0x00, 0x0a, 0x00, 0x10, 0x00, 0x0c, 0x00, 0x08, 0x00, 0x04, 0x00,
  0x0a, 0x00, 0x00, 0x00, 0x0c, 0x00, 0x00, 0x00, 0x1c, 0x00, 0x00, 0x00, 0x3c, 0x00, 0x00, 0x00,
  0x0f, 0x00, 0x00, 0x00, 0x73, 0x65, 0x72, 0x76, 0x69, 0x6e, 0x67, 0x5f, 0x64, 0x65, 0x66, 0x61,
  0x75, 0x6c, 0x74, 0x00, 0x01, 0x00, 0x00, 0x00, 0x04, 0x00, 0x00, 0x00, 0x98, 0xff, 0xff, 0xff,
  0x12, 0x00, 0x00, 0x00, 0x04, 0x00, 0x00, 0x00, 0x08, 0x00, 0x00, 0x00, 0x6f, 0x75, 0x74, 0x70,
  0x75, 0x74, 0x5f, 0x30, 0x00, 0x00, 0x00, 0x00, 0x01, 0x00, 0x00, 0x00, 0x04, 0x00, 0x00, 0x00,
  0x92, 0xce, 0xff, 0xff, 0x04, 0x00, 0x00, 0x00, 0x05, 0x00, 0x00, 0x00, 0x69, 0x6e, 0x70, 0x75,
  0x74, 0x00, 0x00, 0x00, 0x02, 0x00, 0x00, 0x00, 0x34, 0x00, 0x00, 0x00, 0x04, 0x00, 0x00, 0x00,
  0xdc, 0xff, 0xff, 0xff, 0x15, 0x00, 0x00, 0x00, 0x04, 0x00, 0x00, 0x00, 0x13, 0x00, 0x00, 0x00,
  0x43, 0x4f, 0x4e, 0x56, 0x45, 0x52, 0x53, 0x49, 0x4f, 0x4e, 0x5f, 0x4d, 0x45, 0x54, 0x41, 0x44,
  0x41, 0x54, 0x41, 0x00, 0x08, 0x00, 0x0c, 0x00, 0x08, 0x00, 0x04, 0x00, 0x08, 0x00, 0x00, 0x00,
  0x14, 0x00, 0x00, 0x00, 0x04, 0x00, 0x00, 0x00, 0x13, 0x00, 0x00, 0x00, 0x6d, 0x69, 0x6e, 0x5f,
  0x72, 0x75, 0x6e, 0x74, 0x69, 0x6d, 0x65, 0x5f, 0x76, 0x65, 0x72, 0x73, 0x69, 0x6f, 0x6e, 0x00,
  0x16, 0x00, 0x00, 0x00, 0x5c, 0x30, 0x00, 0x00, 0x54, 0x30, 0x00, 0x00, 0x3c, 0x30, 0x00, 0x00,
  0x24, 0x30, 0x00, 0x00, 0xd4, 0x2f, 0x00, 0x00, 0x44, 0x2f, 0x00, 0x00, 0x34, 0x14, 0x00, 0x00,
  0xc4, 0x13, 0x00, 0x00, 0x34, 0x06, 0x00, 0x00, 0xe4, 0x05, 0x00, 0x00, 0x54, 0x01, 0x00, 0x00,
  0x24, 0x01, 0x00, 0x00, 0xcc, 0x00, 0x00, 0x00, 0xc4, 0x00, 0x00, 0x00, 0xbc, 0x00, 0x00, 0x00,
  0xb4, 0x00, 0x00, 0x00, 0xac, 0x00, 0x00, 0x00, 0xa4, 0x00, 0x00, 0x00, 0x9c, 0x00, 0x00, 0x00,
  0x94, 0x00, 0x00, 0x00, 0x74, 0x00, 0x00, 0x00, 0x04, 0x00, 0x00, 0x00, 0x5e, 0xcf, 0xff, 0xff,
  0x04, 0x00, 0x00, 0x00, 0x60, 0x00, 0x00, 0x00, 0x0c, 0x00, 0x00, 0x00, 0x08, 0x00, 0x0e, 0x00,
  0x08, 0x00, 0x04, 0x00, 0x08, 0x00, 0x00, 0x00, 0x10, 0x00, 0x00, 0x00, 0x28, 0x00, 0x00, 0x00,
  0x00, 0x00, 0x06, 0x00, 0x08, 0x00, 0x04, 0x00, 0x06, 0x00, 0x00, 0x00, 0x04, 0x00, 0x00, 0x00,
  0x01, 0x00, 0x00, 0x00, 0xeb, 0x03, 0x00, 0x00, 0x0c, 0x00, 0x18, 0x00, 0x14, 0x00, 0x10, 0x00,
  0x0c, 0x00, 0x04, 0x00, 0x0c, 0x00, 0x00, 0x00, 0x7f, 0xdf, 0xb6, 0x10, 0xb4, 0x5e, 0x9e, 0x8d,
  0x02, 0x00, 0x00, 0x00, 0x02, 0x00, 0x00, 0x00, 0x04, 0x00, 0x00, 0x00, 0x06, 0x00, 0x00, 0x00,
  0x32, 0x2e, 0x32, 0x30, 0x2e, 0x30, 0x00, 0x00, 0xca, 0xcf, 0xff, 0xff, 0x04, 0x00, 0x00, 0x00,
  0x10, 0x00, 0x00, 0x00, 0x31, 0x2e, 0x31, 0x34, 0x2e, 0x30, 0x00, 0x00, 0x00, 0x00, 0x00, 0x00,
  0x00, 0x00, 0x00, 0x00, 0x08, 0xbd, 0xff, 0xff, 0x0c, 0xbd, 0xff, 0xff, 0x10, 0xbd, 0xff, 0xff,
  0x14, 0xbd, 0xff, 0xff, 0x18, 0xbd, 0xff, 0xff, 0x1c, 0xbd, 0xff, 0xff, 0x20, 0xbd, 0xff, 0xff,
  0x02, 0xd0, 0xff, 0xff, 0x04, 0x00, 0x00, 0x00, 0x48, 0x00, 0x00, 0x00, 0x84, 0x04, 0xf7, 0x7f,
  0xe1, 0xe5, 0xeb, 0x21, 0xef, 0x1b, 0xdd, 0x7f, 0xc3, 0x50, 0xc5, 0xe6, 0xf3, 0xd8, 0x64, 0x93,
  0xfb, 0x7f, 0x10, 0x0e, 0x8c, 0x8f, 0x3b, 0x32, 0x01, 0xff, 0xec, 0xa0, 0xa0, 0x94, 0x81, 0xd2,
  0x77, 0xc2, 0x07, 0xc5, 0x91, 0x29, 0xb0, 0x81, 0x55, 0x47, 0xca, 0x9d, 0x7f, 0x98, 0xa7, 0x76,
  0x7a, 0xbb, 0x54, 0x39, 0xc5, 0xa8, 0xf1, 0x81, 0x30, 0x10, 0xf1, 0x4e, 0x88, 0x50, 0xd0, 0x0a,
  0x9b, 0xd5, 0x7f, 0x33, 0x56, 0xd0, 0xff, 0xff, 0x04, 0x00, 0x00, 0x00, 0x20, 0x00, 0x00, 0x00,
  0xb5, 0x1b, 0x00, 0x00, 0x40, 0xff, 0xff, 0xff, 0xce, 0x0d, 0x00, 0x00, 0x36, 0xd5, 0x00, 0x00,
  0x6c, 0x5a, 0x00, 0x00, 0x33, 0xf9, 0xff, 0xff, 0x35, 0x2d, 0x00, 0x00, 0x40, 0xf0, 0xff, 0xff,
  0x82, 0xd0, 0xff, 0xff, 0x04, 0x00, 0x00, 0x00, 0x80, 0x04, 0x00, 0x00, 0x1a, 0x50, 0xff, 0x62,
  0xc2, 0xec, 0xc5, 0x05, 0xeb, 0xff, 0x52, 0x3f, 0xde, 0x61, 0x44, 0x92, 0xd2, 0xd8, 0x36, 0x3e,
  0x1d, 0x0b, 0xc3, 0xfe, 0x56, 0xbe, 0x4b, 0x1c, 0x17, 0x81, 0xc8, 0x26, 0xb3, 0xa9, 0x8d, 0x15,
  0x9a, 0x53, 0x49, 0xbd, 0xb2, 0xf5, 0x22, 0x11, 0xe6, 0x06, 0xd1, 0xbb, 0xf6, 0x10, 0x44, 0x5f,
  0x71, 0xac, 0xbd, 0x8c, 0x16, 0x4c, 0xf5, 0x3a, 0xf7, 0x04, 0x52, 0xb8, 0xc9, 0x44, 0x51, 0x3b,
  0x31, 0x45, 0x06, 0x13, 0x25, 0x45, 0x32, 0xcc, 0xeb, 0x0c, 0xa7, 0xc5, 0x8d, 0xc5, 0x59, 0x94,
  0x25, 0x9c, 0xb1, 0x57, 0x58, 0xb0, 0xab, 0xef, 0x37, 0xa2, 0x1f, 0x5e, 0xa0, 0x32, 0xfa, 0xe6,
  0x40, 0xcf, 0x23, 0xb0, 0x13, 0x51, 0xb5, 0xa9, 0x20, 0xa4, 0xf4, 0x5b, 0xbd, 0xfd, 0xfc, 0x0b,
  0x9d, 0x3f, 0xf5, 0x7f, 0xe5, 0x2b, 0x04, 0x43, 0xe0, 0x37, 0xcb, 0x4a, 0x4d, 0x3a, 0xa1, 0xfa,
  0xf0, 0xf5, 0x27, 0x26, 0xb1, 0xa6, 0x4b, 0x63, 0xfb, 0x01, 0x3a, 0x4b, 0xf1, 0xb0, 0x92, 0xfe,
  0xcb, 0x23, 0x40, 0x20, 0x4c, 0xd9, 0x87, 0xfd, 0x39, 0xb6, 0x3e, 0xda, 0x1f, 0x06, 0xaa, 0xd2,
  0xa2, 0x8b, 0xe2, 0xdb, 0xb4, 0x0e, 0x0d, 0x36, 0x1c, 0x0a, 0x28, 0xa6, 0x22, 0x0d, 0x93, 0x19,
  0xde, 0x2d, 0xb9, 0x2f, 0xde, 0x19, 0xbd, 0xaa, 0x9f, 0x81, 0x49, 0xa6, 0xf0, 0xc9, 0xe8, 0xf4,
  0xc1, 0xd2, 0xea, 0x17, 0x23, 0xff, 0xbd, 0x1b, 0xfa, 0xfc, 0xc5, 0xb2, 0xf8, 0xea, 0xec, 0xfb,
  0x34, 0xb6, 0xa9, 0xdd, 0x61, 0x3e, 0xbb, 0x4c, 0xf4, 0x3f, 0x57, 0x27, 0x05, 0x1c, 0xf3, 0x4e,
  0x3b, 0x05, 0xd3, 0xf5, 0x22, 0x1f, 0x1e, 0x23, 0x25, 0x13, 0x13, 0x10, 0xea, 0x96, 0xcd, 0xf0,
  0xd9, 0x5f, 0xa7, 0xef, 0xdf, 0xb2, 0xb1, 0xf5, 0x02, 0x3f, 0xf6, 0x22, 0xeb, 0x9c, 0xc3, 0xc1,
  0xd0, 0x5b, 0xb9, 0x3c, 0x18, 0xb5, 0xb2, 0x41, 0xff, 0x2f, 0xd0, 0xf2, 0xf1, 0x81, 0xed, 0x0c,
  0xcd, 0xfc, 0x45, 0xf8, 0x0a, 0x08, 0x46, 0x4c, 0xd5, 0xcd, 0x07, 0xfc, 0xaa, 0xc9, 0xf7, 0x01,
  0xa0, 0x8a, 0x55, 0x01, 0x14, 0x69, 0xc2, 0x2a, 0xdd, 0xc7, 0xc3, 0x12, 0x54, 0x47, 0xfa, 0x92,
  0x38, 0x00, 0x53, 0xd6, 0x32, 0x12, 0x16, 0x13, 0x0b, 0x81, 0x48, 0x24, 0xf6, 0x45, 0x99, 0xf8,
  0x27, 0xec, 0x25, 0x2e, 0xa4, 0x7a, 0xaf, 0xed, 0xed, 0xd6, 0x97, 0x9d, 0xaf, 0x4d, 0xb6, 0x99,
  0x55, 0xab, 0x26, 0x98, 0xcd, 0xe1, 0x03, 0xf3, 0x25, 0x90, 0xf6, 0xe6, 0xe3, 0x52, 0xfb, 0x5a,
  0x02, 0x4c, 0x52, 0xfd, 0x40, 0x5d, 0x6b, 0x22, 0xdb, 0xd8, 0x39, 0xf2, 0x15, 0x41, 0xc1, 0x5a,
  0x59, 0xec, 0xc0, 0x5a, 0xf4, 0x20, 0xd2, 0x93, 0x36, 0xef, 0x02, 0xf3, 0x70, 0xcf, 0xf3, 0xe4,
  0x66, 0xd0, 0x7f, 0xba, 0x56, 0xfb, 0xd7, 0x0b, 0xcf, 0x5a, 0xc6, 0xb0, 0xf7, 0x69, 0xf9, 0xce,
  0xdf, 0xa3, 0xce, 0xf8, 0x6b, 0xec, 0x5f, 0x40, 0x3c, 0xf0, 0x6e, 0x4f, 0x00, 0xbe, 0xa2, 0xaa,
  0x28, 0x91, 0xcb, 0x08, 0x44, 0x1d, 0x84, 0x99, 0xf0, 0x18, 0xda, 0xa2, 0x2d, 0x43, 0x8b, 0xd1,
  0xc8, 0xe2, 0xa2, 0xa1, 0xbd, 0x56, 0x3f, 0xbd, 0xdb, 0xbf, 0xaa, 0xc4, 0x3c, 0x43, 0x13, 0xc2,
  0x81, 0xb7, 0xeb, 0x55, 0xac, 0x1f, 0x1f, 0xf7, 0x57, 0xba, 0x43, 0x09, 0xa9, 0xc6, 0x54, 0x03,
  0xc8, 0x13, 0xaf, 0x2c, 0x92, 0x6b, 0xe3, 0xb8, 0x39, 0x6e, 0x8c, 0x02, 0x3b, 0x59, 0x02, 0xc5,
  0xd7, 0x41, 0x17, 0x97, 0xc7, 0xac, 0x81, 0xfe, 0xb3, 0xce, 0xd5, 0x5c, 0xce, 0x4f, 0x83, 0x9c,
  0xdf, 0x5f, 0x43, 0x54, 0x95, 0x53, 0xe0, 0xc5, 0x81, 0xce, 0xd4, 0xec, 0x2b, 0x30, 0x57, 0xb8,
  0x9c, 0xf8, 0x15, 0x4c, 0xa6, 0xb1, 0xf4, 0x3f, 0xa4, 0xe0, 0xaa, 0x0c, 0xb7, 0xd4, 0x47, 0x2e,
  0xb9, 0x63, 0x3f, 0xbd, 0xff, 0x6e, 0x7b, 0x1c, 0xaf, 0xb6, 0xd0, 0xc3, 0x16, 0xb9, 0x3e, 0xc1,
  0xca, 0xaf, 0x36, 0x3e, 0xe6, 0x27, 0x98, 0x9b, 0xba, 0xc5, 0x9c, 0xf5, 0xf2, 0x42, 0xf4, 0xa2,
  0x03, 0x28, 0xed, 0xe9, 0x3d, 0xb7, 0x46, 0xc1, 0x2e, 0xd9, 0x6a, 0x6a, 0xee, 0xb4, 0xae, 0xfe,
  0xa2, 0x1c, 0xac, 0x42, 0xd6, 0x99, 0xdd, 0x4c, 0xfc, 0x62, 0xef, 0x69, 0x0c, 0xee, 0xa6, 0x1f,
  0xc3, 0x27, 0xe7, 0xcf, 0xbe, 0xc7, 0x25, 0xb4, 0x4f, 0x42, 0x87, 0xc3, 0xdb, 0xc0, 0xa3, 0x63,
  0x45, 0x2d, 0xe3, 0xec, 0x57, 0x0f, 0xbb, 0x02, 0x38, 0x58, 0x45, 0xc3, 0xca, 0x7f, 0x36, 0xcc,
  0x3e, 0xa3, 0x9c, 0xa7, 0xf6, 0x44, 0x21, 0x58, 0x3b, 0x87, 0x58, 0x00, 0x57, 0x70, 0xcc, 0x20,
  0xeb, 0x87, 0xf6, 0x47, 0xba, 0x26, 0xf4, 0xd4, 0x06, 0x96, 0x24, 0x37, 0x5c, 0x81, 0xb7, 0xe8,
  0xf8, 0x4a, 0xbc, 0xaa, 0x33, 0xee, 0x0f, 0xad, 0xfc, 0x1c, 0x57, 0xe9, 0xe0, 0x35, 0xdf, 0x11,
  0xd0, 0x73, 0x07, 0xd4, 0xf1, 0x39, 0xc0, 0xf9, 0x59, 0xbd, 0x5b, 0x31, 0xb6, 0x3c, 0x73, 0x3f,
  0x17, 0xec, 0xf8, 0xb4, 0xcd, 0xf3, 0xfa, 0x0e, 0x98, 0x83, 0x39, 0x09, 0xe8, 0xb8, 0x5f, 0x45,
  0x01, 0x29, 0x85, 0xd9, 0x29, 0xa4, 0x5b, 0xbc, 0xb1, 0xd0, 0xdc, 0x66, 0xb5, 0xdb, 0x10, 0x5f,
  0x10, 0xea, 0xb9, 0x43, 0x3d, 0x29, 0xbd, 0xc1, 0x50, 0x3f, 0x21, 0x52, 0xf4, 0xe1, 0xbd, 0x16,
  0x17, 0x9d, 0xa2, 0xda, 0x19, 0xb7, 0x2c, 0x13, 0xd0, 0xe4, 0x38, 0xab, 0xec, 0x09, 0x4c, 0x63,
  0xe1, 0xf1, 0x02, 0x3d, 0xe0, 0xf0, 0x1c, 0xe9, 0xa4, 0xd0, 0xe9, 0x25, 0xcd, 0xe6, 0x43, 0xb7,
  0x17, 0xb9, 0x44, 0x40, 0xf4, 0xb9, 0x4f, 0x9f, 0xf3, 0x7f, 0x40, 0x00, 0xc1, 0xe6, 0x35, 0x15,
  0x29, 0xbb, 0xff, 0xe5, 0xd9, 0x7f, 0x63, 0xf8, 0xa6, 0xc0, 0xe6, 0x2b, 0xb7, 0x0b, 0x1a, 0xda,
  0x23, 0xf1, 0xe3, 0xf4, 0xfa, 0xe2, 0x73, 0xd1, 0x09, 0xa5, 0xda, 0xbc, 0xc6, 0xe4, 0x2f, 0x5b,
  0xc3, 0xe9, 0x31, 0x1d, 0xac, 0x4e, 0x3f, 0x68, 0x43, 0x1e, 0xf7, 0xff, 0x0b, 0x6b, 0x5d, 0x31,
  0xbd, 0x22, 0x1f, 0xf9, 0xf9, 0x58, 0x10, 0x08, 0xf5, 0xfd, 0x5d, 0x04, 0xcc, 0xac, 0xad, 0x05,
  0x5a, 0x6d, 0xf4, 0xb7, 0xb9, 0xb3, 0xda, 0xb8, 0x20, 0x28, 0x30, 0xb9, 0xeb, 0x55, 0xd2, 0x53,
  0xf7, 0x81, 0xcf, 0xbc, 0x0a, 0x4f, 0xce, 0xd2, 0x34, 0xe9, 0xb1, 0x1f, 0x9f, 0xe5, 0xdb, 0xb3,
  0xc8, 0xd9, 0x92, 0xb1, 0x07, 0xda, 0xdd, 0x5b, 0x3e, 0xa7, 0xe6, 0xcb, 0x13, 0x1b, 0xc8, 0x2e,
  0xd4, 0x1f, 0xee, 0xd2, 0x38, 0xf2, 0xeb, 0xb2, 0xf5, 0x23, 0xb0, 0xb3, 0xc1, 0xe8, 0x53, 0x06,
  0x5b, 0x3b, 0x58, 0x39, 0x08, 0xfb, 0x04, 0xe7, 0xdd, 0x5b, 0x3b, 0xba, 0xbf, 0x46, 0x1e, 0x63,
  0x01, 0xc5, 0x03, 0xee, 0xe5, 0x83, 0xf0, 0x78, 0xe9, 0x72, 0x3f, 0xd0, 0x76, 0x11, 0x06, 0x79,
  0xb2, 0x6f, 0x50, 0x0c, 0x14, 0x81, 0x00, 0x25, 0xb6, 0xc9, 0x4b, 0xbc, 0xb9, 0xb8, 0x09, 0xa0,
  0x51, 0x5f, 0x42, 0xfb, 0x21, 0xfe, 0x27, 0x69, 0xe2, 0x48, 0xf1, 0x08, 0x23, 0xdb, 0xa8, 0x6f,
  0x3b, 0xde, 0xda, 0x2e, 0xb3, 0xe6, 0x44, 0x98, 0xc9, 0xe2, 0xb5, 0xdd, 0xc8, 0x12, 0x01, 0xbf,
  0x57, 0xd4, 0x08, 0xf4, 0xfa, 0x93, 0xc3, 0xa7, 0xa5, 0xcf, 0x37, 0x0e, 0x90, 0x28, 0x9a, 0x30,
  0x4c, 0xac, 0x45, 0x05, 0x67, 0xad, 0xfe, 0x4b, 0xe1, 0x2b, 0x0c, 0x6d, 0xab, 0xa7, 0x42, 0xe6,
  0x4e, 0xfc, 0x71, 0xeb, 0x2a, 0x22, 0xaf, 0xb3, 0x2a, 0x51, 0x92, 0xe3, 0xf7, 0xe3, 0x3b, 0xd1,
  0x9b, 0x81, 0xb5, 0x43, 0xc9, 0xa9, 0x4b, 0x96, 0x07, 0xed, 0x2d, 0xc8, 0x53, 0x1d, 0x2a, 0x1f,
  0xab, 0x60, 0x2a, 0xd0, 0x36, 0xe1, 0xbf, 0xd7, 0x68, 0xb6, 0x14, 0xea, 0x9a, 0x0f, 0xd1, 0x42,
  0xeb, 0x1a, 0x56, 0xfb, 0x1e, 0xe8, 0x49, 0xf0, 0xd3, 0xbb, 0x58, 0xa6, 0xc8, 0xd1, 0x9f, 0xa7,
  0x4b, 0x14, 0xec, 0x2e, 0x17, 0xdf, 0xdd, 0x6f, 0x1b, 0xf1, 0xd4, 0x91, 0x0f, 0x17, 0x99, 0xa8,
  0xf4, 0xab, 0x58, 0x1d, 0x0e, 0xd0, 0x4e, 0x6a, 0x16, 0x60, 0x8e, 0x81, 0x5c, 0xd2, 0xf7, 0x2c,
  0xc8, 0xa3, 0x54, 0x6d, 0x37, 0x22, 0xa0, 0x20, 0xb3, 0xe8, 0xde, 0x95, 0x00, 0x84, 0xe3, 0xbd,
  0x10, 0x40, 0xcf, 0xe5, 0xa4, 0xee, 0xd9, 0xc3, 0x2c, 0xf3, 0xae, 0xa2, 0x0e, 0xd5, 0xff, 0xff,
  0x04, 0x00, 0x00, 0x00, 0x40, 0x00, 0x00, 0x00, 0x8c, 0xf0, 0xff, 0xff, 0x9f, 0x07, 0x00, 0x00,
  0x0d, 0x30, 0x00, 0x00, 0x95, 0xfd, 0xff, 0xff, 0x5a, 0x15, 0x00, 0x00, 0xd1, 0xf8, 0xff, 0xff,
  0x83, 0x29, 0x00, 0x00, 0xba, 0x27, 0x00, 0x00, 0xf6, 0x00, 0x00, 0x00, 0x7f, 0x09, 0x00, 0x00,
  0xda, 0x00, 0x00, 0x00, 0x2b, 0xf6, 0xff, 0xff, 0xe4, 0x10, 0x00, 0x00, 0xa5, 0xf9, 0xff, 0xff,
  0xc9, 0x05, 0x00, 0x00, 0x7a, 0x19, 0x00, 0x00, 0x5a, 0xd5, 0xff, 0xff, 0x04, 0x00, 0x00, 0x00,
  0x80, 0x0d, 0x00, 0x00, 0xba, 0x06, 0x9d, 0x65, 0x6c, 0x3b, 0xce, 0x89, 0xbf, 0x4c, 0x2f, 0xd2,
  0xd3, 0xf9, 0xe5, 0x17, 0x38, 0xa6, 0x87, 0x54, 0x69, 0x2a, 0x0a, 0x2b, 0xc7, 0x53, 0x42, 0x63,
  0x0a, 0x3c, 0x4c, 0xe9, 0x4b, 0x41, 0xc7, 0x0f, 0xfb, 0xb9, 0x08, 0x1d, 0xb7, 0x11, 0x47, 0xa9,
  0xf8, 0x60, 0xeb, 0xce, 0xcf, 0xa9, 0xce, 0xc0, 0x50, 0x0c, 0x03, 0xa7, 0xc1, 0x20, 0x54, 0x9b,
  0x42, 0x14, 0x63, 0xf7, 0xbc, 0xfd, 0xa8, 0x5e, 0x6b, 0x11, 0xa2, 0xa1, 0xc6, 0xf2, 0x33, 0xd3,
  0xaa, 0x2d, 0x1e, 0xca, 0x11, 0xb0, 0xe0, 0x4f, 0xad, 0x00, 0xcd, 0xb5, 0xe2, 0x90, 0xf7, 0x00,
  0x24, 0x2a, 0x61, 0xa6, 0xc7, 0xe7, 0x93, 0x37, 0x49, 0xcb, 0xa6, 0x1e, 0x06, 0x48, 0xc7, 0x32,
  0xd9, 0x4a, 0xb9, 0xd2, 0xd7, 0x21, 0xa7, 0x29, 0x4f, 0xe0, 0x41, 0xa5, 0xf0, 0x23, 0xb7, 0x02,
  0x28, 0x3e, 0xd9, 0x28, 0x4f, 0xd9, 0xe2, 0xe1, 0xe3, 0x1c, 0xd8, 0xec, 0xf8, 0xe8, 0x35, 0x81,
  0xb1, 0x33, 0x3c, 0xcc, 0xec, 0xef, 0x9d, 0x47, 0xc9, 0x58, 0x34, 0x06, 0xd6, 0x4c, 0xc7, 0x0e,
  0x3f, 0x0a, 0xdb, 0x3c, 0x07, 0xc5, 0x05, 0x07, 0x03, 0xa4, 0x26, 0x2d, 0xac, 0xd1, 0xab, 0xd6,
  0xaa, 0xf0, 0xed, 0x39, 0x29, 0x24, 0xa0, 0x03, 0xa4, 0x00, 0xe8, 0x3c, 0xa6, 0xc5, 0x16, 0x90,
  0xfa, 0x2c, 0x3d, 0xda, 0xa8, 0x04, 0x44, 0xcd, 0xb5, 0xb2, 0xe5, 0xe8, 0x0a, 0xd1, 0xf7, 0x0e,
  0xaa, 0xe2, 0xc5, 0x14, 0x3c, 0xe0, 0xba, 0x29, 0x2a, 0x15, 0x44, 0xb9, 0xb7, 0xe7, 0x48, 0xdb,
  0xbc, 0x12, 0xdb, 0xc3, 0xe1, 0x0e, 0xf3, 0x2c, 0xc7, 0xf7, 0x08, 0x4f, 0xaa, 0xbb, 0x26, 0xe8,
  0x25, 0xc0, 0x28, 0xb4, 0xce, 0xb4, 0x0b, 0x3a, 0x84, 0x2b, 0xef, 0xc4, 0x9f, 0x2f, 0x29, 0xef,
  0xcb, 0x2b, 0xbf, 0x2b, 0xef, 0xf0, 0x09, 0xb1, 0xf3, 0x9f, 0xf0, 0xc0, 0xee, 0xc4, 0x2f, 0xd2,
  0x1b, 0xdb, 0xa1, 0x09, 0x00, 0xd9, 0xe4, 0xe2, 0xa2, 0xcb, 0x12, 0x0b, 0xb6, 0xea, 0x0c, 0x81,
  0x33, 0x24, 0xf0, 0x05, 0xb3, 0x21, 0xec, 0xc9, 0x28, 0x09, 0xf3, 0x95, 0xa6, 0x2b, 0xeb, 0xda,
  0x10, 0xf5, 0xed, 0xf9, 0xf3, 0x12, 0x20, 0x11, 0xda, 0xf1, 0xcc, 0xfd, 0x23, 0x1d, 0xb8, 0xf9,
  0x06, 0x53, 0xbd, 0x0a, 0xc8, 0xd1, 0x4d, 0x28, 0xc6, 0x3f, 0x02, 0x2f, 0xf9, 0xe4, 0xdc, 0x16,
  0xff, 0xd8, 0xd6, 0xa2, 0x3f, 0xc8, 0xec, 0x1e, 0xd3, 0xf9, 0x51, 0xcf, 0x13, 0x5a, 0xbe, 0xb6,
  0xf1, 0x26, 0x2c, 0xb3, 0xd8, 0x30, 0x53, 0xa5, 0xc6, 0x21, 0xef, 0xd8, 0x52, 0x05, 0x3b, 0x50,
  0xe9, 0x49, 0x3e, 0x31, 0x53, 0x04, 0xca, 0x1d, 0x9c, 0x13, 0x46, 0x4a, 0x2f, 0x24, 0xcc, 0x49,
  0x51, 0xf0, 0xeb, 0x04, 0xc3, 0xbc, 0x26, 0x0c, 0x81, 0xfe, 0xfd, 0xcb, 0xbe, 0x0b, 0x9e, 0x15,
  0xfd, 0x47, 0xc1, 0x18, 0x43, 0x20, 0xf9, 0xb5, 0xed, 0xe8, 0x20, 0xc7, 0x4e, 0x2a, 0x41, 0xec,
  0xf5, 0x5f, 0xc8, 0x04, 0xe1, 0xb7, 0xd0, 0x9d, 0xe0, 0xdc, 0xf4, 0xdc, 0x1a, 0xa5, 0x43, 0xb5,
  0x48, 0xbf, 0xc3, 0x15, 0x4d, 0x20, 0xd3, 0xe8, 0x4a, 0xea, 0xc7, 0xcc, 0x13, 0xe9, 0xf7, 0x23,
  0x9f, 0x67, 0x60, 0xe4, 0xed, 0xba, 0x99, 0x03, 0x3b, 0x35, 0x30, 0xd1, 0x2d, 0x2c, 0xda, 0x81,
  0xbe, 0xef, 0xd8, 0xb2, 0x3f, 0xdc, 0x17, 0xd1, 0xd5, 0xe3, 0x4a, 0xb5, 0x36, 0xc9, 0x4b, 0x85,
  0x53, 0x14, 0xef, 0x1e, 0x17, 0xb4, 0xa0, 0xea, 0xc7, 0x28, 0x40, 0xf8, 0xed, 0x2c, 0xda, 0x9b,
  0xfd, 0xdb, 0x09, 0xfb, 0x37, 0x18, 0x14, 0x1d, 0xdc, 0xb9, 0xc8, 0xb4, 0x37, 0xdf, 0x00, 0xf8,
  0x3e, 0x26, 0x16, 0x8c, 0x2b, 0xfd, 0x16, 0x21, 0x3e, 0xb2, 0xe6, 0xce, 0xb0, 0x54, 0x36, 0xbf,
  0xfa, 0xf0, 0x47, 0xab, 0xd3, 0xfd, 0x1c, 0xc8, 0xac, 0x1d, 0x11, 0xe5, 0xd8, 0x2f, 0x49, 0x9a,
  0x3e, 0x30, 0x18, 0x27, 0xcd, 0xf6, 0x9c, 0xbe, 0x0e, 0xf5, 0x39, 0xac, 0x38, 0x0a, 0xb5, 0x9f,
  0x28, 0xfe, 0xf3, 0x3e, 0xe6, 0x07, 0xce, 0xf7, 0x3e, 0xc2, 0x15, 0xed, 0x30, 0x1b, 0xd1, 0xa8,
  0xe5, 0xf3, 0x40, 0xba, 0x4d, 0xd7, 0x11, 0xeb, 0xe5, 0xb3, 0xea, 0xfa, 0xb7, 0x34, 0x52, 0xa0,
  0xe8, 0xb3, 0x07, 0x12, 0x4b, 0x02, 0x2c, 0x25, 0x12, 0x88, 0x00, 0x10, 0xd1, 0xf5, 0xa7, 0xfe,
  0xba, 0x19, 0xf6, 0x51, 0x1d, 0x07, 0xb7, 0x96, 0xcb, 0xa2, 0xfa, 0x40, 0xd5, 0x57, 0x53, 0xff,
  0x9d, 0xfa, 0x4d, 0x3c, 0x4e, 0x0e, 0x30, 0xac, 0xc0, 0x81, 0xaa, 0x68, 0xb4, 0xf7, 0x60, 0x2e,
  0xf7, 0xe4, 0x52, 0x65, 0x38, 0xcf, 0x33, 0x44, 0xcd, 0xa6, 0xad, 0x22, 0x34, 0xab, 0x0b, 0x17,
  0xdc, 0xa6, 0xfd, 0xbd, 0xf1, 0xcf, 0xb1, 0x03, 0x38, 0xda, 0xf0, 0x33, 0xdd, 0x42, 0x4f, 0x04,
  0x9b, 0x0c, 0x33, 0xe0, 0x30, 0xc9, 0xdd, 0x00, 0xb6, 0x31, 0x1b, 0xe6, 0xd6, 0x53, 0x13, 0xda,
  0xa2, 0x1f, 0x1c, 0x3b, 0xfa, 0x2a, 0x2c, 0xfc, 0x10, 0x9c, 0xbc, 0xef, 0x1c, 0x29, 0xc5, 0xc7,
  0x12, 0xb8, 0xfc, 0x2c, 0x44, 0xe1, 0x56, 0xd1, 0xcf, 0x98, 0xd8, 0x03, 0xc4, 0x36, 0xca, 0xb9,
  0xb0, 0x12, 0x8a, 0xe3, 0x2f, 0x3f, 0x9a, 0x05, 0xa6, 0x65, 0x0d, 0x20, 0xb9, 0xd3, 0x08, 0xfe,
  0x17, 0xd6, 0xb6, 0xed, 0x61, 0xca, 0x05, 0x2b, 0x9b, 0x90, 0x25, 0x46, 0xec, 0xf0, 0x0b, 0x52,
  0x0d, 0x21, 0x65, 0x51, 0xcf, 0x10, 0x2b, 0xc0, 0xbf, 0xce, 0xfa, 0xfa, 0xb8, 0xc4, 0x09, 0x94,
  0x7b, 0xb9, 0xa1, 0xff, 0x9a, 0x53, 0xab, 0x67, 0xc1, 0xdd, 0xbd, 0xd1, 0x89, 0xf7, 0x38, 0x00,
  0x1d, 0x1b, 0xf2, 0xe1, 0xe9, 0x41, 0xdc, 0xdd, 0xea, 0x4c, 0x22, 0x58, 0xee, 0xd3, 0xfd, 0x6a,
  0x33, 0xa7, 0xb1, 0x27, 0x6b, 0xe6, 0xc8, 0xd7, 0xf2, 0xec, 0xd5, 0xb1, 0xc1, 0x04, 0x33, 0x1f,
  0x30, 0xbf, 0x3c, 0xc1, 0xc3, 0x5a, 0xce, 0x60, 0x47, 0xc3, 0xdd, 0x12, 0xcf, 0xc6, 0x48, 0xc2,
  0x4f, 0x6d, 0x9d, 0x30, 0xb3, 0x0c, 0x81, 0xc9, 0x91, 0x8c, 0xc2, 0x13, 0x10, 0x0e, 0x70, 0xad,
  0x45, 0x07, 0x9f, 0xeb, 0x4a, 0x4b, 0x99, 0x13, 0x51, 0x30, 0xe2, 0x52, 0x29, 0x33, 0x3e, 0x36,
  0xf8, 0xc7, 0x4f, 0x1e, 0x68, 0x35, 0xf1, 0x53, 0xe6, 0xec, 0x21, 0xab, 0xc5, 0x4d, 0xbe, 0x2f,
  0xa6, 0x5c, 0x08, 0x14, 0x2e, 0xc9, 0xd0, 0x10, 0xce, 0x14, 0xbf, 0xce, 0xfb, 0x57, 0x1f, 0xeb,
  0xd7, 0xbf, 0x4e, 0xd0, 0x47, 0xe7, 0xd1, 0xf8, 0x17, 0x37, 0x55, 0x2d, 0xcc, 0xc4, 0xd4, 0xa1,
  0x08, 0xda, 0x16, 0xb8, 0xdc, 0xad, 0xd8, 0x1b, 0x45, 0xfc, 0xa0, 0x34, 0xde, 0xd2, 0xb9, 0xaa,
  0x87, 0xa7, 0xf2, 0x01, 0x23, 0xae, 0x81, 0xe6, 0x33, 0x00, 0x5c, 0xb4, 0xde, 0x4e, 0x1b, 0xb5,
  0x45, 0x35, 0x56, 0x36, 0xea, 0x00, 0x06, 0x3d, 0x09, 0x18, 0x51, 0x98, 0x29, 0xa6, 0x8b, 0xfd,
  0x04, 0x21, 0x43, 0x08, 0x11, 0xdb, 0x2f, 0xec, 0xce, 0x27, 0x5c, 0xe0, 0xec, 0x02, 0x19, 0xad,
  0xcd, 0xcd, 0x5b, 0xb5, 0xf3, 0x4e, 0x04, 0x2a, 0x9e, 0xe5, 0xad, 0x94, 0xb7, 0x1a, 0x35, 0x25,
  0xe5, 0xd8, 0xde, 0xc8, 0x02, 0xf0, 0xd3, 0x3e, 0x19, 0xa2, 0x53, 0xf2, 0xbc, 0xf8, 0xd4, 0x3f,
  0x3a, 0xe8, 0x3e, 0xb6, 0xd1, 0x00, 0x05, 0xec, 0x0a, 0xe6, 0xc2, 0xc3, 0xed, 0xc4, 0x1e, 0xbf,
  0xa0, 0xf0, 0x16, 0x11, 0xdc, 0x0e, 0xd1, 0xc4, 0x93, 0xbd, 0x09, 0x14, 0xda, 0x17, 0x41, 0xab,
  0x36, 0xf5, 0xf2, 0x25, 0x1e, 0xd1, 0xe7, 0xbb, 0x36, 0xea, 0xeb, 0x08, 0x11, 0x26, 0x3d, 0xe6,
  0xf2, 0xe2, 0xfb, 0x01, 0xd0, 0x18, 0xf5, 0x34, 0xb1, 0xb7, 0x44, 0x02, 0x81, 0xdf, 0x0f, 0x11,
  0xc8, 0x25, 0x3c, 0x10, 0x2d, 0xca, 0x3c, 0xfd, 0xd4, 0x17, 0x04, 0xc8, 0xf1, 0xec, 0x53, 0xd1,
  0xfd, 0xbe, 0xd0, 0x2d, 0x3e, 0x1d, 0xb8, 0xd7, 0xb8, 0x06, 0x41, 0x12, 0x2b, 0x07, 0xc3, 0xb3,
  0xae, 0xe5, 0xe8, 0xce, 0xe3, 0x35, 0xc5, 0xd3, 0xe0, 0xe8, 0x42, 0x0f, 0x97, 0x3f, 0x02, 0x0c,
  0xba, 0x36, 0x35, 0x2f, 0x05, 0x39, 0xcd, 0xb1, 0xfc, 0xc4, 0xb7, 0x06, 0xeb, 0xc5, 0xde, 0x31,
  0xb3, 0xe1, 0x0b, 0x30, 0xdc, 0x0e, 0x3b, 0x35, 0xdf, 0xf1, 0x07, 0xbe, 0xe3, 0x0d, 0xdf, 0x18,
  0xde, 0xcc, 0x3a, 0xc7, 0x58, 0xfb, 0x0f, 0xb8, 0x43, 0x3f, 0x18, 0x2e, 0xad, 0xbd, 0x07, 0xd4,
  0x05, 0xa6, 0x1e, 0x45, 0x57, 0x55, 0xbe, 0xb9, 0xc1, 0xc0, 0xca, 0xfb, 0xef, 0x1a, 0xa3, 0x59,
  0x42, 0x76, 0x62, 0xba, 0xb1, 0xdb, 0xf2, 0xa3, 0x55, 0x03, 0xc9, 0xb4, 0xbd, 0x39, 0x3e, 0xfd,
  0x41, 0xcf, 0xf8, 0x08, 0xe5, 0xe1, 0x1d, 0xa2, 0x1d, 0xf1, 0xfb, 0x49, 0x3a, 0xbd, 0xae, 0x02,
  0xd3, 0x33, 0xbb, 0x0c, 0x69, 0xc5, 0x38, 0xd5, 0x40, 0x28, 0x2d, 0x27, 0x26, 0xa0, 0x40, 0x17,
  0x27, 0xeb, 0x1c, 0x4a, 0xf2, 0xcc, 0xae, 0xe1, 0x1e, 0x4f, 0x62, 0xad, 0x5f, 0x01, 0x9e, 0x37,
  0x83, 0xc6, 0x27, 0xce, 0x1e, 0xf5, 0xc6, 0xe3, 0x0f, 0xfe, 0x89, 0xc1, 0xf7, 0xfe, 0xad, 0x16,
  0xb9, 0x6c, 0xcd, 0x52, 0x50, 0x1d, 0xb6, 0xd4, 0xc0, 0x01, 0xcb, 0x81, 0xb7, 0x2c, 0xa6, 0x41,
  0xd1, 0x4e, 0xf4, 0xb4, 0xee, 0x20, 0x42, 0xed, 0xc4, 0xd3, 0xed, 0x8e, 0x3b, 0xac, 0x17, 0xc6,
  0xc6, 0x20, 0xff, 0xc7, 0x1c, 0x10, 0xbd, 0xff, 0x24, 0x2c, 0x41, 0x18, 0x0f, 0xd8, 0x4a, 0xbe,
  0xc8, 0x57, 0x3d, 0x52, 0xd9, 0xd7, 0xe0, 0x10, 0x3e, 0x2b, 0xeb, 0xce, 0x42, 0x19, 0xb1, 0xc1,
  0x55, 0xe5, 0x00, 0xb3, 0x16, 0xb7, 0xc0, 0x0b, 0x3c, 0x47, 0x3f, 0xc8, 0x2f, 0xbe, 0x56, 0xbf,
  0xd9, 0xc1, 0x02, 0xd5, 0x02, 0x33, 0x9e, 0x7f, 0xd4, 0x14, 0x06, 0x0b, 0xee, 0xfd, 0x46, 0xbd,
  0xd5, 0xd0, 0xd6, 0xbf, 0xbd, 0xaf, 0xa7, 0x56, 0x3f, 0xb0, 0x40, 0x55, 0x53, 0x42, 0x34, 0x5a,
  0x57, 0xb9, 0xfd, 0x12, 0xb8, 0x15, 0x00, 0xdd, 0xb6, 0x58, 0xa2, 0xd8, 0xb6, 0x5e, 0x2b, 0x32,
  0x43, 0x0f, 0x45, 0x3d, 0x37, 0x13, 0x37, 0x4b, 0xcc, 0xe3, 0x4b, 0xeb, 0x4d, 0x27, 0x36, 0xd5,
  0x70, 0x65, 0x2f, 0x9d, 0xdd, 0xc8, 0xf4, 0x0e, 0x5b, 0xda, 0x33, 0x43, 0xb7, 0xec, 0xb4, 0x5c,
  0xbc, 0xef, 0xe4, 0x12, 0xe5, 0x4b, 0xde, 0xc8, 0xb8, 0x1f, 0xa4, 0xd7, 0xce, 0x20, 0x36, 0x5a,
  0x65, 0xf7, 0x62, 0x54, 0xb2, 0xbb, 0x53, 0x2e, 0x4e, 0xe0, 0xf0, 0xff, 0xfe, 0xd2, 0xda, 0xea,
  0x45, 0xb2, 0x42, 0x09, 0xda, 0xf7, 0xfc, 0x0e, 0xd9, 0x24, 0xec, 0xd9, 0xfb, 0xa0, 0x08, 0xd1,
  0xc1, 0x35, 0x0a, 0xb6, 0xc2, 0x03, 0x5a, 0xfe, 0x44, 0xc7, 0xb6, 0x3c, 0xe7, 0xe4, 0xe0, 0xb1,
  0x45, 0x14, 0xd2, 0x20, 0x3b, 0xe0, 0xf1, 0x18, 0x0e, 0xd7, 0x50, 0xb7, 0xb6, 0x12, 0xc6, 0x49,
  0x4c, 0xfb, 0x05, 0x30, 0x09, 0x10, 0x20, 0xbf, 0xc1, 0x2e, 0xe7, 0x0e, 0xda, 0xfd, 0xfe, 0x2c,
  0x21, 0xd9, 0x9b, 0x0d, 0xfe, 0x08, 0x16, 0x81, 0xf3, 0xb8, 0xb6, 0xc7, 0x27, 0x95, 0x1e, 0x1d,
  0xab, 0xa8, 0xc9, 0x92, 0xfc, 0x29, 0x55, 0xeb, 0xc6, 0x70, 0xdc, 0x32, 0x46, 0xb0, 0xd2, 0x2e,
  0xc3, 0xe7, 0x36, 0x30, 0x31, 0xd5, 0x0a, 0x26, 0xce, 0xda, 0xc8, 0xc0, 0x4f, 0xcd, 0x20, 0xcc,
  0xc8, 0xe6, 0xcc, 0xe0, 0xae, 0xf1, 0xdd, 0x14, 0xd3, 0x44, 0x0c, 0x2c, 0xff, 0xb8, 0xf4, 0x36,
  0x9b, 0x54, 0x27, 0x32, 0x09, 0x48, 0x3d, 0x4d, 0x0f, 0xe8, 0x9d, 0xea, 0xec, 0x3a, 0x0b, 0x03,
  0x31, 0x69, 0xb0, 0x27, 0xc9, 0x1d, 0xdf, 0xe5, 0xcf, 0x27, 0xb2, 0x2f, 0xfc, 0x47, 0x4a, 0xe4,
  0x33, 0x06, 0xd6, 0xb7, 0x63, 0x4d, 0xd6, 0x28, 0x16, 0xe9, 0x37, 0x2f, 0x51, 0x0d, 0x3d, 0x51,
  0x33, 0x56, 0x29, 0xd0, 0x23, 0xe2, 0x00, 0x2b, 0x5a, 0x07, 0xaa, 0x44, 0xef, 0x51, 0x4c, 0xc9,
  0x29, 0x21, 0xc0, 0x10, 0x58, 0xa3, 0x4c, 0xe8, 0x46, 0x51, 0xd5, 0x59, 0x2a, 0x4d, 0xc5, 0x5c,
  0xe1, 0x01, 0x37, 0x4b, 0x49, 0xa3, 0x2c, 0x5a, 0x10, 0xd6, 0xf7, 0x4b, 0xf5, 0x02, 0x25, 0x2d,
  0xb7, 0x27, 0x41, 0xc2, 0x46, 0x18, 0xce, 0x23, 0x31, 0x9e, 0xf0, 0xc7, 0xad, 0xab, 0xbd, 0xbd,
  0xc6, 0x3f, 0xea, 0x81, 0xb4, 0xd0, 0x34, 0x5f, 0x3d, 0xc4, 0xae, 0xc3, 0x5c, 0xc9, 0xc3, 0x26,
  0xda, 0x0e, 0xa9, 0x2c, 0x41, 0x36, 0x0a, 0x4a, 0x6e, 0xdb, 0xf2, 0xf5, 0xe3, 0xb1, 0xf6, 0x43,
  0x0c, 0x0e, 0x43, 0xa6, 0x0f, 0xc7, 0xf8, 0xd5, 0x1a, 0x59, 0xce, 0xfc, 0xbe, 0x64, 0xa8, 0xe0,
  0xe9, 0x27, 0x04, 0xc8, 0x64, 0x12, 0xf6, 0xcc, 0x44, 0xdf, 0xf7, 0x9c, 0xd5, 0xbe, 0x46, 0x62,
  0x44, 0xb7, 0x5d, 0xe5, 0xad, 0x28, 0x95, 0x1d, 0x02, 0x2a, 0xa4, 0xb0, 0x3d, 0xbd, 0x03, 0xd1,
  0xf8, 0xa2, 0xa5, 0x3a, 0xc6, 0x12, 0xd5, 0xfe, 0xef, 0xa6, 0xbe, 0x8e, 0xd8, 0xe0, 0x0d, 0x47,
  0xb7, 0x7f, 0xf0, 0x1f, 0x15, 0x39, 0x2c, 0xa8, 0x1d, 0x60, 0x41, 0xde, 0x4f, 0x42, 0x1d, 0x9f,
  0xf0, 0x52, 0xb9, 0x4e, 0xaa, 0x40, 0xbb, 0xff, 0xdf, 0x63, 0xa7, 0x8b, 0xd1, 0xcf, 0xa6, 0x91,
  0xd7, 0xdb, 0x08, 0x2e, 0x54, 0x51, 0xce, 0xc4, 0x20, 0x4e, 0x0b, 0xfc, 0x1b, 0xeb, 0xcb, 0x22,
  0xc2, 0xc9, 0x21, 0x2b, 0x5b, 0x07, 0x53, 0xbf, 0xb7, 0xff, 0x2f, 0xc2, 0xdb, 0x23, 0xea, 0x0c,
  0xf9, 0xc7, 0xb5, 0x49, 0xf1, 0xbd, 0x55, 0xbc, 0xdc, 0xab, 0xbe, 0xab, 0x19, 0x32, 0x04, 0xcc,
  0xc0, 0xbd, 0xf6, 0xab, 0xdc, 0xc7, 0xfe, 0x94, 0x87, 0x54, 0x04, 0x40, 0xcb, 0x41, 0xdc, 0xeb,
  0x1f, 0xf1, 0x21, 0x4a, 0xa2, 0x2c, 0xbb, 0xb4, 0x1a, 0x1b, 0x44, 0xa3, 0x30, 0x45, 0x58, 0xc5,
  0x00, 0xa8, 0x11, 0x25, 0x06, 0x34, 0x0b, 0x37, 0xbb, 0x2d, 0xd5, 0xe6, 0x59, 0xad, 0x34, 0xf4,
  0x39, 0x93, 0x14, 0x35, 0x18, 0x31, 0x5a, 0xba, 0x97, 0x4f, 0x93, 0xad, 0xee, 0xe7, 0xd2, 0xb9,
  0x34, 0xd2, 0x53, 0x60, 0x35, 0xa4, 0xd5, 0xf9, 0xe3, 0x58, 0x4b, 0xdf, 0xc1, 0xfd, 0xa2, 0xd9,
  0xe3, 0x40, 0xa2, 0x7f, 0xca, 0x07, 0xb1, 0xc6, 0x3c, 0x1d, 0x90, 0x9e, 0x2a, 0x94, 0x21, 0xb4,
  0xe7, 0xbf, 0xd7, 0x2f, 0x50, 0xc2, 0xf6, 0xe7, 0x93, 0xce, 0xed, 0xa5, 0x3b, 0x40, 0xa6, 0x9d,
  0x03, 0xeb, 0xd1, 0x15, 0xc3, 0x3d, 0xaa, 0xe8, 0xc4, 0x52, 0x9a, 0xb9, 0xb5, 0xb8, 0xaa, 0x31,
  0xb1, 0xe2, 0xaa, 0xe0, 0x5c, 0xf7, 0x33, 0xc6, 0x9d, 0x3d, 0xb4, 0x59, 0xe7, 0x61, 0xfe, 0x96,
  0xd1, 0xed, 0x6f, 0x43, 0xf7, 0xb0, 0xe4, 0xb8, 0xd6, 0xed, 0x06, 0xc1, 0xb1, 0x20, 0x63, 0xa6,
  0xc9, 0xf7, 0x3e, 0xed, 0x06, 0xc4, 0xa7, 0xda, 0xe4, 0x15, 0x01, 0xdf, 0xa6, 0xff, 0xa6, 0xfb,
  0x4d, 0x10, 0xeb, 0xb5, 0xbb, 0x27, 0x40, 0x99, 0xd0, 0xb7, 0xcf, 0x2f, 0x23, 0xde, 0x48, 0x9a,
  0x0b, 0x9f, 0x1d, 0x19, 0x2b, 0xb1, 0x94, 0xcd, 0xc6, 0xd6, 0xa3, 0x02, 0x81, 0x15, 0xf5, 0xce,
  0x60, 0xc9, 0x28, 0x1e, 0x32, 0x51, 0x30, 0x9c, 0xca, 0xbe, 0xe7, 0x01, 0xe5, 0x5c, 0x31, 0xe2,
  0xde, 0x2b, 0x03, 0xd3, 0xf8, 0xfa, 0x25, 0x93, 0xbf, 0xf9, 0xd6, 0xba, 0x21, 0x18, 0x4e, 0x9b,
  0xe3, 0x06, 0x33, 0x4a, 0xb5, 0x03, 0x3e, 0xbb, 0xa9, 0xd1, 0xaf, 0x2a, 0xd0, 0x3c, 0x2d, 0xc9,
  0xcd, 0x32, 0xfb, 0x29, 0xc1, 0xe1, 0xa6, 0xb1, 0xf1, 0x07, 0xe9, 0x4e, 0xe0, 0x3c, 0xe6, 0xcd,
  0xbf, 0x2a, 0x19, 0x0b, 0x2e, 0xeb, 0x32, 0xd7, 0x0b, 0xb9, 0x53, 0x4f, 0xb0, 0xfe, 0xf9, 0xe6,
  0xbc, 0x1c, 0xc3, 0x2a, 0x55, 0x2b, 0x05, 0xda, 0x33, 0x23, 0xa5, 0x8e, 0x9e, 0x34, 0xfb, 0xbc,
  0x55, 0xae, 0x51, 0xd5, 0x26, 0xf3, 0xe4, 0x0a, 0x29, 0x3a, 0x88, 0x38, 0x91, 0x27, 0xee, 0x3e,
  0xd0, 0xb7, 0xfe, 0xd7, 0x09, 0x2f, 0xea, 0x8e, 0x36, 0xc9, 0x3c, 0xe6, 0xd7, 0xae, 0xff, 0x85,
  0x35, 0x9c, 0x43, 0x77, 0xd1, 0x07, 0x52, 0x92, 0x28, 0xd0, 0xc1, 0x0e, 0x12, 0xba, 0x51, 0xd3,
  0xf3, 0xab, 0x60, 0x11, 0x59, 0x20, 0xd1, 0xa3, 0x8e, 0x3e, 0xfc, 0x57, 0xe7, 0xfe, 0x28, 0x4e,
  0x4b, 0xda, 0xf6, 0x75, 0xac, 0xc5, 0x49, 0xe4, 0xa3, 0x52, 0xb3, 0xb0, 0xdb, 0x61, 0x53, 0x98,
  0x5f, 0x0c, 0xaa, 0xba, 0x0d, 0xa4, 0xb8, 0xbb, 0xe7, 0x3b, 0x5a, 0x28, 0x28, 0xb5, 0x37, 0xbf,
  0xae, 0x8d, 0xf0, 0x00, 0xf4, 0xf4, 0xac, 0x0a, 0xd9, 0xac, 0x54, 0x42, 0x81, 0x05, 0xf9, 0xe6,
  0x65, 0xf3, 0xd9, 0x6c, 0x49, 0xc8, 0x6b, 0x45, 0x1c, 0xd3, 0x25, 0x6a, 0x92, 0xf3, 0x1b, 0x03,
  0x13, 0xd0, 0xcc, 0x34, 0x1a, 0x51, 0xaa, 0x4b, 0x3d, 0x40, 0xdf, 0x52, 0x38, 0xf2, 0x6f, 0xe4,
  0x25, 0xaf, 0xe1, 0xd4, 0x3a, 0x1c, 0x55, 0x9b, 0x21, 0x05, 0x47, 0xbe, 0x9c, 0xd7, 0xb4, 0x10,
  0xfa, 0x55, 0xb7, 0x08, 0x41, 0x58, 0xe9, 0xf7, 0xac, 0xf4, 0xde, 0x5c, 0xa0, 0xe6, 0xf7, 0x43,
  0x45, 0x29, 0xb1, 0xd9, 0xfe, 0x0c, 0x20, 0x0c, 0x41, 0xa4, 0xe9, 0x14, 0xc7, 0x47, 0xf6, 0x18,
  0xec, 0x5c, 0x60, 0xda, 0x8f, 0x47, 0x4c, 0xcb, 0x2e, 0x4e, 0x09, 0x63, 0xa8, 0x62, 0xa4, 0x03,
  0xd8, 0xa7, 0xd1, 0x0b, 0x35, 0x44, 0x04, 0xcc, 0xe9, 0x24, 0xe4, 0xfe, 0x58, 0x6f, 0xd1, 0x5f,
  0x13, 0xd0, 0x15, 0x4f, 0x18, 0x4f, 0x29, 0x8c, 0x9b, 0xb9, 0xdf, 0xcd, 0xf8, 0xf9, 0xd0, 0x28,
  0xfc, 0xb2, 0x3e, 0xa0, 0x89, 0x68, 0x36, 0x42, 0x0c, 0x23, 0x1b, 0xc7, 0x19, 0xe2, 0x2a, 0x18,
  0x92, 0x32, 0xee, 0x2f, 0xa3, 0xea, 0x47, 0x9a, 0x2a, 0x81, 0xde, 0xaa, 0xd4, 0xaa, 0x2d, 0x56,
  0x3e, 0xaa, 0xe9, 0x17, 0x1f, 0x11, 0x0d, 0xfc, 0xe4, 0x15, 0x0c, 0x47, 0x2d, 0x3e, 0xf5, 0x98,
  0xf0, 0xac, 0xc2, 0x0a, 0x2f, 0xad, 0xd1, 0xa8, 0xf3, 0xf2, 0x97, 0xb9, 0xba, 0xe6, 0xc0, 0x10,
  0x11, 0x47, 0x13, 0xdb, 0xf1, 0x42, 0x3e, 0x81, 0x32, 0x26, 0xf7, 0x42, 0xd7, 0xf1, 0x3e, 0x9a,
  0xde, 0xb4, 0x39, 0x51, 0x1c, 0x1c, 0x33, 0xd1, 0xbe, 0xaa, 0xba, 0x37, 0xd3, 0xc2, 0x06, 0xf1,
  0xfd, 0x35, 0xff, 0xd5, 0x62, 0xdf, 0x29, 0x91, 0x9e, 0xdf, 0xed, 0x11, 0xb5, 0x2c, 0xb1, 0xfa,
  0x45, 0x9c, 0xf2, 0x10, 0xc9, 0x15, 0xd4, 0xe0, 0xab, 0xcc, 0x03, 0x22, 0xa1, 0x36, 0x55, 0xb5,
  0xe5, 0x02, 0x44, 0xdf, 0xba, 0x28, 0x93, 0x3a, 0xc3, 0xf7, 0xe0, 0xc4, 0xce, 0xdb, 0x0a, 0xe4,
  0xae, 0xc6, 0x3e, 0x10, 0x11, 0xca, 0xa8, 0x1a, 0x1e, 0xd0, 0xce, 0x35, 0x0d, 0x5a, 0x2c, 0xff,
  0x2a, 0xbf, 0x1d, 0x31, 0xdf, 0x19, 0xba, 0xf0, 0xde, 0xa6, 0x3c, 0x3a, 0x26, 0x40, 0x43, 0x9d,
  0xd2, 0x97, 0xea, 0x69, 0xe2, 0x2b, 0x37, 0x81, 0x4c, 0xd0, 0x3a, 0x6a, 0xc0, 0xb7, 0xf2, 0x0a,
  0x43, 0x05, 0xda, 0xea, 0xe8, 0x00, 0xd8, 0xc5, 0x50, 0xf4, 0xba, 0x67, 0x36, 0xd6, 0xca, 0xfe,
  0x22, 0x20, 0xa3, 0x9f, 0x12, 0xb7, 0xe0, 0xea, 0x04, 0xa3, 0x1c, 0xbb, 0xd4, 0xab, 0xdf, 0xbf,
  0x23, 0xba, 0x0f, 0xdd, 0xae, 0xcf, 0xc3, 0x27, 0x21, 0xdc, 0x28, 0x55, 0x17, 0xb9, 0x97, 0xfb,
  0x3b, 0xf9, 0xf1, 0xde, 0x43, 0xad, 0x26, 0xbf, 0xed, 0xdd, 0x0b, 0xad, 0xca, 0x02, 0xfb, 0x11,
  0x46, 0x24, 0x01, 0xb6, 0xed, 0xcf, 0x9c, 0x19, 0xe7, 0x4e, 0xf1, 0x42, 0xc5, 0x28, 0x8a, 0xc1,
  0x30, 0x4b, 0xb6, 0x0c, 0x0f, 0x2d, 0xe8, 0xa7, 0xf6, 0xf4, 0xec, 0xf5, 0x16, 0x0d, 0xc6, 0x27,
  0x16, 0x15, 0xab, 0x0d, 0xbb, 0xbf, 0xca, 0x01, 0x1e, 0x03, 0xa8, 0x33, 0x0c, 0xbe, 0xe0, 0xee,
  0x09, 0xe1, 0xf3, 0x00, 0x52, 0xa9, 0x9a, 0x51, 0x20, 0xe3, 0xf2, 0x10, 0xe2, 0xdf, 0xbc, 0x21,
  0xe8, 0x18, 0x3b, 0xe6, 0xc0, 0x25, 0x37, 0x3a, 0xab, 0x03, 0xd5, 0xd6, 0x3c, 0x53, 0x9f, 0x50,
  0x70, 0x50, 0x96, 0x60, 0xc5, 0x26, 0x46, 0x61, 0x8e, 0xb4, 0x2e, 0x89, 0x27, 0xd7, 0x46, 0xde,
  0x1d, 0xd6, 0x0b, 0xe7, 0x02, 0xdf, 0x30, 0xce, 0xce, 0x42, 0x1f, 0x23, 0x32, 0xad, 0xc1, 0x60,
  0x7f, 0x15, 0xa1, 0x16, 0xb4, 0x3b, 0xcd, 0xbf, 0xdc, 0xdb, 0xf3, 0xc4, 0x0d, 0x48, 0xe5, 0x3d,
  0x57, 0xf5, 0x20, 0x56, 0x0d, 0x00, 0x2e, 0xaa, 0xdc, 0xfc, 0x3a, 0x44, 0x2c, 0x62, 0x3d, 0x71,
  0x72, 0x20, 0xa9, 0x0e, 0xd0, 0xf3, 0x01, 0xaa, 0x38, 0x09, 0x2f, 0xb5, 0xae, 0xa7, 0x58, 0x08,
  0x0f, 0x71, 0xf3, 0x00, 0xc8, 0x30, 0x71, 0x12, 0x4e, 0x4e, 0xc5, 0xfb, 0xdb, 0xba, 0x41, 0xd6,
  0x48, 0x87, 0x18, 0x84, 0x24, 0xcf, 0xb4, 0xc4, 0xc8, 0xf2, 0xcd, 0x14, 0x57, 0xe1, 0x47, 0x4c,
  0x69, 0x1b, 0x04, 0x4f, 0x1e, 0xc4, 0x75, 0x30, 0x25, 0x9e, 0x11, 0xbd, 0x0e, 0x2d, 0xdf, 0x1a,
  0xdd, 0x34, 0xd0, 0x0f, 0xf5, 0xed, 0xca, 0x28, 0x81, 0x22, 0xbe, 0xbc, 0xc9, 0x0c, 0x36, 0x20,
  0xcd, 0x42, 0x21, 0xcb, 0x19, 0x2d, 0x17, 0x15, 0x84, 0xf8, 0x32, 0x2f, 0x0b, 0x2a, 0x2e, 0xf8,
  0xf1, 0x49, 0x3f, 0x22, 0x1d, 0x34, 0x6d, 0x4c, 0x9d, 0xeb, 0xed, 0x41, 0x8a, 0xb9, 0xbb, 0xc7,
  0xac, 0xe1, 0x14, 0x50, 0xbc, 0xbe, 0x46, 0x22, 0xae, 0x0a, 0xa3, 0xd0, 0x98, 0x2c, 0xe9, 0xda,
  0xbd, 0x27, 0xbd, 0x63, 0x42, 0x18, 0x4b, 0x39, 0x18, 0xc8, 0x21, 0x4d, 0xb3, 0x55, 0xca, 0x10,
  0xef, 0xc6, 0xe0, 0x51, 0xbe, 0x28, 0x12, 0xbf, 0xe8, 0xe5, 0x4e, 0xb2, 0x87, 0x28, 0x11, 0xa5,
  0x26, 0xd0, 0xef, 0xff, 0x30, 0xcc, 0x5f, 0xab, 0x93, 0x98, 0x19, 0xee, 0x9e, 0xc3, 0x50, 0x04,
  0x1c, 0xc0, 0x29, 0x1e, 0x9f, 0x05, 0xd6, 0xdb, 0xb2, 0xea, 0xb6, 0xd3, 0xb2, 0x8e, 0xfb, 0x10,
  0xac, 0xe9, 0x9e, 0x00, 0xee, 0x3e, 0x39, 0x2c, 0xcb, 0xb6, 0xf9, 0x11, 0x8d, 0x2b, 0xc6, 0xc6,
  0x0e, 0x33, 0xf0, 0xe6, 0x11, 0xbb, 0x1e, 0x42, 0x04, 0xd8, 0x07, 0x57, 0x17, 0xf2, 0xc1, 0x35,
  0x4f, 0xd0, 0xc7, 0xdc, 0xce, 0x25, 0x2c, 0x12, 0xc7, 0x34, 0x22, 0x03, 0x16, 0xd4, 0xbf, 0x9b,
  0x3a, 0xd2, 0xc7, 0x22, 0xa4, 0x05, 0xe8, 0xd1, 0xc4, 0x9c, 0x49, 0xc0, 0x4a, 0x9c, 0x11, 0x09,
  0xc2, 0xca, 0xa6, 0x2e, 0x42, 0x1f, 0x24, 0xdb, 0x36, 0x0b, 0x0b, 0x4d, 0x0e, 0xe9, 0xcc, 0xf1,
  0xdb, 0xc8, 0xe8, 0x81, 0x33, 0xe8, 0xe1, 0xe8, 0x57, 0xb2, 0x35, 0xeb, 0x48, 0xc9, 0xc7, 0x15,
  0x19, 0xef, 0xaf, 0xa7, 0x2b, 0xf4, 0x48, 0xaa, 0x34, 0xb3, 0xad, 0x41, 0x40, 0xf4, 0x89, 0x5a,
  0xed, 0xbd, 0x15, 0xa1, 0x38, 0x0a, 0xf4, 0x28, 0xca, 0xc7, 0xe0, 0xb7, 0x15, 0xe8, 0xa2, 0x1f,
  0xfa, 0x09, 0xe1, 0x08, 0xb4, 0x25, 0xca, 0xa9, 0x0c, 0xd3, 0xfe, 0x08, 0x07, 0xdf, 0xd1, 0x18,
  0xdf, 0x39, 0xcb, 0xb4, 0x03, 0x90, 0xcc, 0x39, 0xda, 0x0a, 0x45, 0x40, 0x45, 0xec, 0xa4, 0xf8,
  0xec, 0x3c, 0x04, 0x50, 0xe2, 0x24, 0x0a, 0x1e, 0x00, 0xeb, 0x3d, 0x5b, 0xc9, 0x1d, 0x3b, 0x09,
  0x06, 0x0f, 0xcb, 0x02, 0x3b, 0x33, 0x35, 0x11, 0x17, 0x2e, 0x24, 0xe0, 0xd7, 0x04, 0xb4, 0xe0,
  0x31, 0xfd, 0xd9, 0xca, 0x11, 0xde, 0xd6, 0xca, 0xe0, 0x36, 0x48, 0xd8, 0xa4, 0xa1, 0x14, 0x9d,
  0xbd, 0xcf, 0xfb, 0xd2, 0x2b, 0xcf, 0x57, 0x9f, 0xc1, 0x0f, 0xed, 0xc8, 0xc3, 0xdd, 0x01, 0xe2,
  0xed, 0xe7, 0xe2, 0xb6, 0xb8, 0x1a, 0xf4, 0x81, 0x9a, 0xef, 0xe2, 0xc0, 0x17, 0xe2, 0x24, 0x16,
  0x19, 0x45, 0x19, 0x4e, 0x37, 0x1a, 0xc5, 0xd8, 0xac, 0x23, 0x3f, 0x57, 0x81, 0xd4, 0xdb, 0x3d,
  0x32, 0x2b, 0xc2, 0x54, 0xad, 0x3e, 0x12, 0x31, 0xa5, 0x2e, 0x44, 0x3b, 0xab, 0x2a, 0x0a, 0x29,
  0xd3, 0xad, 0xc5, 0x14, 0xe1, 0xba, 0xb2, 0x0b, 0x85, 0x08, 0xaf, 0x48, 0xca, 0xeb, 0x48, 0xe3,
  0xd4, 0xd4, 0x45, 0x4a, 0x37, 0xeb, 0xba, 0xa0, 0xc4, 0xc4, 0xcc, 0x3d, 0xe6, 0x02, 0x2a, 0x00,
  0x2d, 0x9c, 0xa7, 0xfc, 0xcc, 0x18, 0xa8, 0x35, 0xec, 0xb0, 0x27, 0x0c, 0x2d, 0xf4, 0x1b, 0x4d,
  0x2e, 0xf5, 0x44, 0xb8, 0x76, 0xbf, 0x14, 0x2c, 0xec, 0x45, 0xae, 0x1c, 0xce, 0xf4, 0xca, 0x30,
  0xe9, 0x21, 0x14, 0xf8, 0x46, 0xc4, 0x10, 0x3f, 0x62, 0x48, 0x51, 0xfa, 0x30, 0x0a, 0xee, 0x05,
  0x07, 0x31, 0x22, 0xe9, 0x33, 0xd3, 0x4d, 0x0a, 0x5d, 0x22, 0xcf, 0x3c, 0x0d, 0xca, 0x08, 0x1e,
  0xf8, 0xde, 0x17, 0xb2, 0x70, 0xc1, 0x12, 0xea, 0xd8, 0x25, 0x42, 0xca, 0x56, 0xa8, 0xe0, 0x25,
  0xbd, 0x42, 0x12, 0xb1, 0x2a, 0xac, 0x1c, 0xe5, 0x25, 0x15, 0x54, 0x49, 0xf9, 0xa3, 0xa9, 0x00,
  0xbf, 0x02, 0x52, 0xee, 0x42, 0xab, 0xb6, 0x16, 0x26, 0xc6, 0xb8, 0xf5, 0x34, 0x25, 0xf1, 0xe9,
  0x2f, 0x3c, 0x52, 0x86, 0xf6, 0x31, 0xc5, 0x42, 0x3f, 0xe1, 0x28, 0x16, 0xd9, 0x46, 0x21, 0x17,
  0xfa, 0xe3, 0xb1, 0x18, 0xa5, 0x08, 0x05, 0x28, 0xce, 0xae, 0xad, 0xa8, 0xca, 0x4e, 0x42, 0xb2,
  0xdf, 0x4a, 0xf8, 0x81, 0xe6, 0xe2, 0xff, 0xff, 0x04, 0x00, 0x00, 0x00, 0x60, 0x00, 0x00, 0x00,
  0x55, 0x2f, 0x00, 0x00, 0xbd, 0x56, 0x00, 0x00, 0xe7, 0x0e, 0x00, 0x00, 0x25, 0x30, 0x00, 0x00,
  0xa2, 0x28, 0x00, 0x00, 0x16, 0x1a, 0x00, 0x00, 0x6d, 0x24, 0x00, 0x00, 0xab, 0x3a, 0x00, 0x00,
  0xf3, 0x17, 0x00, 0x00, 0x88, 0xeb, 0xff, 0xff, 0x61, 0x21, 0x00, 0x00, 0x06, 0xd0, 0xff, 0xff,
  0xde, 0x32, 0x00, 0x00, 0xd7, 0x4c, 0x00, 0x00, 0x2b, 0x54, 0x00, 0x00, 0xd4, 0x17, 0x00, 0x00,
  0xe2, 0xf0, 0xff, 0xff, 0xba, 0x36, 0x00, 0x00, 0xa9, 0x35, 0x00, 0x00, 0xbf, 0xd7, 0xff, 0xff,
  0x99, 0x33, 0x00, 0x00, 0xb9, 0x2a, 0x00, 0x00, 0x32, 0x2d, 0x00, 0x00, 0x1b, 0xf3, 0xff, 0xff,
  0x52, 0xe3, 0xff, 0xff, 0x04, 0x00, 0x00, 0x00, 0x00, 0x1b, 0x00, 0x00, 0xc1, 0x1a, 0x0d, 0x20,
  0xb7, 0xe5, 0xe9, 0x18, 0x2b, 0xc7, 0x3e, 0xb5, 0xf6, 0x24, 0xbe, 0xfc, 0x0f, 0xfd, 0xeb, 0xdd,
  0x16, 0x0b, 0xd5, 0xf7, 0xb6, 0x1d, 0xe3, 0xb7, 0xd0, 0xd0, 0x11, 0x18, 0xeb, 0x16, 0xfc, 0xe4,
  0x30, 0x1a, 0xe0, 0x9b, 0xe8, 0x0a, 0x12, 0x0f, 0x49, 0xeb, 0x0d, 0xb0, 0xfe, 0xcf, 0xfe, 0xab,
  0xc1, 0xe5, 0x26, 0xc8, 0xd9, 0x13, 0x04, 0xb9, 0xdb, 0xdc, 0x30, 0xa9, 0xc5, 0x2e, 0xe9, 0xf8,
  0x40, 0x4d, 0x26, 0xcb, 0xbc, 0xd6, 0xc6, 0xe0, 0xe5, 0xd5, 0xd0, 0x35, 0x00, 0x08, 0xdf, 0xe1,
  0xc7, 0x09, 0xf0, 0x13, 0xc1, 0xc1, 0x1c, 0xba, 0x12, 0x36, 0x04, 0x0c, 0x17, 0xd0, 0x07, 0x12,
  0xca, 0xfb, 0xa8, 0xe4, 0x07, 0xc1, 0xe6, 0x22, 0x32, 0xd8, 0x2a, 0xbd, 0xf4, 0xdd, 0x57, 0xfc,
  0xc1, 0x64, 0xc0, 0x18, 0x1d, 0xfe, 0x17, 0x11, 0xca, 0x13, 0xfe, 0xcb, 0xf4, 0x1d, 0x17, 0x2a,
  0xfa, 0x2f, 0xc2, 0xc8, 0xf3, 0xe2, 0xf4, 0xce, 0xe0, 0x57, 0xb6, 0xab, 0xcb, 0xec, 0x31, 0x02,
  0x10, 0xa6, 0xd5, 0xe7, 0x18, 0xc9, 0x36, 0x01, 0xde, 0x25, 0x9d, 0x1c, 0x03, 0xe2, 0x4e, 0xc7,
  0xaf, 0x15, 0xe4, 0xff, 0x33, 0xd4, 0x21, 0xfb, 0x2f, 0xff, 0xe7, 0xec, 0x1b, 0xf4, 0x3d, 0xee,
  0xdc, 0xc1, 0xc3, 0xe7, 0xeb, 0xa5, 0x67, 0xf6, 0x2b, 0xe4, 0xe5, 0xbf, 0x37, 0xec, 0x33, 0x28,
  0x0a, 0x27, 0xe1, 0xf8, 0x46, 0xf8, 0x0b, 0x12, 0xf4, 0xd9, 0x19, 0xf5, 0x27, 0x1a, 0x7f, 0xbe,
  0xdc, 0x56, 0x14, 0xc0, 0xdd, 0x6a, 0x17, 0x35, 0x45, 0x46, 0xd8, 0xdf, 0xd7, 0x22, 0x33, 0xdd,
  0xff, 0x0e, 0x69, 0xe3, 0xd2, 0xe7, 0x17, 0x09, 0x5f, 0xc7, 0xf1, 0xe0, 0x03, 0x5e, 0x3e, 0x5e,
  0xd8, 0x41, 0xbe, 0x02, 0xb6, 0x54, 0xd5, 0x08, 0x15, 0xd9, 0x00, 0x1d, 0x26, 0x4c, 0xda, 0xea,
  0xb8, 0x1a, 0x5a, 0x3d, 0xea, 0x50, 0x2e, 0x36, 0x23, 0xf1, 0x2d, 0x64, 0x9c, 0xd0, 0x4a, 0x12,
  0x50, 0x32, 0x38, 0x19, 0x3b, 0xe0, 0xb5, 0xac, 0xaf, 0xc5, 0x49, 0x50, 0xef, 0x22, 0x27, 0x08,
  0x44, 0xe8, 0x2e, 0x10, 0x16, 0x0b, 0x48, 0x3a, 0xe3, 0x4e, 0x40, 0x2c, 0x33, 0xd1, 0x30, 0x20,
  0x02, 0xe7, 0x1a, 0x5c, 0x59, 0x3d, 0xf4, 0x3a, 0x4f, 0x17, 0xd9, 0xd2, 0xbe, 0x3e, 0xb2, 0xd7,
  0x21, 0x2d, 0x0d, 0x46, 0xc7, 0xe3, 0x0f, 0x05, 0xf9, 0xb8, 0x37, 0x0b, 0xea, 0x08, 0x1a, 0x1e,
  0x14, 0xf7, 0xd1, 0xde, 0x13, 0x06, 0x02, 0x3a, 0x25, 0x13, 0x69, 0x3b, 0xe6, 0x44, 0xc6, 0xb1,
  0x16, 0xc4, 0xe2, 0xea, 0x35, 0x4a, 0x1f, 0x3b, 0x3c, 0xdc, 0x18, 0x32, 0xd7, 0x27, 0xd5, 0x4e,
  0x59, 0x4d, 0x19, 0x1e, 0xac, 0xec, 0x00, 0xa4, 0xdb, 0xda, 0x1b, 0x10, 0x14, 0x0c, 0xbf, 0x15,
  0x23, 0x35, 0xe1, 0x7f, 0xca, 0xc1, 0xc5, 0xe9, 0x06, 0x61, 0x00, 0x5c, 0x11, 0x7b, 0xcf, 0xf9,
  0xd4, 0xde, 0x24, 0x05, 0xe0, 0x2c, 0x12, 0x29, 0xf2, 0xf8, 0xee, 0xeb, 0xe0, 0x2b, 0xd5, 0x1f,
  0xfe, 0x49, 0xdc, 0xdd, 0x31, 0x67, 0x9e, 0x32, 0x5f, 0x2e, 0x50, 0xf7, 0xec, 0x21, 0xd1, 0xdb,
  0x7b, 0x3b, 0x30, 0x3e, 0xdd, 0x33, 0xf9, 0x02, 0xed, 0x9d, 0xc4, 0x0a, 0x3f, 0x14, 0x97, 0x19,
  0xac, 0x13, 0x3b, 0xd4, 0x6e, 0xb7, 0x2c, 0x69, 0xe8, 0x5c, 0x5b, 0x4b, 0x21, 0x2d, 0xed, 0x41,
  0x3e, 0xc8, 0x61, 0xfd, 0xf2, 0x24, 0x28, 0x50, 0xbf, 0xee, 0x33, 0xcb, 0x35, 0x3c, 0x36, 0x37,
  0xe0, 0xf8, 0x60, 0x65, 0x13, 0xf2, 0x9d, 0x62, 0x50, 0xb4, 0xd0, 0xe4, 0x2d, 0xe4, 0xa4, 0x15,
  0x02, 0x3b, 0x45, 0x63, 0x67, 0x0e, 0xce, 0xce, 0xc4, 0xf5, 0x3a, 0x1c, 0xe7, 0x4d, 0xf8, 0x56,
  0xb5, 0xa3, 0x1b, 0xdc, 0x33, 0x23, 0xad, 0xff, 0xd9, 0xb7, 0xbf, 0xcf, 0x2d, 0xd0, 0xbe, 0x7c,
  0x6b, 0xc4, 0x54, 0xe0, 0x1f, 0x2c, 0xa2, 0xbb, 0x19, 0xbb, 0x07, 0x36, 0x30, 0x43, 0x02, 0xbb,
  0xd9, 0xf3, 0xb5, 0xcf, 0xda, 0x3e, 0x3e, 0x7f, 0x27, 0x0a, 0xb8, 0xe7, 0x3e, 0x05, 0xc4, 0xf4,
  0xd9, 0x08, 0x2f, 0x18, 0x07, 0x18, 0x31, 0x42, 0x16, 0x49, 0xba, 0x6d, 0x1c, 0xc7, 0xe2, 0x1e,
  0xe0, 0xc2, 0x34, 0xcd, 0xda, 0x40, 0xad, 0x0c, 0xcf, 0x44, 0x47, 0x07, 0x3a, 0x49, 0xd7, 0x20,
  0xdf, 0x9f, 0x2c, 0xdc, 0x35, 0xe6, 0xc2, 0x40, 0x59, 0x12, 0x4c, 0xe4, 0x45, 0xb9, 0xb7, 0x42,
  0xd0, 0x42, 0x17, 0x1b, 0xb1, 0x52, 0xf5, 0x66, 0x55, 0xce, 0xda, 0xd6, 0xc6, 0xde, 0x51, 0xe4,
  0xe9, 0x64, 0xe4, 0x4b, 0x3b, 0xdd, 0x1c, 0xc7, 0x36, 0xd7, 0x21, 0xeb, 0xbe, 0xe3, 0x2d, 0x14,
  0xcf, 0x08, 0x33, 0x26, 0x2c, 0x10, 0xc0, 0x4c, 0xc8, 0x47, 0x22, 0x19, 0xef, 0x36, 0xe4, 0xd5,
  0xf2, 0x99, 0x21, 0xd1, 0xb3, 0x54, 0xe2, 0x41, 0xef, 0x0b, 0x47, 0x00, 0x23, 0x25, 0x31, 0x40,
  0x46, 0x0f, 0x28, 0x06, 0xd1, 0x24, 0xf0, 0x0e, 0xc8, 0xe3, 0xc9, 0x70, 0xa2, 0x6d, 0xf2, 0xe1,
  0xc4, 0xba, 0xec, 0x2f, 0x22, 0x52, 0x4d, 0x2e, 0x1e, 0x39, 0x00, 0x0c, 0xfb, 0x26, 0x94, 0xd3,
  0xca, 0x31, 0x1b, 0xc6, 0x45, 0x59, 0xdb, 0xcc, 0xf0, 0x2d, 0xc0, 0x09, 0x49, 0xb7, 0xcb, 0xe4,
  0x70, 0xdb, 0xc7, 0x56, 0xd4, 0x5e, 0xe5, 0xf2, 0x06, 0x9c, 0x3f, 0xdd, 0xdf, 0x14, 0xe8, 0x3a,
  0xf6, 0x00, 0x1a, 0x03, 0x5c, 0xbc, 0xc7, 0x2c, 0x50, 0xfd, 0x60, 0x35, 0x54, 0x49, 0x9e, 0x59,
  0xca, 0xfb, 0xe9, 0x68, 0xd4, 0xf6, 0xce, 0x2a, 0x14, 0xa2, 0xba, 0x72, 0x40, 0x00, 0x05, 0x1d,
  0x21, 0xcb, 0x40, 0xfc, 0xdc, 0xd7, 0xe4, 0x21, 0x95, 0x55, 0xfb, 0xd4, 0x06, 0x67, 0x32, 0x1d,
  0x22, 0xe6, 0xe9, 0xe7, 0xfb, 0x33, 0x09, 0xdd, 0x2d, 0xbd, 0x4b, 0x7c, 0x3b, 0xd2, 0x1d, 0x08,
  0xea, 0x1b, 0xe2, 0xef, 0x37, 0xe1, 0x0d, 0xb0, 0xdd, 0xdc, 0xe0, 0xfb, 0xcc, 0x14, 0xc0, 0xcf,
  0xfe, 0xdc, 0x1a, 0x68, 0xd6, 0xab, 0x14, 0xaf, 0xde, 0x27, 0x7f, 0x66, 0xfb, 0x44, 0xfe, 0x54,
  0xba, 0xc4, 0x14, 0x65, 0x18, 0x38, 0x6a, 0x7e, 0xdf, 0xef, 0x52, 0x0e, 0x40, 0x12, 0x10, 0xf0,
  0x33, 0xff, 0xe2, 0x20, 0x2d, 0x63, 0xfb, 0x52, 0x48, 0xdc, 0xb0, 0xb7, 0xf3, 0x53, 0x3c, 0x9c,
  0x9c, 0xce, 0xb9, 0x1e, 0x04, 0x1b, 0xc8, 0x00, 0xc3, 0x4d, 0x21, 0x02, 0xf8, 0xd5, 0x71, 0x26,
  0xfe, 0xd2, 0xe9, 0x04, 0xfe, 0xe4, 0xd0, 0x31, 0xbd, 0x24, 0x15, 0xc7, 0xae, 0xc3, 0xd8, 0x0b,
  0x2a, 0x10, 0xe4, 0x10, 0x42, 0xb0, 0x39, 0xfe, 0x1c, 0xeb, 0x1d, 0xb1, 0xbf, 0x4d, 0x25, 0xe8,
  0x14, 0x3c, 0x02, 0x05, 0xad, 0x28, 0xdf, 0x12, 0x32, 0xc2, 0x3c, 0xba, 0xb5, 0xf2, 0xe5, 0xdb,
  0x3f, 0xe3, 0x1d, 0x18, 0xd7, 0x15, 0xed, 0xc1, 0xc9, 0xa2, 0xd9, 0xd1, 0x33, 0xf8, 0xe9, 0xae,
  0xb8, 0xcf, 0xac, 0x35, 0x0f, 0x06, 0x5a, 0x19, 0xf2, 0x31, 0x24, 0x14, 0xc4, 0x01, 0xba, 0x0c,
  0x03, 0x33, 0xa2, 0xa1, 0x2d, 0x05, 0xec, 0xd4, 0x2a, 0x35, 0xf9, 0xf2, 0x33, 0x2c, 0x21, 0x05,
  0xd8, 0x52, 0xc7, 0xac, 0xe3, 0xd1, 0xbc, 0x09, 0xba, 0xd0, 0xb0, 0x42, 0x0e, 0xea, 0x47, 0xb5,
  0xf3, 0xc6, 0xa0, 0xd9, 0x0e, 0x1d, 0xf0, 0xc3, 0xde, 0xe6, 0x30, 0xcc, 0x07, 0xbf, 0xf4, 0xdb,
  0x2f, 0xdf, 0xda, 0xf0, 0x2d, 0xac, 0xf3, 0xab, 0xdd, 0x42, 0x15, 0xbe, 0x03, 0xe1, 0x7f, 0xe5,
  0xde, 0x02, 0xc4, 0x2f, 0xdf, 0x2e, 0x05, 0xec, 0xae, 0xa5, 0x04, 0xd2, 0xc5, 0xe4, 0xf8, 0xb0,
  0x3d, 0xd7, 0xc4, 0xc4, 0x1d, 0xf3, 0x4c, 0x4d, 0xc3, 0x22, 0xa1, 0x27, 0x2d, 0xb0, 0x0c, 0x15,
  0x08, 0xc2, 0x35, 0x26, 0x12, 0x1f, 0xef, 0x1a, 0xf4, 0x15, 0xba, 0xc4, 0xed, 0xb4, 0x5d, 0xd0,
  0x36, 0x51, 0x0d, 0xc6, 0x54, 0x2b, 0xfe, 0x48, 0xf1, 0x06, 0xf6, 0x3a, 0x10, 0xff, 0xfb, 0x38,
  0xea, 0x9c, 0x19, 0xf3, 0xd6, 0x11, 0xb1, 0xda, 0x02, 0xb9, 0xd0, 0x23, 0xbb, 0x00, 0xb9, 0xde,
  0x6d, 0x35, 0x40, 0x57, 0xcb, 0xac, 0xd4, 0xbb, 0x1e, 0xab, 0x50, 0x1f, 0xff, 0x48, 0x1f, 0x0f,
  0x08, 0x32, 0x2f, 0x4d, 0x2d, 0x48, 0xcd, 0x59, 0x69, 0xaf, 0xf2, 0x06, 0x03, 0x0d, 0x02, 0x35,
  0x4a, 0xdf, 0xfe, 0x12, 0x46, 0x32, 0x0e, 0x1b, 0xa8, 0xb6, 0xe6, 0x3e, 0xf6, 0x12, 0xb2, 0x37,
  0xe1, 0x72, 0xc7, 0xe1, 0xf4, 0x51, 0xe0, 0x2a, 0xef, 0xd0, 0x7f, 0xfb, 0x45, 0xf1, 0xc1, 0x5f,
  0xad, 0x04, 0x32, 0x31, 0xf1, 0x0b, 0x03, 0x69, 0x07, 0x08, 0xcf, 0x11, 0x22, 0xc7, 0xcb, 0x27,
  0xed, 0xe2, 0x38, 0x4f, 0xda, 0x42, 0xd4, 0xeb, 0xae, 0xd8, 0x33, 0x52, 0x0a, 0x63, 0x2e, 0x3a,
  0x11, 0x74, 0x64, 0x0a, 0x3a, 0xff, 0xf2, 0x18, 0xad, 0x4c, 0x28, 0xe8, 0xd9, 0x51, 0xe2, 0x33,
  0xb9, 0xf9, 0xe4, 0xec, 0x46, 0xfc, 0xee, 0xcf, 0x49, 0xc2, 0xdd, 0x1c, 0x0f, 0xd4, 0xde, 0xcf,
  0xff, 0xfe, 0x74, 0xdb, 0xd8, 0x7b, 0x22, 0x32, 0xfa, 0xf2, 0x0e, 0x2b, 0xd5, 0x29, 0x32, 0x32,
  0x1b, 0x2c, 0xe8, 0x19, 0xfe, 0xf3, 0xd3, 0xd9, 0x3e, 0x71, 0x5e, 0x43, 0xbb, 0x14, 0xe1, 0x54,
  0xfc, 0xfe, 0xbb, 0x6e, 0xe2, 0x7d, 0xf4, 0x56, 0xd8, 0xdf, 0xc6, 0x67, 0x2d, 0x27, 0x42, 0xfd,
  0x2f, 0xdb, 0x2a, 0x27, 0xd6, 0x1d, 0x12, 0x1e, 0xe8, 0xc5, 0x2b, 0x04, 0xe0, 0xfd, 0xae, 0xc0,
  0xe9, 0x2f, 0x08, 0x1f, 0xf4, 0xc6, 0x24, 0x14, 0xa2, 0xe1, 0xc1, 0xd7, 0xef, 0xb6, 0x3d, 0xcf,
  0xbf, 0x12, 0x17, 0xbb, 0xb0, 0xee, 0x0e, 0xcf, 0xcf, 0x1e, 0x9d, 0xbc, 0x43, 0x10, 0xe7, 0x0a,
  0xcd, 0xf1, 0xea, 0x0d, 0x39, 0x0b, 0x4d, 0x0d, 0x5f, 0xf6, 0xf4, 0x14, 0xbc, 0x40, 0xf5, 0xac,
  0x22, 0xc9, 0xe8, 0xbf, 0xff, 0xc0, 0x22, 0x00, 0xb6, 0x10, 0xa1, 0x06, 0x4b, 0x1e, 0x2a, 0x0f,
  0xf9, 0x44, 0xfa, 0x06, 0xa5, 0xd8, 0xf0, 0xb7, 0xfd, 0xad, 0xc1, 0x2a, 0xd8, 0xd4, 0x1c, 0x8c,
  0xcd, 0x26, 0xdf, 0x0b, 0xd9, 0xf1, 0xf7, 0xe9, 0xd0, 0xdb, 0xf3, 0x1f, 0x1c, 0xcb, 0x24, 0xf7,
  0xb6, 0x02, 0xdf, 0xc6, 0x0f, 0xd2, 0x31, 0x1b, 0x01, 0x0f, 0xff, 0xab, 0xb1, 0xce, 0x48, 0xaa,
  0x2c, 0x5d, 0x1e, 0xb1, 0xf1, 0x20, 0xca, 0x06, 0xc6, 0x1c, 0x50, 0xcf, 0xca, 0x20, 0xb9, 0x1b,
  0xc3, 0xc6, 0x30, 0xa2, 0xf3, 0xd8, 0x45, 0xfc, 0xb4, 0x3c, 0xd7, 0xb7, 0x41, 0x2e, 0xc5, 0xf3,
  0xeb, 0xab, 0x40, 0xa3, 0xf2, 0xfd, 0x06, 0xde, 0x01, 0x17, 0xd5, 0xc2, 0xc4, 0xa8, 0x1b, 0x15,
  0xd5, 0x5e, 0x2d, 0xcb, 0xe0, 0x2f, 0x3c, 0xe1, 0xe8, 0xd6, 0xaa, 0xc3, 0x01, 0xc7, 0xce, 0x22,
  0x14, 0x41, 0xd2, 0x22, 0x41, 0xc3, 0x52, 0xfb, 0xb3, 0xea, 0xa1, 0xd9, 0xef, 0x0d, 0x09, 0x4f,
  0xdc, 0x1b, 0xd4, 0xb1, 0xde, 0xc1, 0x2e, 0xc0, 0x56, 0xc9, 0xc7, 0xe0, 0x10, 0x93, 0x7f, 0xc3,
  0x14, 0x33, 0x98, 0x51, 0x4a, 0x44, 0x03, 0x74, 0x10, 0xf2, 0x19, 0xc4, 0x27, 0xc7, 0xa0, 0xc5,
  0x2a, 0xb7, 0xfa, 0x03, 0x24, 0x20, 0xc1, 0x03, 0x13, 0x21, 0x61, 0x06, 0x41, 0xdd, 0x47, 0x29,
  0x43, 0x34, 0x2f, 0x1c, 0x1b, 0x34, 0xbc, 0x04, 0xb9, 0x01, 0x00, 0x0a, 0xf9, 0x70, 0xa6, 0xe2,
  0xa4, 0x16, 0x13, 0x16, 0xd1, 0xc1, 0xc8, 0x21, 0x63, 0xad, 0x42, 0x27, 0x50, 0x00, 0x01, 0x2d,
  0x03, 0xd6, 0x15, 0xf7, 0xa9, 0x29, 0xa6, 0xd2, 0xb0, 0x1e, 0x35, 0xfb, 0xc8, 0xd2, 0x50, 0x34,
  0xfc, 0xf9, 0xee, 0x20, 0x0f, 0x0a, 0xa4, 0x0a, 0xc4, 0x07, 0x6c, 0xb8, 0x45, 0x55, 0x29, 0x2a,
  0xff, 0xcc, 0xb3, 0xc6, 0x66, 0x1d, 0xe6, 0x5f, 0x52, 0x4f, 0x49, 0x22, 0x21, 0x51, 0x8d, 0xd8,
  0x03, 0x29, 0x25, 0xfa, 0xc8, 0x28, 0x1d, 0xf1, 0x0f, 0x2f, 0xcd, 0x2e, 0xab, 0x6c, 0xf5, 0x7f,
  0x5d, 0x2e, 0x4d, 0x1d, 0x29, 0xa5, 0x33, 0x01, 0x4a, 0x1d, 0xd7, 0x13, 0x43, 0x69, 0x2f, 0x1a,
  0x3d, 0x30, 0xcd, 0x1c, 0xd0, 0x31, 0xbb, 0xf0, 0x1d, 0xd2, 0x5f, 0x62, 0x50, 0x34, 0x51, 0x04,
  0xeb, 0x20, 0x30, 0x03, 0x46, 0xd2, 0x9c, 0x40, 0xca, 0xbb, 0x69, 0xf0, 0xf6, 0xdb, 0xb7, 0xde,
  0xd6, 0x3a, 0x58, 0xd4, 0x3c, 0xfa, 0xd9, 0x0f, 0x47, 0xc5, 0x71, 0x08, 0xd8, 0xf2, 0x18, 0x5d,
  0x44, 0xe2, 0xf3, 0xd2, 0x28, 0x2e, 0xf5, 0x2b, 0xe1, 0x46, 0x17, 0x2c, 0x31, 0x37, 0xea, 0x37,
  0x36, 0xdf, 0x48, 0x28, 0xcd, 0x67, 0x3c, 0x58, 0x06, 0x02, 0x3f, 0xcc, 0xf9, 0x28, 0x37, 0xc4,
  0x24, 0x11, 0x26, 0xcb, 0x03, 0xeb, 0x18, 0xbd, 0xe2, 0xc9, 0x1c, 0x1d, 0xbc, 0xa6, 0xd9, 0xbe,
  0xcf, 0x55, 0x35, 0xac, 0x1a, 0x2d, 0x07, 0x18, 0x1e, 0x44, 0xc0, 0xeb, 0xee, 0x11, 0xf9, 0xca,
  0x1b, 0xd8, 0x0f, 0xf6, 0x2f, 0xe3, 0x43, 0xcd, 0x01, 0x49, 0xf0, 0x16, 0x12, 0x39, 0x02, 0x19,
  0xee, 0xde, 0xe6, 0xc3, 0xb8, 0x06, 0x48, 0xd6, 0x35, 0xc8, 0xd5, 0x01, 0xf8, 0x23, 0x26, 0xb7,
  0x25, 0x60, 0x0d, 0x16, 0x14, 0x0b, 0xb1, 0xce, 0xc4, 0xe8, 0x26, 0xe7, 0x16, 0xb4, 0x3a, 0xc1,
  0x0a, 0x35, 0x05, 0x1f, 0x47, 0xd8, 0x23, 0xef, 0xb2, 0x60, 0x1b, 0x11, 0xe7, 0xf1, 0x29, 0x05,
  0xd0, 0x34, 0x1c, 0x2d, 0xe1, 0x18, 0xdc, 0xd8, 0xdb, 0xbf, 0xf5, 0xed, 0xd7, 0xfc, 0x19, 0xd2,
  0x15, 0x48, 0xe0, 0xe0, 0x1d, 0xd6, 0x2c, 0x1d, 0xc3, 0x06, 0xa9, 0x3a, 0xbe, 0xb0, 0xb6, 0xb8,
  0x3b, 0xe4, 0xd9, 0xf0, 0xe3, 0xef, 0x38, 0x0f, 0x21, 0x21, 0xe2, 0xe0, 0xd5, 0xed, 0xf7, 0x2e,
  0x0b, 0xe7, 0xfd, 0x1a, 0x4a, 0xf0, 0x54, 0xdf, 0xe0, 0xe3, 0xbd, 0x08, 0x32, 0xa9, 0x26, 0xb6,
  0xc2, 0x2e, 0xee, 0x05, 0x0d, 0xbb, 0xe2, 0xdd, 0xee, 0xb8, 0xb2, 0xcd, 0xf5, 0xc2, 0x53, 0xf5,
  0xde, 0xe9, 0x8f, 0xd2, 0xdc, 0xc4, 0x35, 0x12, 0xe1, 0xf4, 0xa5, 0xc8, 0xef, 0x9e, 0xaa, 0x1e,
  0x17, 0xd5, 0xa6, 0xde, 0xf6, 0x03, 0xc1, 0x2b, 0xbe, 0x3f, 0xc3, 0x09, 0xe6, 0x98, 0x7f, 0xe4,
  0x1f, 0x2b, 0xc5, 0x2c, 0xe0, 0x1c, 0x1b, 0xe0, 0xb1, 0xd4, 0xce, 0xf5, 0xcc, 0xce, 0xef, 0xe1,
  0x0d, 0xbd, 0xba, 0x00, 0x04, 0xb6, 0x28, 0xba, 0x05, 0x30, 0xc6, 0xfe, 0x23, 0xf0, 0xb4, 0xd7,
  0xbb, 0x27, 0xb5, 0x00, 0x30, 0xeb, 0xf5, 0x07, 0xcc, 0x02, 0x00, 0xaa, 0x38, 0x03, 0x0b, 0xd5,
  0xee, 0x4b, 0x14, 0x1c, 0xde, 0x32, 0xdb, 0x0a, 0xb4, 0xc4, 0xee, 0x33, 0xec, 0xde, 0x35, 0xe7,
  0xa5, 0x00, 0xd0, 0xfa, 0x01, 0x0b, 0xed, 0xc1, 0x32, 0x03, 0xd7, 0xca, 0x35, 0xd7, 0x1b, 0xd4,
  0xb5, 0x1d, 0xe1, 0x1e, 0xda, 0x25, 0x34, 0xb3, 0x03, 0x1d, 0xba, 0x21, 0x3a, 0x35, 0x03, 0xe3,
  0xfb, 0x4b, 0x10, 0xaa, 0xc3, 0x0e, 0xb2, 0xe8, 0xb1, 0xad, 0xef, 0x03, 0x24, 0xb6, 0x17, 0x15,
  0x1c, 0xbb, 0xe2, 0x17, 0xbd, 0xf2, 0x7f, 0x0c, 0xe3, 0x66, 0xb2, 0xba, 0x23, 0xcd, 0xe6, 0x05,
  0x0c, 0x10, 0x31, 0xc2, 0xdf, 0xf7, 0xfe, 0xe5, 0xf0, 0x40, 0xa7, 0xe2, 0x19, 0x18, 0x3a, 0xf6,
  0xa4, 0x5d, 0xe8, 0xd9, 0xb1, 0xf6, 0xa2, 0x28, 0xec, 0xeb, 0xcf, 0x06, 0x32, 0x19, 0x29, 0x23,
  0xe8, 0xd5, 0x0a, 0x33, 0xdb, 0xae, 0x0a, 0xfe, 0x0a, 0x56, 0x11, 0x33, 0xf1, 0x09, 0xfe, 0x1b,
  0x11, 0xe2, 0xe5, 0x0c, 0x3a, 0x10, 0xd5, 0xcc, 0x3f, 0xf7, 0xee, 0xcc, 0x22, 0x9f, 0xfb, 0x26,
  0x10, 0x68, 0xa1, 0xc7, 0x35, 0xae, 0xfa, 0xee, 0x23, 0xd7, 0x06, 0xae, 0x19, 0x0e, 0x3e, 0xfc,
  0xe9, 0x12, 0xf4, 0xf2, 0xbb, 0xc6, 0x5c, 0xfc, 0xb4, 0x4f, 0x04, 0xc1, 0xbc, 0x4c, 0x31, 0xa7,
  0xb1, 0xcf, 0x22, 0xc3, 0x40, 0xe7, 0x1f, 0xdc, 0xe3, 0xaf, 0x1f, 0xb1, 0x16, 0x15, 0xeb, 0xbb,
  0x30, 0xf3, 0xaf, 0xbd, 0xc6, 0x1c, 0xb7, 0xe1, 0xaf, 0xf8, 0x0c, 0xc0, 0x2e, 0x26, 0x13, 0xde,
  0xd8, 0xf1, 0xf7, 0x02, 0x4c, 0xc0, 0x1f, 0xe5, 0x26, 0x56, 0x0e, 0xbb, 0x0a, 0xed, 0xb0, 0x21,
  0xca, 0x36, 0xb4, 0x3e, 0xd7, 0xd2, 0xf9, 0x2d, 0x27, 0xc4, 0x03, 0xce, 0xe5, 0x1b, 0xfc, 0xf7,
  0xcd, 0xf5, 0x0f, 0xb7, 0xe1, 0x03, 0xc1, 0xfc, 0xec, 0xfa, 0xb3, 0xb5, 0x23, 0xde, 0x33, 0xab,
  0xd3, 0x08, 0x8b, 0x19, 0x24, 0xe2, 0x44, 0x11, 0x2b, 0x12, 0x2b, 0x06, 0xc3, 0x26, 0xe1, 0x3c,
  0xbd, 0x1a, 0xe8, 0x0d, 0xbd, 0x1c, 0xec, 0xbd, 0x23, 0xe0, 0x1d, 0x0c, 0x33, 0x0a, 0x5a, 0x25,
  0xa5, 0x3a, 0x27, 0xe7, 0x31, 0xd7, 0xe7, 0x21, 0xe4, 0x10, 0xf2, 0xb3, 0x3d, 0xbd, 0x04, 0xbe,
  0xde, 0xe2, 0x0d, 0xe8, 0xca, 0xb4, 0x5b, 0xec, 0xc0, 0x6a, 0x1d, 0xab, 0x2a, 0xae, 0xad, 0x48,
  0xb8, 0xc6, 0xe4, 0xda, 0x03, 0xa8, 0x00, 0xcc, 0x16, 0xfc, 0xc0, 0x15, 0x1b, 0xe4, 0x7f, 0xdf,
  0x20, 0x28, 0xd0, 0x38, 0xfb, 0xef, 0x2f, 0x39, 0xdd, 0xce, 0xc0, 0x29, 0x20, 0x0f, 0x11, 0x05,
  0xc0, 0x35, 0xeb, 0x1c, 0xe9, 0x23, 0x49, 0xaf, 0xb8, 0xf5, 0xe7, 0x09, 0x33, 0xd2, 0xbf, 0xe7,
  0xd5, 0x00, 0x32, 0xf0, 0xf6, 0xd0, 0x3a, 0xd4, 0xed, 0xe1, 0xb4, 0xc6, 0xd3, 0x18, 0x45, 0xd8,
  0xbc, 0x0d, 0x18, 0xd8, 0xbc, 0xc0, 0xbc, 0xfd, 0x4e, 0x32, 0x07, 0xf9, 0xe8, 0x30, 0x81, 0x49,
  0x90, 0x2c, 0x79, 0xf5, 0x2a, 0x23, 0x0f, 0xd6, 0x30, 0x92, 0x35, 0x6b, 0xe3, 0xbb, 0x49, 0x68,
  0x67, 0x0d, 0x25, 0x5a, 0xb2, 0xb4, 0xa1, 0x3a, 0xc7, 0x17, 0x5e, 0x5f, 0xa0, 0x6d, 0xe7, 0x2a,
  0x11, 0x45, 0x05, 0xe0, 0xe0, 0x5d, 0xe8, 0x1f, 0xee, 0x1d, 0x4b, 0x1a, 0xb7, 0xe0, 0x20, 0x32,
  0xff, 0x1e, 0x7a, 0x6e, 0xc8, 0xf8, 0x17, 0xd8, 0xdd, 0xea, 0xc2, 0x3b, 0x68, 0xb4, 0x2e, 0x0b,
  0xec, 0x03, 0xf7, 0x1a, 0x12, 0x41, 0xb2, 0xfe, 0xb9, 0x1d, 0xf5, 0xc5, 0xb1, 0xef, 0xbb, 0xd5,
  0x16, 0x01, 0x17, 0x37, 0x49, 0x12, 0x2f, 0x51, 0x0c, 0x4d, 0x2e, 0xc7, 0xfb, 0x32, 0xd9, 0xe9,
  0x2a, 0xe1, 0x3a, 0x3b, 0x0f, 0x09, 0x98, 0xdd, 0xea, 0xd3, 0x94, 0xed, 0x18, 0x2e, 0x2e, 0x29,
  0xd6, 0xff, 0x46, 0xcc, 0xda, 0xc2, 0x51, 0x04, 0x07, 0xda, 0x61, 0xf1, 0x0f, 0x3f, 0xcf, 0x2d,
  0x39, 0x38, 0xdd, 0xfd, 0x14, 0xcf, 0xd0, 0xcc, 0x69, 0x34, 0x22, 0xe7, 0x01, 0xd2, 0xf6, 0xb2,
  0x3c, 0xcf, 0x58, 0xeb, 0xb7, 0xf4, 0xc2, 0x29, 0x50, 0xde, 0x7d, 0x47, 0x14, 0x3b, 0xc3, 0x4c,
  0xe6, 0x72, 0x0f, 0x2d, 0xdf, 0xcd, 0xb2, 0xbb, 0x1b, 0x5f, 0x05, 0xd8, 0x48, 0x19, 0xf1, 0xf8,
  0x1e, 0xdc, 0x32, 0xfe, 0xc2, 0x07, 0xde, 0x04, 0xdb, 0x27, 0xcb, 0xcd, 0x1a, 0xde, 0x4b, 0x21,
  0x34, 0x18, 0xfd, 0x3c, 0xed, 0x52, 0xaa, 0xf7, 0xd7, 0x8d, 0xf6, 0x4c, 0xc9, 0xa6, 0xd9, 0xe4,
  0x70, 0x09, 0x78, 0x2d, 0x39, 0x13, 0xb8, 0xcf, 0xe3, 0x07, 0x20, 0xe9, 0xbb, 0x40, 0xc2, 0x49,
  0xfa, 0xe2, 0xfe, 0x09, 0x3d, 0x0c, 0xa8, 0x22, 0x0a, 0xd6, 0x7f, 0x54, 0x1b, 0xfd, 0xf3, 0xe9,
  0xd9, 0xd6, 0x63, 0x66, 0xec, 0x06, 0xb3, 0x02, 0xf4, 0xf0, 0x53, 0xe8, 0x3e, 0x36, 0xcf, 0x61,
  0x0e, 0x33, 0x1e, 0x0c, 0x26, 0x04, 0xe5, 0xc4, 0xb6, 0xed, 0xfa, 0x15, 0x09, 0x2e, 0x09, 0x3c,
  0xfa, 0xd4, 0x6a, 0x07, 0xfa, 0x51, 0xff, 0x7b, 0x14, 0x0f, 0x67, 0xe7, 0x33, 0xf5, 0x20, 0xe0,
  0x1e, 0xed, 0x21, 0xb0, 0x17, 0x36, 0xc9, 0x58, 0xaa, 0xd8, 0xb0, 0x25, 0x36, 0x01, 0x5e, 0xd6,
  0x55, 0xcf, 0x53, 0x20, 0xd6, 0xe9, 0xa9, 0xd3, 0xba, 0x22, 0x77, 0xdd, 0xb2, 0x5b, 0x15, 0x1b,
  0xdf, 0xaa, 0xd9, 0xe0, 0x2f, 0x21, 0x0f, 0xee, 0x17, 0xe4, 0x5e, 0xde, 0xd7, 0x33, 0xf5, 0x26,
  0xcc, 0xb9, 0x5c, 0x68, 0xd5, 0x07, 0x27, 0x23, 0xe2, 0x17, 0x39, 0x70, 0x2f, 0x5e, 0xd8, 0xc8,
  0x66, 0x2f, 0xaf, 0x12, 0x45, 0xc1, 0xa3, 0x6a, 0xb0, 0xec, 0x49, 0x29, 0x5a, 0x5f, 0xf0, 0x1c,
  0x47, 0x90, 0x46, 0x55, 0x54, 0x16, 0x2d, 0x59, 0xe7, 0x2f, 0xc5, 0xf9, 0x4b, 0x25, 0x1f, 0xdc,
  0x1b, 0x3c, 0x65, 0xdc, 0xa6, 0x02, 0xc4, 0xf9, 0x5a, 0xb5, 0x01, 0xe0, 0x3c, 0x35, 0x2f, 0x68,
  0x08, 0xd8, 0xeb, 0x7c, 0x17, 0x50, 0x32, 0xc4, 0x3e, 0x00, 0x01, 0x77, 0xf4, 0xef, 0xc6, 0x1c,
  0xdf, 0x20, 0x65, 0xc8, 0xed, 0xbf, 0xf4, 0xce, 0xb7, 0x33, 0xe4, 0xc8, 0xfd, 0x09, 0xaa, 0x64,
  0xa3, 0xae, 0xcd, 0x26, 0xd1, 0xc0, 0x82, 0x2f, 0x9b, 0x96, 0xf9, 0xd6, 0x22, 0x13, 0x2e, 0x79,
  0x0d, 0xa7, 0x0e, 0x60, 0x46, 0xbc, 0x9c, 0xca, 0xcc, 0xac, 0xe1, 0x40, 0xcc, 0x08, 0x9a, 0xc6,
  0x2f, 0xbf, 0x02, 0xd6, 0x25, 0x29, 0x17, 0xf3, 0x08, 0x2b, 0x35, 0xd2, 0x1a, 0x36, 0x32, 0xf6,
  0xb6, 0xd5, 0xcc, 0x5e, 0xc6, 0xe1, 0x8f, 0x0c, 0xbe, 0x0a, 0x69, 0xd5, 0x6d, 0xdf, 0x03, 0x34,
  0xe2, 0x54, 0x68, 0x34, 0x2f, 0xf9, 0xa8, 0x18, 0xe0, 0x02, 0x29, 0x10, 0xe3, 0x62, 0xaf, 0xfe,
  0x5c, 0x9c, 0xd7, 0x41, 0x01, 0x09, 0x3d, 0x27, 0x0c, 0xd7, 0xea, 0xf3, 0x47, 0xda, 0xb7, 0x23,
  0x81, 0x47, 0xf0, 0xb0, 0x5d, 0xca, 0x86, 0xbd, 0x9f, 0xde, 0xc3, 0x24, 0x43, 0x12, 0xec, 0x42,
  0x2c, 0x1f, 0x56, 0x54, 0xdb, 0x5d, 0xd4, 0xd3, 0xfe, 0xed, 0xfb, 0x7d, 0x20, 0xfd, 0x1a, 0xec,
  0x15, 0xe3, 0xaf, 0xeb, 0xd0, 0xe0, 0x1d, 0x52, 0x58, 0x09, 0x3d, 0x20, 0x50, 0x30, 0xe6, 0x27,
  0xe3, 0x58, 0x4c, 0xf4, 0xf9, 0xe2, 0x23, 0x4c, 0xd9, 0x99, 0xde, 0x1e, 0xd5, 0xd5, 0xe1, 0x35,
  0xde, 0x72, 0xe6, 0x5d, 0xf0, 0xfe, 0xd1, 0x28, 0xec, 0xeb, 0xf8, 0x16, 0x03, 0x4f, 0x00, 0x29,
  0xda, 0xb4, 0x3e, 0xfc, 0x6c, 0x29, 0x39, 0x09, 0x41, 0x14, 0xee, 0xea, 0xa9, 0x08, 0xfc, 0x40,
  0xbb, 0x16, 0x72, 0xe4, 0xe2, 0x6d, 0xc8, 0xd9, 0xe4, 0xbb, 0xc3, 0x28, 0x51, 0xd3, 0x3c, 0x34,
  0x53, 0xc7, 0xf0, 0x0b, 0x0a, 0x04, 0x88, 0xb6, 0xb8, 0xe7, 0x4e, 0x37, 0xe0, 0x20, 0xf7, 0x29,
  0xc1, 0xaa, 0x4e, 0x2e, 0x44, 0x23, 0x3d, 0x62, 0x71, 0x14, 0x00, 0x6d, 0xdc, 0x27, 0xf2, 0x01,
  0xba, 0x04, 0x12, 0xc2, 0xa0, 0xd9, 0xe4, 0xd4, 0xef, 0xee, 0x4e, 0xe6, 0x31, 0xd4, 0xb3, 0x17,
  0xfa, 0x15, 0x45, 0x2f, 0x24, 0xcc, 0xf3, 0x2f, 0xe2, 0xfa, 0xfd, 0x53, 0xc9, 0xf6, 0xcf, 0xb8,
  0xfa, 0x07, 0x64, 0x57, 0x4f, 0x07, 0xee, 0x14, 0xd8, 0x3b, 0x25, 0xcc, 0xfc, 0x2f, 0x01, 0xc0,
  0xea, 0x1c, 0x7b, 0xf8, 0x1f, 0x47, 0xf0, 0x29, 0xb8, 0xf6, 0x93, 0x6f, 0xe3, 0x59, 0xc5, 0x54,
  0xec, 0x0e, 0x53, 0xc7, 0xe3, 0x28, 0xe0, 0x40, 0xdc, 0x16, 0xe5, 0x0e, 0x40, 0x58, 0xd7, 0xd0,
  0xb6, 0xda, 0xce, 0xf6, 0x14, 0xc8, 0xf3, 0xfd, 0x1d, 0x3c, 0xe3, 0x1a, 0xf6, 0x0f, 0xcc, 0x25,
  0xa3, 0x03, 0x56, 0x6b, 0x01, 0x5c, 0x9e, 0x4b, 0xd4, 0x32, 0x1b, 0x0c, 0x15, 0xdb, 0xeb, 0xd1,
  0x6d, 0xc6, 0xfe, 0x25, 0x02, 0x3d, 0x16, 0x33, 0xf1, 0xd6, 0x6e, 0x0a, 0x01, 0x4c, 0xc6, 0x35,
  0x01, 0xbe, 0x54, 0x36, 0x0d, 0x67, 0x30, 0x5c, 0x08, 0xd0, 0x47, 0x20, 0x1b, 0x0f, 0xed, 0x3d,
  0x41, 0x21, 0x54, 0x55, 0x9d, 0xcc, 0x26, 0xd9, 0x0d, 0x0d, 0xb5, 0xbb, 0xd1, 0xd8, 0x1e, 0x4f,
  0x47, 0x4f, 0x14, 0x10, 0xcf, 0x2e, 0xf8, 0xd0, 0x1d, 0x14, 0xf3, 0x7f, 0xf9, 0x23, 0xa3, 0x4e,
  0xcd, 0xa2, 0xdc, 0x02, 0xd1, 0xd6, 0xe0, 0x23, 0xb8, 0xe0, 0x8c, 0xd6, 0x20, 0xce, 0x39, 0xfa,
  0xcb, 0xa9, 0x25, 0xf0, 0x35, 0xdf, 0x12, 0xc3, 0xf5, 0x7f, 0xec, 0x28, 0x26, 0xea, 0x39, 0xa9,
  0xc9, 0x0d, 0x18, 0xfb, 0x1e, 0xd5, 0x32, 0xb7, 0x9c, 0xba, 0xc9, 0x29, 0x0e, 0xd1, 0x0f, 0x05,
  0x12, 0x6c, 0xbe, 0xf6, 0xc4, 0xcd, 0x31, 0xf0, 0xd1, 0xee, 0x0c, 0xbd, 0x19, 0xc6, 0xbc, 0x19,
  0xe5, 0xb1, 0xc8, 0xf5, 0xe4, 0xc5, 0x54, 0x24, 0xfe, 0xf9, 0xdd, 0x32, 0xae, 0x0a, 0x9b, 0xb5,
  0x29, 0xce, 0x41, 0x18, 0xe9, 0xc4, 0x42, 0xf2, 0x15, 0x27, 0xef, 0xba, 0x0f, 0x17, 0x75, 0x33,
  0x95, 0x04, 0x0a, 0x97, 0xcc, 0xd5, 0x1a, 0xe0, 0xa3, 0xa5, 0xe0, 0xc4, 0xce, 0x3d, 0xbc, 0xd1,
  0x97, 0x26, 0xa0, 0xc3, 0xc4, 0xa3, 0x25, 0xb1, 0xd2, 0x3e, 0xdc, 0xa1, 0xb1, 0x45, 0xee, 0x90,
  0x34, 0xb5, 0xd3, 0xd2, 0x1f, 0xeb, 0xda, 0x19, 0x14, 0x19, 0x22, 0x1a, 0xfd, 0x10, 0x49, 0xe8,
  0xf6, 0x08, 0xd1, 0xb2, 0xb0, 0xb1, 0xdc, 0xd5, 0xd4, 0x2f, 0xfe, 0x1d, 0x09, 0x1b, 0xb6, 0x08,
  0x37, 0x2b, 0x20, 0xc3, 0xf6, 0xc0, 0x66, 0xa7, 0x9e, 0x02, 0xb1, 0xc1, 0xc2, 0x2d, 0xf0, 0x1f,
  0xee, 0x17, 0x3a, 0x0c, 0x09, 0xb5, 0x46, 0x04, 0xf9, 0xa8, 0x2a, 0x93, 0xbf, 0x98, 0xf1, 0x41,
  0x05, 0x03, 0x1a, 0xd1, 0x12, 0x2d, 0x0e, 0xfc, 0xce, 0xbd, 0xf0, 0x22, 0x03, 0x44, 0x1c, 0xeb,
  0x30, 0x33, 0x23, 0xc5, 0xfd, 0x8e, 0x4b, 0x11, 0xbe, 0x1b, 0x07, 0xf2, 0xe4, 0x47, 0xc6, 0xcb,
  0x09, 0x2e, 0xef, 0x51, 0xb7, 0x2f, 0xb2, 0x34, 0x1a, 0x4a, 0x70, 0x04, 0xdf, 0x59, 0xb0, 0x47,
  0xc3, 0xd5, 0x78, 0xd1, 0x41, 0x23, 0x37, 0xd0, 0xeb, 0xe2, 0x5a, 0x05, 0x0c, 0xee, 0x14, 0x00,
  0xe9, 0x38, 0xdb, 0x55, 0x28, 0x76, 0x1b, 0x14, 0x17, 0x34, 0xd0, 0xc9, 0x3f, 0x4f, 0xb7, 0x44,
  0x4f, 0x02, 0x4e, 0x01, 0xcc, 0xba, 0x48, 0xcd, 0xee, 0x36, 0x3a, 0x4f, 0xa5, 0x29, 0x9b, 0x42,
  0x18, 0x24, 0xfc, 0x19, 0x27, 0xfd, 0xc5, 0x3c, 0xd6, 0xfe, 0xf9, 0x3e, 0xc5, 0xd7, 0x0c, 0x1d,
  0xd0, 0x31, 0x27, 0x07, 0x39, 0xce, 0x0d, 0x1e, 0xfa, 0xfe, 0x36, 0xdd, 0xec, 0x22, 0xfd, 0xfb,
  0x68, 0xd3, 0x02, 0x45, 0x55, 0xd5, 0xfd, 0x06, 0x0f, 0x35, 0x5e, 0x46, 0x19, 0x18, 0xab, 0x45,
  0xc4, 0xb0, 0x0d, 0x68, 0xe3, 0x29, 0x40, 0x4a, 0xec, 0x0a, 0x59, 0x22, 0x1a, 0x0c, 0xeb, 0x56,
  0x0b, 0xf2, 0x2c, 0x01, 0x2a, 0xf3, 0xdc, 0xe8, 0xee, 0xea, 0x3b, 0x1e, 0x59, 0x41, 0x20, 0xe2,
  0x00, 0x46, 0x3c, 0x44, 0x2e, 0x30, 0xd0, 0x5c, 0xe9, 0x08, 0x1d, 0x08, 0x22, 0xf4, 0xe3, 0xa7,
  0x46, 0xa1, 0x53, 0x27, 0xe0, 0x28, 0xb8, 0x40, 0xfb, 0x3b, 0x04, 0xd1, 0x04, 0xe4, 0xd8, 0x22,
  0xd6, 0x31, 0xf1, 0x65, 0xab, 0x40, 0xc0, 0x03, 0x54, 0x13, 0xc3, 0xd9, 0xfd, 0x61, 0x08, 0xec,
  0x16, 0x5d, 0xc2, 0xf8, 0xff, 0xda, 0xc5, 0x22, 0x7f, 0x2c, 0x49, 0xdd, 0xf8, 0x1d, 0xfe, 0x4c,
  0x6b, 0x00, 0xef, 0xef, 0x5b, 0x14, 0x05, 0xfa, 0x30, 0x26, 0x0a, 0xd3, 0x01, 0x3c, 0xf2, 0x50,
  0xdb, 0xa7, 0x25, 0x14, 0x50, 0x26, 0xf8, 0xaa, 0xaf, 0x06, 0x49, 0x3a, 0xfd, 0xb8, 0x0a, 0x0a,
  0x66, 0x61, 0xeb, 0xd3, 0xb1, 0x09, 0x8f, 0xb0, 0x34, 0x02, 0xf5, 0x0c, 0x8c, 0x66, 0xe2, 0x25,
  0x52, 0xcf, 0x35, 0x06, 0xe4, 0xa9, 0x5f, 0x55, 0x01, 0xc2, 0x12, 0xf8, 0x6d, 0x2a, 0x0a, 0x24,
  0x09, 0xe8, 0x48, 0x2e, 0xcc, 0x5f, 0xae, 0xe5, 0xb9, 0xb1, 0x5f, 0x69, 0xab, 0x65, 0x5a, 0x0a,
  0x11, 0x2b, 0x15, 0x5e, 0x2d, 0xac, 0x9a, 0xda, 0xe8, 0x09, 0x3f, 0x52, 0x25, 0x0b, 0x3f, 0x55,
  0x34, 0xc5, 0xe7, 0x45, 0x2f, 0xe1, 0xf9, 0x6a, 0x59, 0xb5, 0xd1, 0xc9, 0x0c, 0xb4, 0xec, 0x2c,
  0xda, 0xd7, 0x3a, 0x5c, 0xb6, 0xda, 0x8f, 0x43, 0x1b, 0xe3, 0xf4, 0x69, 0xed, 0x47, 0x7b, 0x3f,
  0xde, 0xd5, 0xcc, 0x03, 0x39, 0xc3, 0x27, 0xce, 0xc3, 0x3e, 0x2e, 0x48, 0x3e, 0x0b, 0xf7, 0x1b,
  0x9f, 0xe1, 0xd9, 0x23, 0xde, 0x08, 0xa6, 0x13, 0x5a, 0x73, 0xfd, 0xe6, 0x5c, 0x9a, 0xf8, 0xba,
  0xec, 0x38, 0x62, 0x0d, 0xe3, 0x4b, 0xfb, 0xf2, 0xd9, 0xc6, 0x70, 0x5a, 0x1f, 0xfe, 0xa2, 0x62,
  0xe4, 0x3d, 0x30, 0xe3, 0xd1, 0x59, 0x34, 0x2d, 0x56, 0xd6, 0xcc, 0x5c, 0x47, 0x30, 0xaa, 0x07,
  0xd9, 0xad, 0x2f, 0x9b, 0xee, 0xe0, 0x1d, 0x41, 0x68, 0x5c, 0xe6, 0x6e, 0xbe, 0x3d, 0x30, 0x0f,
  0x40, 0x14, 0x42, 0x7f, 0x00, 0x6a, 0xbe, 0xe2, 0x40, 0xda, 0xec, 0x4f, 0x6f, 0x40, 0x2e, 0xca,
  0x13, 0xf7, 0xd0, 0x72, 0x1d, 0x40, 0x1c, 0xf6, 0x27, 0xbf, 0x2b, 0xa9, 0x49, 0x06, 0x96, 0x0d,
  0xcc, 0x8e, 0xdb, 0x7a, 0x2c, 0x2d, 0x46, 0xdf, 0x6e, 0xd1, 0xf1, 0x76, 0xd0, 0xcb, 0xf9, 0x45,
  0xb9, 0xdb, 0xa5, 0x38, 0x18, 0x0f, 0x9d, 0xef, 0x3f, 0x17, 0xee, 0xba, 0xcf, 0xb8, 0xe3, 0x54,
  0x30, 0x4e, 0x01, 0x7f, 0x2c, 0x55, 0x1a, 0x47, 0xcd, 0xc7, 0x23, 0x69, 0xdc, 0xed, 0xc5, 0x17,
  0xdd, 0xe4, 0x2b, 0x2c, 0xec, 0x30, 0x03, 0x38, 0x2e, 0x35, 0xe2, 0xb9, 0x2d, 0x32, 0xa9, 0x5e,
  0x20, 0xd5, 0xfc, 0xf8, 0x1d, 0xf1, 0xc1, 0xb6, 0x43, 0xc7, 0x4b, 0xec, 0x22, 0x2a, 0x3c, 0x54,
  0x5a, 0xcd, 0x52, 0xd3, 0xfa, 0x62, 0xc5, 0xdb, 0x94, 0xc6, 0xf8, 0xfa, 0x09, 0xfa, 0x26, 0xda,
  0xab, 0xaa, 0x11, 0x4f, 0xe8, 0x50, 0x5f, 0x36, 0xee, 0xd1, 0xe8, 0xc9, 0x58, 0xb7, 0xbc, 0x50,
  0xa8, 0x29, 0xb8, 0x2b, 0xdb, 0x0e, 0x93, 0xbd, 0x4f, 0x4d, 0x23, 0x1d, 0x26, 0x5f, 0xf8, 0x57,
  0xb8, 0x3c, 0x30, 0xfb, 0x43, 0xd8, 0x17, 0x4a, 0x3d, 0xc1, 0x0e, 0xf3, 0x02, 0x63, 0xce, 0x59,
  0x27, 0xca, 0x7a, 0xd3, 0x47, 0x13, 0x09, 0x41, 0xc9, 0x76, 0x66, 0x39, 0x52, 0x34, 0xf6, 0xc3,
  0xea, 0x1b, 0xd6, 0x08, 0x47, 0x39, 0xbf, 0xfc, 0xff, 0x61, 0xcb, 0xe4, 0xf8, 0xed, 0x63, 0x43,
  0x56, 0xe9, 0xbe, 0xe8, 0xd2, 0x3c, 0xba, 0x26, 0xf9, 0xe5, 0xe9, 0x00, 0xc8, 0x03, 0x20, 0xd5,
  0x52, 0xce, 0x40, 0xf6, 0x57, 0x48, 0xee, 0x16, 0x46, 0x34, 0xed, 0xdc, 0x42, 0xf3, 0xf2, 0x06,
  0xd1, 0xa8, 0xf1, 0xf1, 0xc8, 0xd1, 0x81, 0xaf, 0xaa, 0xae, 0x0c, 0x6a, 0x16, 0xb8, 0x46, 0x05,
  0xd0, 0x6b, 0x06, 0xf0, 0xaf, 0x0e, 0x92, 0x68, 0xf0, 0xf8, 0x45, 0x68, 0xab, 0x6c, 0x22, 0x45,
  0xfb, 0x3b, 0xe7, 0x40, 0xd0, 0xcf, 0xae, 0x4f, 0x42, 0xb2, 0x4b, 0xce, 0xd7, 0x06, 0xd4, 0x30,
  0x05, 0xf4, 0x12, 0x64, 0xe4, 0x1b, 0xfc, 0xf5, 0xb4, 0xa3, 0x46, 0xf4, 0xc6, 0xca, 0xcb, 0x11,
  0xd5, 0xc8, 0xf3, 0xd9, 0x3e, 0x2e, 0xf0, 0xe7, 0xc4, 0xa8, 0xf5, 0x13, 0x1b, 0x52, 0x0d, 0x4b,
  0x49, 0x0e, 0x2a, 0xfd, 0xd0, 0x0e, 0xdf, 0x25, 0xe3, 0x5e, 0x6d, 0x5f, 0xf8, 0x58, 0x8c, 0x2f,
  0xab, 0x21, 0x20, 0x3d, 0xd5, 0xd0, 0xb4, 0xe5, 0xdf, 0xe7, 0xd8, 0x3d, 0xbb, 0xd9, 0x34, 0x17,
  0x03, 0xed, 0xf4, 0x46, 0x51, 0x28, 0xb7, 0xbd, 0x11, 0xe9, 0x52, 0x44, 0xf9, 0x09, 0xb1, 0x19,
  0xee, 0x40, 0xe0, 0xfb, 0x1f, 0xbc, 0xcf, 0x61, 0x46, 0x56, 0x34, 0x1f, 0x0e, 0xfb, 0xa7, 0x56,
  0xea, 0xfb, 0x56, 0xf0, 0xd7, 0x08, 0x0a, 0xca, 0x47, 0xae, 0x13, 0xd2, 0x2e, 0x51, 0xcd, 0xcb,
  0xd9, 0x20, 0x12, 0x69, 0x28, 0x25, 0xc6, 0x14, 0x05, 0x42, 0x2c, 0xc1, 0x9d, 0x5c, 0x1e, 0x3b,
  0xfd, 0x47, 0xcc, 0xef, 0x36, 0xe7, 0x41, 0x58, 0x64, 0xc5, 0x10, 0xfd, 0x09, 0x35, 0xf1, 0xf6,
  0xc5, 0xbd, 0x38, 0x36, 0xc5, 0x6b, 0x95, 0x3c, 0xe2, 0x11, 0x7d, 0x24, 0x27, 0x29, 0x27, 0x91,
  0x02, 0xbe, 0x21, 0xda, 0xec, 0x1e, 0xd1, 0x9b, 0x31, 0x31, 0x8e, 0xf1, 0x59, 0xd7, 0xfc, 0x2d,
  0x15, 0x25, 0x08, 0xda, 0xb0, 0xff, 0x26, 0x2b, 0x9f, 0xb7, 0xf2, 0x20, 0xcf, 0x98, 0xaa, 0xe5,
  0xb5, 0xa8, 0x10, 0xd6, 0x23, 0xb4, 0x36, 0x20, 0x16, 0xe9, 0xbe, 0xbb, 0xda, 0x39, 0x1e, 0xd7,
  0x09, 0xfe, 0x02, 0xac, 0x12, 0x14, 0xa0, 0xcf, 0x17, 0xe1, 0x12, 0xc4, 0xa9, 0xdd, 0x6c, 0x09,
  0xd3, 0xdc, 0x24, 0x95, 0xc2, 0xb5, 0x96, 0x12, 0xa0, 0xe3, 0xc3, 0xef, 0xc5, 0x1e, 0x2e, 0x0b,
  0xfb, 0x08, 0xcd, 0xbf, 0xcf, 0x04, 0x32, 0x00, 0x22, 0x26, 0xc5, 0x0f, 0xc2, 0x3f, 0x30, 0xc8,
  0xd4, 0xd4, 0xe6, 0x1b, 0xe6, 0x2f, 0x45, 0xd9, 0x1c, 0xe4, 0xb9, 0x32, 0x2f, 0xff, 0x13, 0xe4,
  0xb8, 0xfd, 0xa7, 0xf1, 0xc1, 0x10, 0x2c, 0xeb, 0x1b, 0xb0, 0x3c, 0xae, 0x17, 0x06, 0x06, 0xb1,
  0xe7, 0x34, 0xd2, 0xea, 0xec, 0xc8, 0x5e, 0x28, 0x2d, 0xf9, 0xfa, 0x00, 0xeb, 0xd2, 0xa5, 0xf6,
  0xf0, 0x2e, 0x36, 0x2a, 0x15, 0xe4, 0x05, 0xea, 0xc1, 0xe0, 0x10, 0x15, 0xbf, 0x26, 0x2e, 0xbf,
  0x29, 0x46, 0x81, 0x12, 0xb7, 0x0f, 0xcd, 0xef, 0xfe, 0xd0, 0xf6, 0x27, 0x22, 0x1c, 0xd1, 0x1a,
  0xe2, 0xe4, 0xea, 0x20, 0xcd, 0x8e, 0x74, 0xf5, 0xc1, 0x21, 0xbf, 0xf0, 0x47, 0x3c, 0xe9, 0x05,
  0xa6, 0x08, 0x3f, 0xbb, 0xfe, 0xfc, 0x4d, 0x03, 0x01, 0xbe, 0xd7, 0xae, 0xc3, 0xe0, 0x2b, 0xae,
  0xec, 0x53, 0x1f, 0xb5, 0x3a, 0xf4, 0x18, 0xe6, 0xda, 0xe1, 0xe0, 0x37, 0x48, 0x23, 0x81, 0x0c,
  0xae, 0x9f, 0xcd, 0xe4, 0xf8, 0xe2, 0x9a, 0xce, 0x16, 0xae, 0x27, 0x02, 0xf5, 0xba, 0xf3, 0x40,
  0xf6, 0x4b, 0xf0, 0x2a, 0x36, 0x09, 0xa5, 0x4c, 0xff, 0x12, 0x25, 0x4d, 0xd7, 0xdb, 0xb0, 0x19,
  0xa8, 0x16, 0xd2, 0x46, 0x00, 0x38, 0xdc, 0x2a, 0xda, 0x3b, 0x26, 0xf1, 0x04, 0xe7, 0x1f, 0xf3,
  0x28, 0xd7, 0x23, 0x36, 0x22, 0x02, 0xe9, 0x07, 0xd0, 0xd2, 0x4d, 0x4a, 0xd8, 0x28, 0x1e, 0xdf,
  0xf6, 0x45, 0xf7, 0xd2, 0xd0, 0xfa, 0xe6, 0xf2, 0x01, 0xa5, 0x2d, 0x30, 0xc5, 0x3e, 0xc8, 0xd9,
  0xfe, 0xfa, 0xa4, 0x60, 0x24, 0xde, 0x12, 0x58, 0xde, 0x25, 0x10, 0xdc, 0x19, 0x39, 0xc6, 0x1c,
  0x1e, 0xe4, 0x14, 0x58, 0xe1, 0x4a, 0x0c, 0x18, 0xce, 0xf6, 0xc6, 0x39, 0xd5, 0x2f, 0x21, 0xe3,
  0x53, 0x3e, 0x34, 0x14, 0x1a, 0x04, 0x19, 0x22, 0xf1, 0x13, 0xf8, 0x0b, 0x28, 0xf9, 0x0b, 0x4e,
  0x26, 0xe7, 0xf0, 0x51, 0x13, 0x2b, 0xff, 0x3c, 0x06, 0x18, 0xfe, 0xf7, 0x2a, 0xd4, 0x04, 0x03,
  0x3b, 0xc3, 0x08, 0xd7, 0x11, 0x43, 0x03, 0x38, 0xd7, 0xcf, 0xf6, 0x28, 0x0b, 0x3a, 0x2a, 0x22,
  0xe9, 0xf3, 0x18, 0x1b, 0xed, 0x21, 0xdc, 0x06, 0x3c, 0x08, 0xec, 0x2e, 0x2d, 0x0c, 0x15, 0x22,
  0xd5, 0xe4, 0xe5, 0xf6, 0xfb, 0x3a, 0x01, 0x40, 0xe8, 0x18, 0xe6, 0x16, 0x02, 0x06, 0x3a, 0x3b,
  0x21, 0xd9, 0x0c, 0xf9, 0x0c, 0xe3, 0x2d, 0x31, 0x18, 0xeb, 0x47, 0xdf, 0x0e, 0x1e, 0xb4, 0x0a,
  0xbf, 0x0c, 0xff, 0xcd, 0xdd, 0xf1, 0x3c, 0xb8, 0x0d, 0xe5, 0x0c, 0xfa, 0x22, 0xfb, 0x1f, 0xc6,
  0xd9, 0x2a, 0xfa, 0x27, 0xbb, 0x3f, 0xbf, 0xd3, 0x0c, 0x14, 0xc5, 0xf9, 0x03, 0x28, 0x1a, 0xe0,
  0xc6, 0xd9, 0xda, 0x06, 0xbe, 0xdf, 0x49, 0x1f, 0x01, 0x5b, 0xc9, 0x1f, 0xf6, 0x51, 0xb4, 0xe1,
  0x0c, 0xc6, 0xd6, 0xed, 0xbb, 0xee, 0x3c, 0xa8, 0xc1, 0xd9, 0xb2, 0xc5, 0xdd, 0x0a, 0xf0, 0xd2,
  0x04, 0x6a, 0xc0, 0x31, 0x0d, 0xfa, 0xf8, 0xea, 0xc1, 0xfd, 0xb6, 0xc2, 0xde, 0xb9, 0x22, 0xaa,
  0xf7, 0xea, 0x9a, 0x0c, 0x36, 0x05, 0x53, 0xb1, 0xc7, 0xd6, 0x31, 0xb3, 0xcd, 0xc9, 0x11, 0xc4,
  0xef, 0x19, 0xb7, 0x04, 0xdf, 0x26, 0xe9, 0xc1, 0x0c, 0x38, 0xe8, 0xbf, 0x34, 0x19, 0x18, 0xe8,
  0xa7, 0x2f, 0xc6, 0x0c, 0x20, 0x3b, 0xc3, 0x0f, 0xc6, 0x23, 0xe0, 0xd3, 0xe9, 0xfe, 0x0c, 0x16,
  0x01, 0xfc, 0xca, 0xb4, 0xb6, 0xe0, 0x51, 0xcb, 0xdc, 0x18, 0xe2, 0xfa, 0x3c, 0x2c, 0xb4, 0xcd,
  0x21, 0x9c, 0xf8, 0xc9, 0x43, 0x26, 0x2d, 0xd9, 0xba, 0xc0, 0xd0, 0xb2, 0x16, 0xd2, 0xf6, 0xd7,
  0xc3, 0x2f, 0x02, 0xed, 0x0f, 0x09, 0xec, 0xde, 0x0e, 0xc5, 0xd1, 0x9c, 0x14, 0xcd, 0xc0, 0xd7,
  0xf6, 0xfd, 0xc1, 0x3e, 0x15, 0xf1, 0x7f, 0x43, 0x33, 0x2b, 0xdc, 0xcd, 0xf6, 0xaa, 0xf2, 0x28,
  0xd5, 0x11, 0xb5, 0xa3, 0x25, 0xb2, 0x4f, 0x29, 0x0c, 0x4b, 0xc9, 0xbd, 0x1b, 0xfb, 0xfc, 0xc1,
  0x25, 0x3d, 0xd2, 0x1b, 0xc0, 0xf3, 0xcf, 0x00, 0x9d, 0xd1, 0xdd, 0x38, 0xdb, 0xcf, 0x4b, 0xe7,
  0xea, 0xf6, 0x01, 0xe6, 0xfd, 0xb4, 0x02, 0x2c, 0x25, 0xf0, 0xfc, 0x0d, 0xb9, 0xd2, 0x3e, 0x31,
  0x05, 0xcd, 0xc6, 0xcc, 0x38, 0xe4, 0xca, 0xca, 0xca, 0xfe, 0xaf, 0xdd, 0x08, 0xdb, 0x66, 0xf7,
  0xd9, 0x7b, 0x1d, 0xf8, 0x1c, 0x55, 0xaf, 0xd6, 0x11, 0x3b, 0xe9, 0xd0, 0x32, 0xdc, 0xd9, 0xc4,
  0x0d, 0x39, 0xea, 0xc0, 0x26, 0xfc, 0x27, 0x11, 0xd6, 0x29, 0xce, 0x06, 0x27, 0xec, 0x04, 0xa2,
  0xfa, 0x17, 0x03, 0xc7, 0xb7, 0x29, 0x35, 0xa7, 0x40, 0x31, 0x06, 0x1b, 0xd5, 0xef, 0x67, 0xa0,
  0xff, 0x4d, 0x00, 0xde, 0xb2, 0x42, 0xf4, 0xa9, 0x28, 0xb2, 0x02, 0xf8, 0xcb, 0xcd, 0x29, 0xe4,
  0x27, 0xb3, 0x9f, 0xc9, 0x39, 0xb1, 0x7f, 0xa6, 0xdd, 0x0f, 0x37, 0xe2, 0xbe, 0xb8, 0xf2, 0xbc,
  0xe9, 0xac, 0x07, 0x25, 0xc3, 0xf8, 0x29, 0xaa, 0xe9, 0x21, 0xaa, 0xf6, 0x3f, 0xd3, 0x1c, 0x28,
  0xb3, 0x55, 0xda, 0x17, 0xf7, 0xe0, 0xb5, 0xe8, 0xa2, 0x35, 0x10, 0xe0, 0x11, 0xd3, 0x35, 0x1d,
  0x42, 0xcd, 0x1c, 0xa9, 0x2d, 0xd7, 0x2d, 0xc2, 0xcd, 0x52, 0x21, 0x12, 0xc3, 0x16, 0x3e, 0xf8,
  0xc5, 0xb6, 0xe7, 0xee, 0xce, 0x18, 0x4c, 0xf4, 0x27, 0x32, 0xbe, 0xdb, 0x0d, 0xb4, 0x7d, 0xf5,
  0x28, 0xff, 0x1c, 0xf1, 0x11, 0xfb, 0x46, 0x00, 0x3a, 0xd7, 0xe3, 0xbb, 0x1e, 0xe1, 0xc8, 0x32,
  0xda, 0xd6, 0xd7, 0xc1, 0xe9, 0xcd, 0x2f, 0x0e, 0xeb, 0x03, 0x18, 0x24, 0x0a, 0xe7, 0xbe, 0xea,
  0x6a, 0x1b, 0xd7, 0xca, 0x29, 0xdb, 0xd5, 0xe7, 0x16, 0xd6, 0x33, 0x29, 0xf2, 0x69, 0xb8, 0x32,
  0xb9, 0xec, 0x59, 0x00, 0xe1, 0xb6, 0x0e, 0xfe, 0x06, 0xb9, 0x7f, 0x12, 0xc1, 0xdb, 0x96, 0x5e,
  0x1d, 0xce, 0x01, 0x55, 0x07, 0x4d, 0xf4, 0xe8, 0x1b, 0xee, 0x60, 0x11, 0xef, 0x40, 0x2b, 0x69,
  0xd3, 0xd3, 0x54, 0xb8, 0x06, 0x0d, 0xed, 0xc3, 0xbf, 0xd4, 0x77, 0x31, 0xf3, 0x22, 0xdb, 0x46,
  0xcd, 0x0e, 0x45, 0x17, 0xc8, 0x54, 0x41, 0xd3, 0x0f, 0x25, 0x0a, 0xc2, 0xfc, 0x32, 0xcb, 0x2b,
  0x47, 0xf1, 0xf1, 0xb3, 0x1f, 0x33, 0xb6, 0x00, 0x0b, 0x9d, 0xc4, 0x5d, 0x30, 0x05, 0xc2, 0x24,
  0x30, 0x4e, 0x14, 0xe6, 0x4f, 0x00, 0xb4, 0xd9, 0x31, 0xee, 0x54, 0xfd, 0xbb, 0xfe, 0x26, 0x04,
  0x34, 0x22, 0x2e, 0x62, 0xec, 0x09, 0x39, 0x40, 0x6c, 0x41, 0x5e, 0x1e, 0x02, 0xe9, 0xfb, 0xf0,
  0xed, 0xba, 0x6a, 0x49, 0x15, 0xe9, 0xf5, 0xd6, 0x35, 0x31, 0xf8, 0x30, 0x24, 0x2b, 0x47, 0x14,
  0x3b, 0x07, 0x47, 0x67, 0xf8, 0xcc, 0x01, 0xf1, 0x11, 0x30, 0x68, 0xc2, 0x13, 0x4f, 0xeb, 0xd8,
  0xe1, 0xce, 0x11, 0x07, 0x2e, 0x36, 0xc1, 0x66, 0xc8, 0xfe, 0x65, 0x43, 0x4b, 0x38, 0xd9, 0x32,
  0xda, 0x0c, 0x41, 0x04, 0x97, 0xf2, 0xfb, 0x1e, 0x44, 0xd8, 0xf0, 0x53, 0xee, 0x55, 0xde, 0x4a,
  0xbc, 0x57, 0x21, 0x52, 0x28, 0xba, 0x09, 0xdd, 0xb8, 0xcf, 0x59, 0xe2, 0x22, 0x4b, 0x16, 0xf4,
  0xd2, 0x05, 0xd2, 0xf3, 0xe0, 0x0c, 0xbd, 0xd3, 0xf4, 0x1d, 0x06, 0xe0, 0x05, 0xf3, 0xe2, 0xc7,
  0x11, 0x2c, 0x0e, 0xa1, 0x00, 0xca, 0x45, 0xb8, 0x31, 0x1e, 0xe6, 0x00, 0xd3, 0x1e, 0xf2, 0xb9,
  0xe5, 0x04, 0xc7, 0xc0, 0x11, 0x11, 0xcc, 0x1d, 0xf7, 0xc8, 0xce, 0xae, 0x2f, 0x43, 0x76, 0x2c,
  0xe4, 0xe8, 0xd3, 0xcf, 0xf1, 0xd5, 0xc9, 0xac, 0x0b, 0xcd, 0xc2, 0xce, 0x10, 0xe5, 0x31, 0xbd,
  0x27, 0x00, 0xd7, 0xf3, 0x29, 0xd7, 0xf0, 0x14, 0xfa, 0x6b, 0xdc, 0xc0, 0x23, 0x09, 0xe4, 0xff,
  0xb0, 0x27, 0xa9, 0x09, 0x00, 0xcd, 0x26, 0x9d, 0xad, 0x02, 0x08, 0xd6, 0xea, 0xc1, 0x16, 0xed,
  0xde, 0x65, 0x22, 0x0f, 0x25, 0x3b, 0xf0, 0x03, 0xbc, 0xfd, 0xaa, 0xc2, 0xee, 0xd8, 0xe6, 0xc2,
  0xe0, 0xfd, 0xb1, 0x07, 0x2f, 0xc2, 0x47, 0xf8, 0x14, 0x63, 0x1f, 0xe9, 0xfc, 0x18, 0xf2, 0xe2,
  0xec, 0xf0, 0xf7, 0x0a, 0x04, 0x26, 0x2c, 0xfc, 0x05, 0x1a, 0xdc, 0xea, 0xee, 0x2c, 0x14, 0x07,
  0xf4, 0xe5, 0xa6, 0xb5, 0xe8, 0xde, 0xd3, 0x04, 0x27, 0xf1, 0xc8, 0xdf, 0x20, 0xf4, 0x1e, 0xe0,
  0xe0, 0xc4, 0xec, 0xc5, 0x10, 0xbd, 0x68, 0xb6, 0xc5, 0xfc, 0xe1, 0xe1, 0x19, 0xab, 0xca, 0x40,
  0xe2, 0xd1, 0xf7, 0xd7, 0x46, 0x16, 0x2c, 0xc9, 0xb2, 0x0a, 0xf9, 0x13, 0xec, 0xd0, 0x31, 0x06,
  0x0d, 0x4f, 0xf5, 0x0d, 0x2f, 0xe6, 0xe9, 0xea, 0xe8, 0xb6, 0x02, 0xb1, 0x58, 0xb7, 0x06, 0x1c,
  0xdb, 0x09, 0xf0, 0xb7, 0x04, 0xb2, 0x7f, 0xc3, 0x08, 0x2b, 0x1b, 0xc9, 0x0e, 0x55, 0x14, 0xf2,
  0x2e, 0xe2, 0xe5, 0xee, 0xb9, 0xcd, 0xd2, 0xc5, 0xdf, 0x0a, 0xfb, 0xc4, 0x1f, 0xea, 0x62, 0xb8,
  0xc5, 0xff, 0x21, 0xff, 0xa1, 0xee, 0xc4, 0xc9, 0xf5, 0xcb, 0xaf, 0x00, 0x24, 0x34, 0xbe, 0xde,
  0xa2, 0xc0, 0x93, 0x1c, 0xec, 0xd6, 0xf2, 0x3f, 0x52, 0x64, 0x24, 0xeb, 0xbe, 0xe1, 0xc7, 0xfe,
  0x2e, 0xc2, 0xc3, 0xe5, 0x27, 0x2c, 0x27, 0xcb, 0x31, 0xe3, 0xfa, 0xd6, 0xea, 0xe7, 0xf3, 0x31,
  0x24, 0x31, 0x22, 0xfb, 0xfc, 0xf6, 0x90, 0xb1, 0xda, 0xf1, 0xb5, 0x11, 0x2b, 0xee, 0xee, 0xba,
  0xc3, 0xe0, 0x0d, 0xfa, 0x36, 0x9e, 0x3f, 0x26, 0x02, 0xf2, 0xbc, 0x0b, 0x29, 0xca, 0x02, 0x41,
  0x2c, 0x24, 0x3a, 0xa6, 0xcc, 0xba, 0x22, 0xaa, 0xd0, 0xbe, 0xcf, 0xd2, 0x0b, 0xec, 0x05, 0x14,
  0xa1, 0x33, 0xdd, 0xca, 0xe7, 0xde, 0xf3, 0xd2, 0xa7, 0x37, 0x0c, 0xc7, 0x09, 0xe3, 0x2e, 0xcd,
  0x37, 0xfe, 0x1c, 0xba, 0xd0, 0xb4, 0x63, 0xd4, 0x0f, 0x00, 0x1f, 0xab, 0xb8, 0xfe, 0x09, 0xdd,
  0x03, 0xbf, 0x38, 0xc5, 0x3c, 0xdd, 0x47, 0xe8, 0x2b, 0x3f, 0xe3, 0x29, 0x21, 0xe4, 0x5e, 0xd6,
  0xf9, 0x14, 0x8e, 0x05, 0xd0, 0x1f, 0x45, 0xc0, 0xd4, 0x18, 0xe1, 0xb5, 0xf2, 0xdb, 0xc5, 0x22,
  0x22, 0x04, 0x29, 0xc4, 0xce, 0xa3, 0x7f, 0xc8, 0xcd, 0x34, 0xc6, 0x1d, 0x48, 0x14, 0xbf, 0xc7,
  0x30, 0xc7, 0xbf, 0xfb, 0xfb, 0x02, 0xd0, 0xb6, 0x44, 0xe5, 0xbd, 0xca, 0xd7, 0xb6, 0x7b, 0xd5,
  0xab, 0x69, 0x1a, 0x13, 0xee, 0xc5, 0xee, 0x30, 0xed, 0x3e, 0xf3, 0x30, 0xc4, 0x0e, 0xcf, 0xcd,
  0x15, 0xde, 0xea, 0xe0, 0x28, 0x54, 0x8c, 0xf6, 0xe9, 0xbe, 0x65, 0xf7, 0x4e, 0xb1, 0xb1, 0xcd,
  0xe9, 0x33, 0x4f, 0x16, 0x2e, 0x18, 0x07, 0xf6, 0x1e, 0x34, 0xe5, 0x1f, 0xb0, 0xda, 0xe4, 0xb7,
  0x02, 0xda, 0x21, 0x51, 0x24, 0x0c, 0xbf, 0xd6, 0xcb, 0xc5, 0xee, 0xca, 0x39, 0x33, 0xfd, 0xf4,
  0xe8, 0xf0, 0xee, 0x1d, 0xd5, 0xea, 0xa1, 0x32, 0xd5, 0x14, 0xef, 0x13, 0x52, 0xda, 0x00, 0x27,
  0x0a, 0x28, 0xfa, 0xf1, 0xd6, 0x5a, 0x0b, 0xea, 0x1d, 0xd5, 0x10, 0xd1, 0xb5, 0x3f, 0xe3, 0x13,
  0x15, 0xe0, 0xab, 0x43, 0x34, 0x1e, 0xdf, 0xed, 0x29, 0x58, 0x4a, 0x34, 0xc0, 0xff, 0x81, 0x4f,
  0xed, 0x50, 0xd3, 0x66, 0xb6, 0xe0, 0xb6, 0x3c, 0xe3, 0x25, 0xf0, 0xeb, 0xe7, 0x20, 0x2c, 0xe8,
  0x67, 0x3b, 0xd0, 0xe0, 0x10, 0xc3, 0x01, 0xdb, 0xd9, 0x04, 0x08, 0x07, 0x3c, 0x5f, 0x16, 0xd0,
  0xb1, 0x3b, 0xdd, 0x3b, 0x23, 0x2a, 0x28, 0x0d, 0x1e, 0x25, 0x33, 0x3c, 0x34, 0xd8, 0xbc, 0xc9,
  0x42, 0xb8, 0x12, 0x01, 0xda, 0x37, 0xda, 0x43, 0xda, 0xbe, 0x25, 0x15, 0x2b, 0x0a, 0x14, 0x2e,
  0x5d, 0x39, 0xc9, 0x13, 0xd6, 0x25, 0xf1, 0x06, 0x05, 0xfd, 0xfc, 0x39, 0xaf, 0x3b, 0xef, 0xfb,
  0xc7, 0x21, 0xb5, 0xc8, 0x50, 0x1e, 0x24, 0xee, 0xf9, 0x1d, 0xd1, 0x32, 0xff, 0xed, 0x17, 0x34,
  0x1c, 0x1f, 0xd0, 0x15, 0xd5, 0xdd, 0xc4, 0x1d, 0x35, 0xdf, 0x07, 0x3a, 0xb9, 0x5d, 0x37, 0x8f,
  0x19, 0x02, 0xf4, 0xb4, 0xe1, 0xdc, 0x54, 0x93, 0xaf, 0xe3, 0x9b, 0xab, 0x2a, 0xd6, 0x0d, 0x32,
  0x3a, 0xcf, 0xad, 0xfd, 0xdc, 0xf9, 0x38, 0x41, 0xbf, 0x13, 0x00, 0x95, 0xcf, 0xeb, 0xe7, 0xda,
  0x2d, 0x97, 0xa1, 0x84, 0x3d, 0xcd, 0x7f, 0x22, 0x4b, 0x69, 0xc8, 0xe5, 0xa2, 0x2c, 0x41, 0x1c,
  0x20, 0xe1, 0xb1, 0x36, 0xcc, 0xc0, 0x4a, 0xcd, 0x0f, 0x2c, 0xdb, 0x25, 0x41, 0x0d, 0x73, 0x15,
  0x13, 0x12, 0x17, 0xe5, 0xc5, 0xfe, 0x1a, 0x24, 0x2c, 0xdd, 0x16, 0x3a, 0xf9, 0xae, 0xe5, 0x1d,
  0xa6, 0x0d, 0xb1, 0x32, 0x9a, 0x0e, 0x0f, 0x11, 0xab, 0xcd, 0xf0, 0xbd, 0x00, 0x20, 0x19, 0xc8,
  0x2d, 0xa3, 0xdd, 0x29, 0xfb, 0xe6, 0x1b, 0xb1, 0xde, 0x1a, 0x9f, 0xdc, 0xe8, 0x29, 0x6e, 0xc7,
  0xc8, 0x10, 0xa2, 0xa1, 0xae, 0x16, 0x1e, 0xf0, 0xda, 0xc5, 0xb0, 0x20, 0xd2, 0xe7, 0xf5, 0x12,
  0x39, 0xd1, 0xaa, 0xf6, 0xf9, 0xa6, 0x71, 0xba, 0x47, 0xd3, 0x1e, 0xf2, 0xbf, 0x30, 0x20, 0x51,
  0xa6, 0x88, 0xc8, 0xe8, 0x35, 0xcc, 0xd5, 0xe4, 0xe8, 0x51, 0xd5, 0xa7, 0x19, 0x8c, 0x5d, 0x34,
  0x97, 0x51, 0x21, 0xf7, 0xb8, 0xd0, 0x13, 0xde, 0x27, 0xd9, 0xc0, 0x34, 0x53, 0xcd, 0x59, 0x16,
  0xfb, 0x0c, 0xab, 0xf8, 0x3e, 0x8f, 0x6a, 0x0e, 0xae, 0x15, 0xee, 0x2f, 0x1e, 0xe2, 0x0b, 0x23,
  0xb2, 0x12, 0xb7, 0xd6, 0x13, 0xf2, 0xc1, 0x50, 0xda, 0xc0, 0x28, 0x14, 0x17, 0xd1, 0x34, 0xf4,
  0x9c, 0x70, 0xd0, 0x54, 0x50, 0xeb, 0x2e, 0xf0, 0xdf, 0x19, 0x55, 0x62, 0x46, 0x05, 0x96, 0xfe,
  0xee, 0xbe, 0x19, 0x22, 0x14, 0x6c, 0x9a, 0xb1, 0xe5, 0x24, 0xcb, 0xd0, 0x53, 0xb4, 0x06, 0x5e,
  0x5e, 0x09, 0xe7, 0xc9, 0xdf, 0x4f, 0x2b, 0xfc, 0x05, 0x20, 0x25, 0x0e, 0xad, 0x51, 0x08, 0xd9,
  0x03, 0xbb, 0x5a, 0xd4, 0xe8, 0xd9, 0x01, 0x11, 0x31, 0x57, 0x29, 0xd7, 0xd4, 0x03, 0xcc, 0x06,
  0x17, 0x0b, 0x29, 0x31, 0x06, 0x48, 0x97, 0xb8, 0xf6, 0x1a, 0xc9, 0xc8, 0x45, 0x30, 0xf3, 0x1e,
  0x2e, 0xbd, 0x66, 0x5a, 0xf8, 0xf6, 0xd2, 0x41, 0xff, 0xe0, 0xfe, 0x1c, 0x1c, 0x2e, 0x34, 0x3a,
  0xe0, 0xc7, 0xd9, 0x12, 0x46, 0xff, 0xbe, 0xdd, 0x31, 0xc1, 0x2e, 0x46, 0x43, 0xf2, 0xa8, 0x19,
  0xcf, 0xb9, 0x52, 0x14, 0x41, 0xcb, 0xbd, 0x2b, 0xa0, 0x9a, 0x03, 0x10, 0x07, 0x68, 0xb6, 0x29,
  0x37, 0xd2, 0xd7, 0xc0, 0x58, 0x0a, 0xff, 0x3a, 0xee, 0x53, 0x39, 0xde, 0xb0, 0x20, 0xa3, 0x4f,
  0x04, 0x2a, 0xd5, 0x40, 0xcc, 0x16, 0xf2, 0x23, 0x1b, 0x14, 0xcf, 0xde, 0xe7, 0x3f, 0xe8, 0x05,
  0xe9, 0x42, 0xeb, 0x0b, 0xed, 0x52, 0x1e, 0x3f, 0x26, 0x04, 0x36, 0xfa, 0xb7, 0x26, 0xf8, 0x57,
  0xd8, 0x2c, 0x68, 0x7f, 0x14, 0xc0, 0x9c, 0x18, 0xef, 0x0c, 0xe9, 0x47, 0xff, 0x3a, 0x10, 0xec,
  0x0b, 0xfc, 0x20, 0xc7, 0x4a, 0x4b, 0xdd, 0xed, 0xd1, 0xcf, 0x50, 0xec, 0xe6, 0xff, 0x2b, 0xdd,
  0x10, 0x1e, 0x4b, 0x10, 0x4c, 0x08, 0xb4, 0xda, 0xc0, 0xf3, 0x11, 0x4f, 0xdd, 0x05, 0xf1, 0x0c,
  0xc9, 0x2b, 0x1d, 0x18, 0x24, 0x12, 0x0c, 0xd3, 0xf2, 0xdf, 0x03, 0xdd, 0xd4, 0xc6, 0x02, 0x0f,
  0x41, 0x53, 0xf1, 0xdd, 0x12, 0x1b, 0xce, 0xe0, 0xf9, 0x03, 0xff, 0x27, 0x0b, 0xda, 0x26, 0xcf,
  0xc1, 0xd3, 0x04, 0x99, 0xc0, 0xf8, 0x71, 0xad, 0x56, 0x2e, 0x1b, 0xb8, 0xc2, 0x37, 0xbb, 0xd3,
  0x0f, 0xe6, 0xf6, 0x2e, 0x3c, 0xf2, 0x1a, 0xb1, 0xd4, 0xf6, 0xc9, 0x01, 0xf7, 0xde, 0x18, 0xb8,
  0x3e, 0x3e, 0xeb, 0xf0, 0xba, 0xb4, 0xff, 0xe9, 0x0f, 0xea, 0xec, 0xc6, 0x1d, 0xcc, 0x35, 0xd1,
  0x37, 0xc5, 0x02, 0xae, 0xac, 0xb7, 0x6d, 0x13, 0xfd, 0xf2, 0x1e, 0xc6, 0x24, 0x0c, 0xeb, 0x2a,
  0xc6, 0x37, 0xf5, 0xf2, 0x13, 0xe0, 0xfa, 0x01, 0x02, 0xd7, 0xc4, 0x27, 0xf9, 0x2c, 0x38, 0xfc,
  0xe2, 0x60, 0xaf, 0x0b, 0xd0, 0xb1, 0xa4, 0x1f, 0xf2, 0xcf, 0xd9, 0xda, 0x28, 0x11, 0x20, 0xd3,
  0x3a, 0xe6, 0xfb, 0xe7, 0x38, 0xd5, 0x54, 0xa8, 0xe2, 0xe9, 0xf4, 0x12, 0x0b, 0x04, 0xcc, 0x0f,
  0xe1, 0xaf, 0xcc, 0xa6, 0xf1, 0x20, 0xdb, 0xb0, 0x02, 0xde, 0xb3, 0x01, 0x42, 0xe8, 0x16, 0xef,
  0x0d, 0x4e, 0xdb, 0x1e, 0x25, 0xa9, 0xc4, 0x01, 0xf2, 0xca, 0xda, 0x1e, 0x1a, 0x29, 0x0e, 0xd1,
  0x1f, 0x2e, 0xa8, 0x28, 0x4e, 0x21, 0x7f, 0xc7, 0x20, 0x13, 0xdf, 0xce, 0xc5, 0x0c, 0xd7, 0xe9,
  0x0e, 0xbf, 0xc6, 0xa6, 0xdd, 0x2f, 0xde, 0xe3, 0x46, 0x07, 0xfd, 0xe6, 0x18, 0x9e, 0x3f, 0x22,
  0xa5, 0x53, 0xaf, 0x11, 0xe3, 0x9e, 0x01, 0xbe, 0x2f, 0xd9, 0x53, 0xec, 0x07, 0x93, 0x1d, 0x56,
  0xb6, 0xa5, 0xea, 0x2f, 0x05, 0xce, 0xe0, 0xfd, 0x3a, 0x9d, 0x6b, 0x71, 0xe8, 0xa5, 0x9d, 0x77,
  0x4f, 0xe6, 0x54, 0x51, 0xf4, 0xe4, 0xbc, 0xe3, 0x46, 0xf5, 0xe7, 0x63, 0x4e, 0x58, 0x0f, 0x4d,
  0xee, 0xb7, 0x5f, 0x65, 0x5a, 0x04, 0xfa, 0x4c, 0xdd, 0xf9, 0xdc, 0x29, 0xe4, 0x40, 0xc6, 0xf1,
  0xf4, 0xf0, 0x7e, 0x38, 0x13, 0x4f, 0xf0, 0x1d, 0x2a, 0xdd, 0xf9, 0xfa, 0xfb, 0xa9, 0x27, 0x5f,
  0x54, 0xb3, 0xb3, 0x49, 0xc0, 0xc6, 0x04, 0x48, 0x42, 0x33, 0x54, 0x39, 0x2f, 0x5a, 0x1b, 0xdf,
  0xc6, 0x4b, 0xfe, 0x6a, 0xeb, 0x4a, 0xee, 0x50, 0x63, 0x73, 0x0b, 0x55, 0xfb, 0x27, 0xde, 0xca,
  0xaa, 0x18, 0xda, 0x03, 0xd5, 0x10, 0x89, 0x16, 0xb8, 0x94, 0x05, 0xd9, 0x6b, 0xe8, 0x18, 0x54,
  0xd9, 0xb5, 0xe3, 0x3e, 0x1e, 0xf6, 0xf4, 0xd9, 0xc4, 0x49, 0x7f, 0xd5, 0x5a, 0x21, 0xe3, 0xd1,
  0xa8, 0xd1, 0x38, 0xf3, 0x19, 0x5f, 0xf7, 0xda, 0xe7, 0xed, 0x54, 0x5b, 0x5d, 0x3c, 0xe7, 0xdf,
  0xc6, 0x4a, 0xf2, 0xe3, 0x30, 0x1d, 0xfd, 0xe3, 0xcc, 0xb2, 0xe0, 0xe2, 0x1b, 0x39, 0xfa, 0x40,
  0x6b, 0xe0, 0xf9, 0x50, 0xc8, 0x58, 0xac, 0x26, 0x5d, 0x32, 0x77, 0x4c, 0xf6, 0x16, 0xf4, 0xdd,
  0x41, 0xe7, 0x4a, 0x56, 0xff, 0x46, 0x53, 0x38, 0x47, 0xac, 0x42, 0x48, 0x3a, 0xc2, 0xfd, 0xb4,
  0xf8, 0xcc, 0xfc, 0xd2, 0xf1, 0x5f, 0xd1, 0x58, 0xdb, 0xe3, 0x74, 0xdb, 0x5e, 0xfe, 0xff, 0xff,
  0x04, 0x00, 0x00, 0x00, 0x80, 0x00, 0x00, 0x00, 0xb7, 0x5f, 0x00, 0x00, 0xba, 0x78, 0xff, 0xff,
  0x2d, 0xb9, 0xff, 0xff, 0xc8, 0xae, 0xff, 0xff, 0x1e, 0x6e, 0x00, 0x00, 0xd0, 0x90, 0xff, 0xff,
  0x43, 0x99, 0x00, 0x00, 0x44, 0x79, 0xff, 0xff, 0xac, 0x53, 0x00, 0x00, 0x21, 0x5a, 0x00, 0x00,
  0x7f, 0x63, 0x00, 0x00, 0x33, 0xc0, 0xff, 0xff, 0x39, 0x8e, 0xff, 0xff, 0x8a, 0x27, 0x00, 0x00,
  0x6a, 0xba, 0xff, 0xff, 0xc7, 0xa0, 0x00, 0x00, 0x6d, 0x6a, 0xff, 0xff, 0xf9, 0xa6, 0xff, 0xff,
  0x34, 0xbf, 0xff, 0xff, 0x3b, 0xd6, 0xff, 0xff, 0x9b, 0x88, 0x00, 0x00, 0xe8, 0xd8, 0xff, 0xff,
  0x7d, 0x83, 0x00, 0x00, 0x41, 0x68, 0x00, 0x00, 0x17, 0x91, 0xff, 0xff, 0xc9, 0x78, 0x00, 0x00,
  0xd1, 0x8a, 0x00, 0x00, 0x7f, 0xf8, 0xff, 0xff, 0x2c, 0x81, 0x00, 0x00, 0xb6, 0xbd, 0xff, 0xff,
  0xe8, 0x4f, 0x00, 0x00, 0x81, 0x90, 0xff, 0xff, 0xea, 0xfe, 0xff, 0xff, 0x04, 0x00, 0x00, 0x00,
  0x40, 0x00, 0x00, 0x00, 0x95, 0x3b, 0x2c, 0x54, 0x97, 0x0c, 0x8e, 0x43, 0xb4, 0xf7, 0xdd, 0x78,
  0x21, 0x35, 0x21, 0x9b, 0xfb, 0x60, 0x61, 0x29, 0xdc, 0x54, 0x92, 0xb3, 0x51, 0x81, 0x8d, 0x72,
  0x87, 0x24, 0xb4, 0x6b, 0x04, 0xb8, 0xa3, 0x05, 0xfa, 0xdf, 0x77, 0xaf, 0x1b, 0x78, 0x62, 0xef,
  0xb3, 0x8b, 0xf3, 0x71, 0x8e, 0xb4, 0x04, 0xcd, 0x40, 0x29, 0x28, 0x33, 0x10, 0xc5, 0x48, 0xa1,
  0x7f, 0xa6, 0x13, 0xe1, 0x36, 0xff, 0xff, 0xff, 0x04, 0x00, 0x00, 0x00, 0x08, 0x00, 0x00, 0x00,
  0x2e, 0xff, 0xff, 0xff, 0xcd, 0x00, 0x00, 0x00, 0x4a, 0xff, 0xff, 0xff, 0x04, 0x00, 0x00, 0x00,
  0x08, 0x00, 0x00, 0x00, 0x01, 0x00, 0x00, 0x00, 0x02, 0x00, 0x00, 0x00, 0x80, 0xec, 0xff, 0xff,
  0x84, 0xec, 0xff, 0xff, 0x0f, 0x00, 0x00, 0x00, 0x4d, 0x4c, 0x49, 0x52, 0x20, 0x43, 0x6f, 0x6e,
  0x76, 0x65, 0x72, 0x74, 0x65, 0x64, 0x2e, 0x00, 0x01, 0x00, 0x00, 0x00, 0x14, 0x00, 0x00, 0x00,
  0x00, 0x00, 0x0e, 0x00, 0x18, 0x00, 0x14, 0x00, 0x10, 0x00, 0x0c, 0x00, 0x08, 0x00, 0x04, 0x00,
  0x0e, 0x00, 0x00, 0x00, 0x14, 0x00, 0x00, 0x00, 0x1c, 0x00, 0x00, 0x00, 0x00, 0x02, 0x00, 0x00,
  0x04, 0x02, 0x00, 0x00, 0x08, 0x02, 0x00, 0x00, 0x04, 0x00, 0x00, 0x00, 0x6d, 0x61, 0x69, 0x6e,
  0x00, 0x00, 0x00, 0x00, 0x07, 0x00, 0x00, 0x00, 0x9c, 0x01, 0x00, 0x00, 0x4c, 0x01, 0x00, 0x00,
  0x0c, 0x01, 0x00, 0x00, 0xcc, 0x00, 0x00, 0x00, 0x98, 0x00, 0x00, 0x00, 0x50, 0x00, 0x00, 0x00,
  0x14, 0x00, 0x00, 0x00, 0x00, 0x00, 0x0e, 0x00, 0x1a, 0x00, 0x14, 0x00, 0x10, 0x00, 0x0c, 0x00,
  0x0b, 0x00, 0x04, 0x00, 0x0e, 0x00, 0x00, 0x00, 0x1c, 0x00, 0x00, 0x00, 0x00, 0x00, 0x00, 0x09,
  0x1c, 0x00, 0x00, 0x00, 0x20, 0x00, 0x00, 0x00, 0x03, 0x00, 0x00, 0x00, 0x00, 0x00, 0x06, 0x00,
  0x08, 0x00, 0x04, 0x00, 0x06, 0x00, 0x00, 0x00, 0x00, 0x00, 0x80, 0x3f, 0x01, 0x00, 0x00, 0x00,
  0x12, 0x00, 0x00, 0x00, 0x01, 0x00, 0x00, 0x00, 0x11, 0x00, 0x00, 0x00, 0xca, 0xff, 0xff, 0xff,
  0x14, 0x00, 0x00, 0x00, 0x00, 0x00, 0x00, 0x08, 0x10, 0x00, 0x00, 0x00, 0x14, 0x00, 0x00, 0x00,
  0x02, 0x00, 0x00, 0x00, 0x58, 0xed, 0xff, 0xff, 0x01, 0x00, 0x00, 0x00, 0x11, 0x00, 0x00, 0x00,
  0x03, 0x00, 0x00, 0x00, 0x10, 0x00, 0x00, 0x00, 0x03, 0x00, 0x00, 0x00, 0x02, 0x00, 0x00, 0x00,
  0x00, 0x00, 0x0e, 0x00, 0x18, 0x00, 0x14, 0x00, 0x10, 0x00, 0x0c, 0x00, 0x0b, 0x00, 0x04, 0x00,
  0x0e, 0x00, 0x00, 0x00, 0x14, 0x00, 0x00, 0x00, 0x00, 0x00, 0x00, 0x1b, 0x10, 0x00, 0x00, 0x00,
  0x14, 0x00, 0x00, 0x00, 0x01, 0x00, 0x00, 0x00, 0x9c, 0xed, 0xff, 0xff, 0x01, 0x00, 0x00, 0x00,
  0x10, 0x00, 0x00, 0x00, 0x02, 0x00, 0x00, 0x00, 0x0f, 0x00, 0x00, 0x00, 0x01, 0x00, 0x00, 0x00,
  0x4a, 0xff, 0xff, 0xff, 0x10, 0x00, 0x00, 0x00, 0x00, 0x00, 0x00, 0x01, 0x18, 0x00, 0x00, 0x00,
  0x1c, 0x00, 0x00, 0x00, 0x3c, 0xff, 0xff, 0xff, 0x00, 0x00, 0x00, 0x01, 0x02, 0x00, 0x00, 0x00,
  0x02, 0x00, 0x00, 0x00, 0x01, 0x00, 0x00, 0x00, 0x0f, 0x00, 0x00, 0x00, 0x03, 0x00, 0x00, 0x00,
  0x0e, 0x00, 0x00, 0x00, 0x05, 0x00, 0x00, 0x00, 0x04, 0x00, 0x00, 0x00, 0x86, 0xff, 0xff, 0xff,
  0x10, 0x00, 0x00, 0x00, 0x00, 0x00, 0x00, 0x01, 0x18, 0x00, 0x00, 0x00, 0x1c, 0x00, 0x00, 0x00,
  0x78, 0xff, 0xff, 0xff, 0x00, 0x00, 0x00, 0x01, 0x02, 0x00, 0x00, 0x00, 0x02, 0x00, 0x00, 0x00,
  0x01, 0x00, 0x00, 0x00, 0x0e, 0x00, 0x00, 0x00, 0x03, 0x00, 0x00, 0x00, 0x0d, 0x00, 0x00, 0x00,
  0x07, 0x00, 0x00, 0x00, 0x06, 0x00, 0x00, 0x00, 0xc2, 0xff, 0xff, 0xff, 0x10, 0x00, 0x00, 0x00,
  0x00, 0x00, 0x00, 0x01, 0x18, 0x00, 0x00, 0x00, 0x1c, 0x00, 0x00, 0x00, 0xb4, 0xff, 0xff, 0xff,
  0x00, 0x00, 0x00, 0x01, 0x02, 0x00, 0x00, 0x00, 0x02, 0x00, 0x00, 0x00, 0x01, 0x00, 0x00, 0x00,
  0x0d, 0x00, 0x00, 0x00, 0x03, 0x00, 0x00, 0x00, 0x0c, 0x00, 0x00, 0x00, 0x09, 0x00, 0x00, 0x00,
  0x08, 0x00, 0x00, 0x00, 0x00, 0x00, 0x0e, 0x00, 0x14, 0x00, 0x00, 0x00, 0x10, 0x00, 0x0c, 0x00,
  0x0b, 0x00, 0x04, 0x00, 0x0e, 0x00, 0x00, 0x00, 0x1c, 0x00, 0x00, 0x00, 0x00, 0x00, 0x00, 0x01,
  0x24, 0x00, 0x00, 0x00, 0x28, 0x00, 0x00, 0x00, 0x0c, 0x00, 0x10, 0x00, 0x00, 0x00, 0x0c, 0x00,
  0x08, 0x00, 0x07, 0x00, 0x0c, 0x00, 0x00, 0x00, 0x00, 0x00, 0x00, 0x01, 0x02, 0x00, 0x00, 0x00,
  0x02, 0x00, 0x00, 0x00, 0x01, 0x00, 0x00, 0x00, 0x0c, 0x00, 0x00, 0x00, 0x03, 0x00, 0x00, 0x00,
  0x00, 0x00, 0x00, 0x00, 0x0b, 0x00, 0x00, 0x00, 0x0a, 0x00, 0x00, 0x00, 0x01, 0x00, 0x00, 0x00,
  0x12, 0x00, 0x00, 0x00, 0x01, 0x00, 0x00, 0x00, 0x00, 0x00, 0x00, 0x00, 0x13, 0x00, 0x00, 0x00,
  0x68, 0x11, 0x00, 0x00, 0x0c, 0x11, 0x00, 0x00, 0x84, 0x10, 0x00, 0x00, 0x10, 0x10, 0x00, 0x00,
  0x3c, 0x0e, 0x00, 0x00, 0x58, 0x0c, 0x00, 0x00, 0xe4, 0x0a, 0x00, 0x00, 0x60, 0x09, 0x00, 0x00,
  0x4c, 0x08, 0x00, 0x00, 0x28, 0x07, 0x00, 0x00, 0x74, 0x06, 0x00, 0x00, 0xb0, 0x05, 0x00, 0x00,
  0xac, 0x04, 0x00, 0x00, 0xa8, 0x03, 0x00, 0x00, 0xa4, 0x02, 0x00, 0x00, 0xa0, 0x01, 0x00, 0x00,
  0x24, 0x01, 0x00, 0x00, 0x80, 0x00, 0x00, 0x00, 0x04, 0x00, 0x00, 0x00, 0xfa, 0xee, 0xff, 0xff,
  0x00, 0x00, 0x00, 0x01, 0x18, 0x00, 0x00, 0x00, 0x20, 0x00, 0x00, 0x00, 0x3c, 0x00, 0x00, 0x00,
  0x13, 0x00, 0x00, 0x00, 0x00, 0x00, 0x00, 0x09, 0x50, 0x00, 0x00, 0x00, 0x02, 0x00, 0x00, 0x00,
  0xff, 0xff, 0xff, 0xff, 0x02, 0x00, 0x00, 0x00, 0xdc, 0xee, 0xff, 0xff, 0x08, 0x00, 0x00, 0x00,
  0x10, 0x00, 0x00, 0x00, 0x01, 0x00, 0x00, 0x00, 0x80, 0xff, 0xff, 0xff, 0xff, 0xff, 0xff, 0xff,
  0x01, 0x00, 0x00, 0x00, 0x00, 0x00, 0x80, 0x3b, 0x1b, 0x00, 0x00, 0x00, 0x53, 0x74, 0x61, 0x74,
  0x65, 0x66, 0x75, 0x6c, 0x50, 0x61, 0x72, 0x74, 0x69, 0x74, 0x69, 0x6f, 0x6e, 0x65, 0x64, 0x43,
  0x61, 0x6c, 0x6c, 0x5f, 0x31, 0x3a, 0x30, 0x00, 0x02, 0x00, 0x00, 0x00, 0x01, 0x00, 0x00, 0x00,
  0x02, 0x00, 0x00, 0x00, 0x72, 0xef, 0xff, 0xff, 0x00, 0x00, 0x00, 0x01, 0x18, 0x00, 0x00, 0x00,
  0x20, 0x00, 0x00, 0x00, 0x3c, 0x00, 0x00, 0x00, 0x12, 0x00, 0x00, 0x00, 0x00, 0x00, 0x00, 0x09,
  0x78, 0x00, 0x00, 0x00, 0x02, 0x00, 0x00, 0x00, 0xff, 0xff, 0xff, 0xff, 0x02, 0x00, 0x00, 0x00,
  0x54, 0xef, 0xff, 0xff, 0x08, 0x00, 0x00, 0x00, 0x10, 0x00, 0x00, 0x00, 0x01, 0x00, 0x00, 0x00,
  0xf8, 0xff, 0xff, 0xff, 0xff, 0xff, 0xff, 0xff, 0x01, 0x00, 0x00, 0x00, 0x0f, 0xff, 0x47, 0x3d,
  0x42, 0x00, 0x00, 0x00, 0x50, 0x65, 0x72, 0x73, 0x6f, 0x6e, 0x44, 0x65, 0x74, 0x65, 0x63, 0x74,
  0x6f, 0x72, 0x5f, 0x31, 0x2f, 0x6f, 0x75, 0x74, 0x70, 0x75, 0x74, 0x5f, 0x31, 0x2f, 0x4d, 0x61,
  0x74, 0x4d, 0x75, 0x6c, 0x3b, 0x50, 0x65, 0x72, 0x73, 0x6f, 0x6e, 0x44, 0x65, 0x74, 0x65, 0x63,
  0x74, 0x6f, 0x72, 0x5f, 0x31, 0x2f, 0x6f, 0x75, 0x74, 0x70, 0x75, 0x74, 0x5f, 0x31, 0x2f, 0x42,
  0x69, 0x61, 0x73, 0x41, 0x64, 0x64, 0x00, 0x00, 0x02, 0x00, 0x00, 0x00, 0x01, 0x00, 0x00, 0x00,
  0x02, 0x00, 0x00, 0x00, 0x12, 0xf0, 0xff, 0xff, 0x00, 0x00, 0x00, 0x01, 0x18, 0x00, 0x00, 0x00,
  0x20, 0x00, 0x00, 0x00, 0x3c, 0x00, 0x00, 0x00, 0x11, 0x00, 0x00, 0x00, 0x00, 0x00, 0x00, 0x09,
  0x50, 0x00, 0x00, 0x00, 0x02, 0x00, 0x00, 0x00, 0xff, 0xff, 0xff, 0xff, 0x20, 0x00, 0x00, 0x00,
  0xf4, 0xef, 0xff, 0xff, 0x08, 0x00, 0x00, 0x00, 0x10, 0x00, 0x00, 0x00, 0x01, 0x00, 0x00, 0x00,
  0x80, 0xff, 0xff, 0xff, 0xff, 0xff, 0xff, 0xff, 0x01, 0x00, 0x00, 0x00, 0x9e, 0xd9, 0x17, 0x3c,
  0x1b, 0x00, 0x00, 0x00, 0x50, 0x65, 0x72, 0x73, 0x6f, 0x6e, 0x44, 0x65, 0x74, 0x65, 0x63, 0x74,
  0x6f, 0x72, 0x5f, 0x31, 0x2f, 0x67, 0x61, 0x70, 0x5f, 0x31, 0x2f, 0x4d, 0x65, 0x61, 0x6e, 0x00,
  0x02, 0x00, 0x00, 0x00, 0x01, 0x00, 0x00, 0x00, 0x20, 0x00, 0x00, 0x00, 0x8a, 0xf0, 0xff, 0xff,
  0x00, 0x00, 0x00, 0x01, 0x18, 0x00, 0x00, 0x00, 0x28, 0x00, 0x00, 0x00, 0x48, 0x00, 0x00, 0x00,
  0x10, 0x00, 0x00, 0x00, 0x00, 0x00, 0x00, 0x09, 0xd0, 0x00, 0x00, 0x00, 0x04, 0x00, 0x00, 0x00,
  0xff, 0xff, 0xff, 0xff, 0x06, 0x00, 0x00, 0x00, 0x06, 0x00, 0x00, 0x00, 0x20, 0x00, 0x00, 0x00,
  0x74, 0xf0, 0xff, 0xff, 0x08, 0x00, 0x00, 0x00, 0x14, 0x00, 0x00, 0x00, 0x01, 0x00, 0x00, 0x00,
  0x80, 0xff, 0xff, 0xff, 0xff, 0xff, 0xff, 0xff, 0x00, 0x00, 0x00, 0x00, 0x01, 0x00, 0x00, 0x00,
  0x90, 0x99, 0xba, 0x3c, 0x8e, 0x00, 0x00, 0x00, 0x50, 0x65, 0x72, 0x73, 0x6f, 0x6e, 0x44, 0x65,
  0x74, 0x65, 0x63, 0x74, 0x6f, 0x72, 0x5f, 0x31, 0x2f, 0x72, 0x65, 0x6c, 0x75, 0x34, 0x5f, 0x31,
  0x2f, 0x52, 0x65, 0x6c, 0x75, 0x3b, 0x50, 0x65, 0x72, 0x73, 0x6f, 0x6e, 0x44, 0x65, 0x74, 0x65,
  0x63, 0x74, 0x6f, 0x72, 0x5f, 0x31, 0x2f, 0x62, 0x6e, 0x34, 0x5f, 0x31, 0x2f, 0x62, 0x61, 0x74,
  0x63, 0x68, 0x6e, 0x6f, 0x72, 0x6d, 0x2f, 0x61, 0x64, 0x64, 0x5f, 0x31, 0x3b, 0x50, 0x65, 0x72,
  0x73, 0x6f, 0x6e, 0x44, 0x65, 0x74, 0x65, 0x63, 0x74, 0x6f, 0x72, 0x5f, 0x31, 0x2f, 0x63, 0x6f,
  0x6e, 0x76, 0x34, 0x5f, 0x31, 0x2f, 0x63, 0x6f, 0x6e, 0x76, 0x6f, 0x6c, 0x75, 0x74, 0x69, 0x6f,
  0x6e, 0x3b, 0x50, 0x65, 0x72, 0x73, 0x6f, 0x6e, 0x44, 0x65, 0x74, 0x65, 0x63, 0x74, 0x6f, 0x72,
  0x5f, 0x31, 0x2f, 0x62, 0x6e, 0x34, 0x5f, 0x31, 0x2f, 0x62, 0x61, 0x74, 0x63, 0x68, 0x6e, 0x6f,
  0x72, 0x6d, 0x2f, 0x73, 0x75, 0x62, 0x00, 0x00, 0x04, 0x00, 0x00, 0x00, 0x01, 0x00, 0x00, 0x00,
  0x06, 0x00, 0x00, 0x00, 0x06, 0x00, 0x00, 0x00, 0x20, 0x00, 0x00, 0x00, 0x8a, 0xf1, 0xff, 0xff,
  0x00, 0x00, 0x00, 0x01, 0x18, 0x00, 0x00, 0x00, 0x28, 0x00, 0x00, 0x00, 0x48, 0x00, 0x00, 0x00,
  0x0f, 0x00, 0x00, 0x00, 0x00, 0x00, 0x00, 0x09, 0xd0, 0x00, 0x00, 0x00, 0x04, 0x00, 0x00, 0x00,
  0xff, 0xff, 0xff, 0xff, 0x0c, 0x00, 0x00, 0x00, 0x0c, 0x00, 0x00, 0x00, 0x18, 0x00, 0x00, 0x00,
  0x74, 0xf1, 0xff, 0xff, 0x08, 0x00, 0x00, 0x00, 0x14, 0x00, 0x00, 0x00, 0x01, 0x00, 0x00, 0x00,
  0x80, 0xff, 0xff, 0xff, 0xff, 0xff, 0xff, 0xff, 0x00, 0x00, 0x00, 0x00, 0x01, 0x00, 0x00, 0x00,
  0xfe, 0x2d, 0xbf, 0x3c, 0x8e, 0x00, 0x00, 0x00, 0x50, 0x65, 0x72, 0x73, 0x6f, 0x6e, 0x44, 0x65,
  0x74, 0x65, 0x63, 0x74, 0x6f, 0x72, 0x5f, 0x31, 0x2f, 0x72, 0x65, 0x6c, 0x75, 0x33, 0x5f, 0x31,
  0x2f, 0x52, 0x65, 0x6c, 0x75, 0x3b, 0x50, 0x65, 0x72, 0x73, 0x6f, 0x6e, 0x44, 0x65, 0x74, 0x65,
  0x63, 0x74, 0x6f, 0x72, 0x5f, 0x31, 0x2f, 0x62, 0x6e, 0x33, 0x5f, 0x31, 0x2f, 0x62, 0x61, 0x74,
  0x63, 0x68, 0x6e, 0x6f, 0x72, 0x6d, 0x2f, 0x61, 0x64, 0x64, 0x5f, 0x31, 0x3b, 0x50, 0x65, 0x72,
  0x73, 0x6f, 0x6e, 0x44, 0x65, 0x74, 0x65, 0x63, 0x74, 0x6f, 0x72, 0x5f, 0x31, 0x2f, 0x63, 0x6f,
  0x6e, 0x76, 0x33, 0x5f, 0x31, 0x2f, 0x63, 0x6f, 0x6e, 0x76, 0x6f, 0x6c, 0x75, 0x74, 0x69, 0x6f,
  0x6e, 0x3b, 0x50, 0x65, 0x72, 0x73, 0x6f, 0x6e, 0x44, 0x65, 0x74, 0x65, 0x63, 0x74, 0x6f, 0x72,
  0x5f, 0x31, 0x2f, 0x62, 0x6e, 0x33, 0x5f, 0x31, 0x2f, 0x62, 0x61, 0x74, 0x63, 0x68, 0x6e, 0x6f,
  0x72, 0x6d, 0x2f, 0x73, 0x75, 0x62, 0x00, 0x00, 0x04, 0x00, 0x00, 0x00, 0x01, 0x00, 0x00, 0x00,
  0x0c, 0x00, 0x00, 0x00, 0x0c, 0x00, 0x00, 0x00, 0x18, 0x00, 0x00, 0x00, 0x8a, 0xf2, 0xff, 0xff,
  0x00, 0x00, 0x00, 0x01, 0x18, 0x00, 0x00, 0x00, 0x28, 0x00, 0x00, 0x00, 0x48, 0x00, 0x00, 0x00,
  0x0e, 0x00, 0x00, 0x00, 0x00, 0x00, 0x00, 0x09, 0xd0, 0x00, 0x00, 0x00, 0x04, 0x00, 0x00, 0x00,
  0xff, 0xff, 0xff, 0xff, 0x18, 0x00, 0x00, 0x00, 0x18, 0x00, 0x00, 0x00, 0x10, 0x00, 0x00, 0x00,
  0x74, 0xf2, 0xff, 0xff, 0x08, 0x00, 0x00, 0x00, 0x14, 0x00, 0x00, 0x00, 0x01, 0x00, 0x00, 0x00,
  0x80, 0xff, 0xff, 0xff, 0xff, 0xff, 0xff, 0xff, 0x00, 0x00, 0x00, 0x00, 0x01, 0x00, 0x00, 0x00,
  0x76, 0x99, 0xff, 0x3c, 0x8e, 0x00, 0x00, 0x00, 0x50, 0x65, 0x72, 0x73, 0x6f, 0x6e, 0x44, 0x65,
  0x74, 0x65, 0x63, 0x74, 0x6f, 0x72, 0x5f, 0x31, 0x2f, 0x72, 0x65, 0x6c, 0x75, 0x32, 0x5f, 0x31,
  0x2f, 0x52, 0x65, 0x6c, 0x75, 0x3b, 0x50, 0x65, 0x72, 0x73, 0x6f, 0x6e, 0x44, 0x65, 0x74, 0x65,
  0x63, 0x74, 0x6f, 0x72, 0x5f, 0x31, 0x2f, 0x62, 0x6e, 0x32, 0x5f, 0x31, 0x2f, 0x62, 0x61, 0x74,
  0x63, 0x68, 0x6e, 0x6f, 0x72, 0x6d, 0x2f, 0x61, 0x64, 0x64, 0x5f, 0x31, 0x3b, 0x50, 0x65, 0x72,
  0x73, 0x6f, 0x6e, 0x44, 0x65, 0x74, 0x65, 0x63, 0x74, 0x6f, 0x72, 0x5f, 0x31, 0x2f, 0x63, 0x6f,
  0x6e, 0x76, 0x32, 0x5f, 0x31, 0x2f, 0x63, 0x6f, 0x6e, 0x76, 0x6f, 0x6c, 0x75, 0x74, 0x69, 0x6f,
  0x6e, 0x3b, 0x50, 0x65, 0x72, 0x73, 0x6f, 0x6e, 0x44, 0x65, 0x74, 0x65, 0x63, 0x74, 0x6f, 0x72,
  0x5f, 0x31, 0x2f, 0x62, 0x6e, 0x32, 0x5f, 0x31, 0x2f, 0x62, 0x61, 0x74, 0x63, 0x68, 0x6e, 0x6f,
  0x72, 0x6d, 0x2f, 0x73, 0x75, 0x62, 0x00, 0x00, 0x04, 0x00, 0x00, 0x00, 0x01, 0x00, 0x00, 0x00,
  0x18, 0x00, 0x00, 0x00, 0x18, 0x00, 0x00, 0x00, 0x10, 0x00, 0x00, 0x00, 0x8a, 0xf3, 0xff, 0xff,
  0x00, 0x00, 0x00, 0x01, 0x18, 0x00, 0x00, 0x00, 0x28, 0x00, 0x00, 0x00, 0x48, 0x00, 0x00, 0x00,
  0x0d, 0x00, 0x00, 0x00, 0x00, 0x00, 0x00, 0x09, 0xd0, 0x00, 0x00, 0x00, 0x04, 0x00, 0x00, 0x00,
  0xff, 0xff, 0xff, 0xff, 0x30, 0x00, 0x00, 0x00, 0x30, 0x00, 0x00, 0x00, 0x08, 0x00, 0x00, 0x00,
  0x74, 0xf3, 0xff, 0xff, 0x08, 0x00, 0x00, 0x00, 0x14, 0x00, 0x00, 0x00, 0x01, 0x00, 0x00, 0x00,
  0x80, 0xff, 0xff, 0xff, 0xff, 0xff, 0xff, 0xff, 0x00, 0x00, 0x00, 0x00, 0x01, 0x00, 0x00, 0x00,
  0x18, 0xeb, 0x05, 0x3d, 0x8f, 0x00, 0x00, 0x00, 0x50, 0x65, 0x72, 0x73, 0x6f, 0x6e, 0x44, 0x65,
  0x74, 0x65, 0x63, 0x74, 0x6f, 0x72, 0x5f, 0x31, 0x2f, 0x72, 0x65, 0x6c, 0x75, 0x31, 0x5f, 0x31,
  0x2f, 0x52, 0x65, 0x6c, 0x75, 0x3b, 0x50, 0x65, 0x72, 0x73, 0x6f, 0x6e, 0x44, 0x65, 0x74, 0x65,
  0x63, 0x74, 0x6f, 0x72, 0x5f, 0x31, 0x2f, 0x62, 0x6e, 0x31, 0x5f, 0x31, 0x2f, 0x62, 0x61, 0x74,
  0x63, 0x68, 0x6e, 0x6f, 0x72, 0x6d, 0x2f, 0x61, 0x64, 0x64, 0x5f, 0x31, 0x3b, 0x50, 0x65, 0x72,
  0x73, 0x6f, 0x6e, 0x44, 0x65, 0x74, 0x65, 0x63, 0x74, 0x6f, 0x72, 0x5f, 0x31, 0x2f, 0x63, 0x6f,
  0x6e, 0x76, 0x31, 0x5f, 0x31, 0x2f, 0x63, 0x6f, 0x6e, 0x76, 0x6f, 0x6c, 0x75, 0x74, 0x69, 0x6f,
  0x6e, 0x3b, 0x50, 0x65, 0x72, 0x73, 0x6f, 0x6e, 0x44, 0x65, 0x74, 0x65, 0x63, 0x74, 0x6f, 0x72,
  0x5f, 0x31, 0x2f, 0x62, 0x6e, 0x31, 0x5f, 0x31, 0x2f, 0x62, 0x61, 0x74, 0x63, 0x68, 0x6e, 0x6f,
  0x72, 0x6d, 0x2f, 0x73, 0x75, 0x62, 0x31, 0x00, 0x04, 0x00, 0x00, 0x00, 0x01, 0x00, 0x00, 0x00,
  0x30, 0x00, 0x00, 0x00, 0x30, 0x00, 0x00, 0x00, 0x08, 0x00, 0x00, 0x00, 0xe2, 0xf4, 0xff, 0xff,
  0x00, 0x00, 0x00, 0x01, 0x14, 0x00, 0x00, 0x00, 0x88, 0x00, 0x00, 0x00, 0x0c, 0x00, 0x00, 0x00,
  0x00, 0x00, 0x00, 0x09, 0x94, 0x00, 0x00, 0x00, 0x5c, 0xf4, 0xff, 0xff, 0x08, 0x00, 0x00, 0x00,
  0x4c, 0x00, 0x00, 0x00, 0x08, 0x00, 0x00, 0x00, 0x00, 0x00, 0x00, 0x00, 0x00, 0x00, 0x00, 0x00,
  0x00, 0x00, 0x00, 0x00, 0x00, 0x00, 0x00, 0x00, 0x00, 0x00, 0x00, 0x00, 0x00, 0x00, 0x00, 0x00,
  0x00, 0x00, 0x00, 0x00, 0x00, 0x00, 0x00, 0x00, 0x00, 0x00, 0x00, 0x00, 0x00, 0x00, 0x00, 0x00,
  0x00, 0x00, 0x00, 0x00, 0x00, 0x00, 0x00, 0x00, 0x00, 0x00, 0x00, 0x00, 0x00, 0x00, 0x00, 0x00,
  0x00, 0x00, 0x00, 0x00, 0x00, 0x00, 0x00, 0x00, 0x00, 0x00, 0x00, 0x00, 0x08, 0x00, 0x00, 0x00,
  0xaa, 0x4f, 0xfc, 0x3c, 0x99, 0xde, 0x12, 0x3d, 0xda, 0x18, 0xef, 0x3c, 0x23, 0x9c, 0x1a, 0x3c,
  0xff, 0x39, 0x8e, 0x3c, 0x61, 0xc8, 0xc4, 0x3c, 0xaf, 0xbe, 0xcc, 0x3c, 0x19, 0x6c, 0x02, 0x3d,
  0x12, 0x00, 0x00, 0x00, 0x74, 0x66, 0x6c, 0x2e, 0x70, 0x73, 0x65, 0x75, 0x64, 0x6f, 0x5f, 0x71,
  0x63, 0x6f, 0x6e, 0x73, 0x74, 0x39, 0x00, 0x00, 0x04, 0x00, 0x00, 0x00, 0x08, 0x00, 0x00, 0x00,
  0x03, 0x00, 0x00, 0x00, 0x03, 0x00, 0x00, 0x00, 0x01, 0x00, 0x00, 0x00, 0xa2, 0xf5, 0xff, 0xff,
  0x00, 0x00, 0x00, 0x01, 0x14, 0x00, 0x00, 0x00, 0x84, 0x00, 0x00, 0x00, 0x0b, 0x00, 0x00, 0x00,
  0x00, 0x00, 0x00, 0x02, 0x90, 0x00, 0x00, 0x00, 0x1c, 0xf5, 0xff, 0xff, 0x08, 0x00, 0x00, 0x00,
  0x48, 0x00, 0x00, 0x00, 0x08, 0x00, 0x00, 0x00, 0x00, 0x00, 0x00, 0x00, 0x00, 0x00, 0x00, 0x00,
  0x00, 0x00, 0x00, 0x00, 0x00, 0x00, 0x00, 0x00, 0x00, 0x00, 0x00, 0x00, 0x00, 0x00, 0x00, 0x00,
  0x00, 0x00, 0x00, 0x00, 0x00, 0x00, 0x00, 0x00, 0x00, 0x00, 0x00, 0x00, 0x00, 0x00, 0x00, 0x00,
  0x00, 0x00, 0x00, 0x00, 0x00, 0x00, 0x00, 0x00, 0x00, 0x00, 0x00, 0x00, 0x00, 0x00, 0x00, 0x00,
  0x00, 0x00, 0x00, 0x00, 0x00, 0x00, 0x00, 0x00, 0x08, 0x00, 0x00, 0x00, 0xf8, 0x4c, 0xfd, 0x38,
  0x0c, 0x72, 0x13, 0x39, 0xe4, 0x08, 0xf0, 0x38, 0x5b, 0x37, 0x1b, 0x38, 0xc8, 0xc8, 0x8e, 0x38,
  0xf0, 0x8d, 0xc5, 0x38, 0x3c, 0x8c, 0xcd, 0x38, 0x09, 0xef, 0x02, 0x39, 0x12, 0x00, 0x00, 0x00,
  0x74, 0x66, 0x6c, 0x2e, 0x70, 0x73, 0x65, 0x75, 0x64, 0x6f, 0x5f, 0x71, 0x63, 0x6f, 0x6e, 0x73,
  0x74, 0x38, 0x00, 0x00, 0x01, 0x00, 0x00, 0x00, 0x08, 0x00, 0x00, 0x00, 0x52, 0xf6, 0xff, 0xff,
  0x00, 0x00, 0x00, 0x01, 0x14, 0x00, 0x00, 0x00, 0xe8, 0x00, 0x00, 0x00, 0x0a, 0x00, 0x00, 0x00,
  0x00, 0x00, 0x00, 0x09, 0xf4, 0x00, 0x00, 0x00, 0xcc, 0xf5, 0xff, 0xff, 0x08, 0x00, 0x00, 0x00,
  0x8c, 0x00, 0x00, 0x00, 0x10, 0x00, 0x00, 0x00, 0x00, 0x00, 0x00, 0x00, 0x00, 0x00, 0x00, 0x00,
  0x00, 0x00, 0x00, 0x00, 0x00, 0x00, 0x00, 0x00, 0x00, 0x00, 0x00, 0x00, 0x00, 0x00, 0x00, 0x00,
  0x00, 0x00, 0x00, 0x00, 0x00, 0x00, 0x00, 0x00, 0x00, 0x00, 0x00, 0x00, 0x00, 0x00, 0x00, 0x00,
  0x00, 0x00, 0x00, 0x00, 0x00, 0x00, 0x00, 0x00, 0x00, 0x00, 0x00, 0x00, 0x00, 0x00, 0x00, 0x00,
  0x00, 0x00, 0x00, 0x00, 0x00, 0x00, 0x00, 0x00, 0x00, 0x00, 0x00, 0x00, 0x00, 0x00, 0x00, 0x00,
  0x00, 0x00, 0x00, 0x00, 0x00, 0x00, 0x00, 0x00, 0x00, 0x00, 0x00, 0x00, 0x00, 0x00, 0x00, 0x00,
  0x00, 0x00, 0x00, 0x00, 0x00, 0x00, 0x00, 0x00, 0x00, 0x00, 0x00, 0x00, 0x00, 0x00, 0x00, 0x00,
  0x00, 0x00, 0x00, 0x00, 0x00, 0x00, 0x00, 0x00, 0x00, 0x00, 0x00, 0x00, 0x00, 0x00, 0x00, 0x00,
  0x00, 0x00, 0x00, 0x00, 0x00, 0x00, 0x00, 0x00, 0x00, 0x00, 0x00, 0x00, 0x10, 0x00, 0x00, 0x00,
  0x27, 0x9d, 0x24, 0x3b, 0xe0, 0xd3, 0x46, 0x3b, 0x5f, 0x1e, 0x49, 0x3b, 0x29, 0xcc, 0x54, 0x3b,
  0x58, 0x9a, 0x6f, 0x3b, 0xd8, 0x4d, 0x46, 0x3b, 0x6b, 0x0d, 0xe5, 0x3a, 0x10, 0x0a, 0x0b, 0x3b,
  0x51, 0xaa, 0x72, 0x3b, 0x3a, 0x4e, 0x8e, 0x3b, 0x7e, 0x5c, 0x89, 0x3b, 0xf8, 0x41, 0x67, 0x3b,
  0x32, 0x69, 0x6e, 0x3b, 0x63, 0x14, 0x44, 0x3b, 0xad, 0xb8, 0x8e, 0x3b, 0xaa, 0xbc, 0x7c, 0x3b,
  0x12, 0x00, 0x00, 0x00, 0x74, 0x66, 0x6c, 0x2e, 0x70, 0x73, 0x65, 0x75, 0x64, 0x6f, 0x5f, 0x71,
  0x63, 0x6f, 0x6e, 0x73, 0x74, 0x37, 0x00, 0x00, 0x04, 0x00, 0x00, 0x00, 0x10, 0x00, 0x00, 0x00,
  0x03, 0x00, 0x00, 0x00, 0x03, 0x00, 0x00, 0x00, 0x08, 0x00, 0x00, 0x00, 0x72, 0xf7, 0xff, 0xff,
  0x00, 0x00, 0x00, 0x01, 0x14, 0x00, 0x00, 0x00, 0xe4, 0x00, 0x00, 0x00, 0x09, 0x00, 0x00, 0x00,
  0x00, 0x00, 0x00, 0x02, 0xf0, 0x00, 0x00, 0x00, 0xec, 0xf6, 0xff, 0xff, 0x08, 0x00, 0x00, 0x00,
  0x88, 0x00, 0x00, 0x00, 0x10, 0x00, 0x00, 0x00, 0x00, 0x00, 0x00, 0x00, 0x00, 0x00, 0x00, 0x00,
  0x00, 0x00, 0x00, 0x00, 0x00, 0x00, 0x00, 0x00, 0x00, 0x00, 0x00, 0x00, 0x00, 0x00, 0x00, 0x00,
  0x00, 0x00, 0x00, 0x00, 0x00, 0x00, 0x00, 0x00, 0x00, 0x00, 0x00, 0x00, 0x00, 0x00, 0x00, 0x00,
  0x00, 0x00, 0x00, 0x00, 0x00, 0x00, 0x00, 0x00, 0x00, 0x00, 0x00, 0x00, 0x00, 0x00, 0x00, 0x00,
  0x00, 0x00, 0x00, 0x00, 0x00, 0x00, 0x00, 0x00, 0x00, 0x00, 0x00, 0x00, 0x00, 0x00, 0x00, 0x00,
  0x00, 0x00, 0x00, 0x00, 0x00, 0x00, 0x00, 0x00, 0x00, 0x00, 0x00, 0x00, 0x00, 0x00, 0x00, 0x00,
  0x00, 0x00, 0x00, 0x00, 0x00, 0x00, 0x00, 0x00, 0x00, 0x00, 0x00, 0x00, 0x00, 0x00, 0x00, 0x00,
  0x00, 0x00, 0x00, 0x00, 0x00, 0x00, 0x00, 0x00, 0x00, 0x00, 0x00, 0x00, 0x00, 0x00, 0x00, 0x00,
  0x00, 0x00, 0x00, 0x00, 0x00, 0x00, 0x00, 0x00, 0x10, 0x00, 0x00, 0x00, 0xa2, 0x39, 0xac, 0x38,
  0x55, 0x05, 0xd0, 0x38, 0xf2, 0x6a, 0xd2, 0x38, 0xf9, 0xa2, 0xde, 0x38, 0x72, 0xae, 0xfa, 0x38,
  0x1b, 0x79, 0xcf, 0x38, 0xa3, 0xa4, 0x6f, 0x38, 0xd3, 0x77, 0x91, 0x38, 0xaa, 0xe2, 0xfd, 0x38,
  0xa7, 0xe2, 0x14, 0x39, 0x64, 0xb6, 0x0f, 0x39, 0x4a, 0xf3, 0xf1, 0x38, 0x30, 0x6f, 0xf9, 0x38,
  0x51, 0x25, 0xcd, 0x38, 0x06, 0x52, 0x15, 0x39, 0x1d, 0x36, 0x04, 0x39, 0x12, 0x00, 0x00, 0x00,
  0x74, 0x66, 0x6c, 0x2e, 0x70, 0x73, 0x65, 0x75, 0x64, 0x6f, 0x5f, 0x71, 0x63, 0x6f, 0x6e, 0x73,
  0x74, 0x36, 0x00, 0x00, 0x01, 0x00, 0x00, 0x00, 0x10, 0x00, 0x00, 0x00, 0x82, 0xf8, 0xff, 0xff,
  0x00, 0x00, 0x00, 0x01, 0x14, 0x00, 0x00, 0x00, 0x48, 0x01, 0x00, 0x00, 0x08, 0x00, 0x00, 0x00,
  0x00, 0x00, 0x00, 0x09, 0x54, 0x01, 0x00, 0x00, 0xfc, 0xf7, 0xff, 0xff, 0x08, 0x00, 0x00, 0x00,
  0xcc, 0x00, 0x00, 0x00, 0x18, 0x00, 0x00, 0x00, 0x00, 0x00, 0x00, 0x00, 0x00, 0x00, 0x00, 0x00,
  0x00, 0x00, 0x00, 0x00, 0x00, 0x00, 0x00, 0x00, 0x00, 0x00, 0x00, 0x00, 0x00, 0x00, 0x00, 0x00,
  0x00, 0x00, 0x00, 0x00, 0x00, 0x00, 0x00, 0x00, 0x00, 0x00, 0x00, 0x00, 0x00, 0x00, 0x00, 0x00,
  0x00, 0x00, 0x00, 0x00, 0x00, 0x00, 0x00, 0x00, 0x00, 0x00, 0x00, 0x00, 0x00, 0x00, 0x00, 0x00,
  0x00, 0x00, 0x00, 0x00, 0x00, 0x00, 0x00, 0x00, 0x00, 0x00, 0x00, 0x00, 0x00, 0x00, 0x00, 0x00,
  0x00, 0x00, 0x00, 0x00, 0x00, 0x00, 0x00, 0x00, 0x00, 0x00, 0x00, 0x00, 0x00, 0x00, 0x00, 0x00,
  0x00, 0x00, 0x00, 0x00, 0x00, 0x00, 0x00, 0x00, 0x00, 0x00, 0x00, 0x00, 0x00, 0x00, 0x00, 0x00,
  0x00, 0x00, 0x00, 0x00, 0x00, 0x00, 0x00, 0x00, 0x00, 0x00, 0x00, 0x00, 0x00, 0x00, 0x00, 0x00,
  0x00, 0x00, 0x00, 0x00, 0x00, 0x00, 0x00, 0x00, 0x00, 0x00, 0x00, 0x00, 0x00, 0x00, 0x00, 0x00,
  0x00, 0x00, 0x00, 0x00, 0x00, 0x00, 0x00, 0x00, 0x00, 0x00, 0x00, 0x00, 0x00, 0x00, 0x00, 0x00,
  0x00, 0x00, 0x00, 0x00, 0x00, 0x00, 0x00, 0x00, 0x00, 0x00, 0x00, 0x00, 0x00, 0x00, 0x00, 0x00,
  0x00, 0x00, 0x00, 0x00, 0x00, 0x00, 0x00, 0x00, 0x00, 0x00, 0x00, 0x00, 0x00, 0x00, 0x00, 0x00,
  0x00, 0x00, 0x00, 0x00, 0x00, 0x00, 0x00, 0x00, 0x00, 0x00, 0x00, 0x00, 0x18, 0x00, 0x00, 0x00,
  0x4e, 0xcd, 0xed, 0x3a, 0xbf, 0x9e, 0x17, 0x3b, 0x49, 0x93, 0x27, 0x3b, 0x05, 0xab, 0x42, 0x3b,
  0xb0, 0xe4, 0x1f, 0x3b, 0x84, 0xb9, 0x1d, 0x3b, 0x5f, 0xe6, 0x1e, 0x3b, 0x19, 0x30, 0x37, 0x3b,
  0x27, 0xcc, 0x09, 0x3b, 0xcf, 0x8e, 0x17, 0x3b, 0xe0, 0xff, 0x3d, 0x3b, 0x7e, 0xe2, 0x15, 0x3b,
  0x94, 0x85, 0xe4, 0x3a, 0xfb, 0xfc, 0x04, 0x3b, 0xad, 0x41, 0x27, 0x3b, 0x78, 0x26, 0x2d, 0x3b,
  0xee, 0x34, 0xe6, 0x3a, 0xd0, 0xff, 0x46, 0x3b, 0x34, 0x6b, 0x5a, 0x3b, 0x2d, 0x86, 0xf1, 0x3a,
  0xb1, 0xe0, 0x00, 0x3b, 0xf7, 0x67, 0x18, 0x3b, 0x2d, 0xd5, 0x34, 0x3b, 0x9a, 0xe2, 0x21, 0x3b,
  0x12, 0x00, 0x00, 0x00, 0x74, 0x66, 0x6c, 0x2e, 0x70, 0x73, 0x65, 0x75, 0x64, 0x6f, 0x5f, 0x71,
  0x63, 0x6f, 0x6e, 0x73, 0x74, 0x35, 0x00, 0x00, 0x04, 0x00, 0x00, 0x00, 0x18, 0x00, 0x00, 0x00,
  0x03, 0x00, 0x00, 0x00, 0x03, 0x00, 0x00, 0x00, 0x10, 0x00, 0x00, 0x00, 0x02, 0xfa, 0xff, 0xff,
  0x00, 0x00, 0x00, 0x01, 0x14, 0x00, 0x00, 0x00, 0x44, 0x01, 0x00, 0x00, 0x07, 0x00, 0x00, 0x00,
  0x00, 0x00, 0x00, 0x02, 0x50, 0x01, 0x00, 0x00, 0x7c, 0xf9, 0xff, 0xff, 0x08, 0x00, 0x00, 0x00,
  0xc8, 0x00, 0x00, 0x00, 0x18, 0x00, 0x00, 0x00, 0x00, 0x00, 0x00, 0x00, 0x00, 0x00, 0x00, 0x00,
  0x00, 0x00, 0x00, 0x00, 0x00, 0x00, 0x00, 0x00, 0x00, 0x00, 0x00, 0x00, 0x00, 0x00, 0x00, 0x00,
  0x00, 0x00, 0x00, 0x00, 0x00, 0x00, 0x00, 0x00, 0x00, 0x00, 0x00, 0x00, 0x00, 0x00, 0x00, 0x00,
  0x00, 0x00, 0x00, 0x00, 0x00, 0x00, 0x00, 0x00, 0x00, 0x00, 0x00, 0x00, 0x00, 0x00, 0x00, 0x00,
  0x00, 0x00, 0x00, 0x00, 0x00, 0x00, 0x00, 0x00, 0x00, 0x00, 0x00, 0x00, 0x00, 0x00, 0x00, 0x00,
  0x00, 0x00, 0x00, 0x00, 0x00, 0x00, 0x00, 0x00, 0x00, 0x00, 0x00, 0x00, 0x00, 0x00, 0x00, 0x00,
  0x00, 0x00, 0x00, 0x00, 0x00, 0x00, 0x00, 0x00, 0x00, 0x00, 0x00, 0x00, 0x00, 0x00, 0x00, 0x00,
  0x00, 0x00, 0x00, 0x00, 0x00, 0x00, 0x00, 0x00, 0x00, 0x00, 0x00, 0x00, 0x00, 0x00, 0x00, 0x00,
  0x00, 0x00, 0x00, 0x00, 0x00, 0x00, 0x00, 0x00, 0x00, 0x00, 0x00, 0x00, 0x00, 0x00, 0x00, 0x00,
  0x00, 0x00, 0x00, 0x00, 0x00, 0x00, 0x00, 0x00, 0x00, 0x00, 0x00, 0x00, 0x00, 0x00, 0x00, 0x00,
  0x00, 0x00, 0x00, 0x00, 0x00, 0x00, 0x00, 0x00, 0x00, 0x00, 0x00, 0x00, 0x00, 0x00, 0x00, 0x00,
  0x00, 0x00, 0x00, 0x00, 0x00, 0x00, 0x00, 0x00, 0x00, 0x00, 0x00, 0x00, 0x00, 0x00, 0x00, 0x00,
