// Auto-generated TFLite model header
// Model: stage_a_int8.tflite
// Size: 17944 bytes (17.52 KB)

#ifndef STAGE_A_MODEL_H
#define STAGE_A_MODEL_H

#include <Arduino.h>

alignas(8) const unsigned char stage_a_model[] = {
  0x1c, 0x00, 0x00, 0x00, 0x54, 0x46, 0x4c, 0x33, 0x14, 0x00, 0x20, 0x00, 0x1c, 0x00, 0x18, 0x00,
  0x14, 0x00, 0x10, 0x00, 0x0c, 0x00, 0x00, 0x00, 0x08, 0x00, 0x04, 0x00, 0x14, 0x00, 0x00, 0x00,
  0x1c, 0x00, 0x00, 0x00, 0x90, 0x00, 0x00, 0x00, 0xe8, 0x00, 0x00, 0x00, 0x48, 0x31, 0x00, 0x00,
  0x58, 0x31, 0x00, 0x00, 0x84, 0x45, 0x00, 0x00, 0x03, 0x00, 0x00, 0x00, 0x01, 0x00, 0x00, 0x00,
  0x10, 0x00, 0x00, 0x00, 0x00, 0x00, 0x0a, 0x00, 0x10, 0x00, 0x0c, 0x00, 0x08, 0x00, 0x04, 0x00,
  0x0a, 0x00, 0x00, 0x00, 0x0c, 0x00, 0x00, 0x00, 0x1c, 0x00, 0x00, 0x00, 0x3c, 0x00, 0x00, 0x00,
  0x0f, 0x00, 0x00, 0x00, 0x73, 0x65, 0x72, 0x76, 0x69, 0x6e, 0x67, 0x5f, 0x64, 0x65, 0x66, 0x61,
  0x75, 0x6c, 0x74, 0x00, 0x01, 0x00, 0x00, 0x00, 0x04, 0x00, 0x00, 0x00, 0x98, 0xff, 0xff, 0xff,
  0x12, 0x00, 0x00, 0x00, 0x04, 0x00, 0x00, 0x00, 0x08, 0x00, 0x00, 0x00, 0x6f, 0x75, 0x74, 0x70,
  0x75, 0x74, 0x5f, 0x30, 0x00, 0x00, 0x00, 0x00, 0x01, 0x00, 0x00, 0x00, 0x04, 0x00, 0x00, 0x00,
  0x92, 0xce, 0xff, 0xff, 0x04, 0x00, 0x00, 0x00, 0x05, 0x00, 0x00, 0x00, 0x69, 0x6e, 0x70, 0x75,
  0x74, 0x00, 0x00, 0x00, 0x02, 0x00, 0x00, 0x00, 0x34, 0x00, 0x00, 0x00, 0x04, 0x00, 0x00, 0x00,
  0xdc, 0xff, 0xff, 0xff, 0x15, 0x00, 0x00, 0x00, 0x04, 0x00, 0x00, 0x00, 0x13, 0x00, 0x00, 0x00,
  0x43, 0x4f, 0x4e, 0x56, 0x45, 0x52, 0x53, 0x49, 0x4f, 0x4e, 0x5f, 0x4d, 0x45, 0x54, 0x41, 0x44,
  0x41, 0x54, 0x41, 0x00, 0x08, 0x00, 0x0c, 0x00, 0x08, 0x00, 0x04, 0x00, 0x08, 0x00, 0x00, 0x00,
  0x14, 0x00, 0x00, 0x00, 0x04, 0x00, 0x00, 0x00, 0x13, 0x00, 0x00, 0x00, 0x6d, 0x69, 0x6e, 0x5f,
  0x72, 0x75, 0x6e, 0x74, 0x69, 0x6d, 0x65, 0x5f, 0x76, 0x65, 0x72, 0x73, 0x69, 0x6f, 0x6e, 0x00,
  0x16, 0x00, 0x00, 0x00, 0x5c, 0x30, 0x00, 0x00, 0x54, 0x30, 0x00, 0x00, 0x3c, 0x30, 0x00, 0x00,
  0x24, 0x30, 0x00, 0x00, 0xd4, 0x2f, 0x00, 0x00, 0x44, 0x2f, 0x00, 0x00, 0x34, 0x14, 0x00, 0x00,
  0xc4, 0x13, 0x00, 0x00, 0x34, 0x06, 0x00, 0x00, 0xe4, 0x05, 0x00, 0x00, 0x54, 0x01, 0x00, 0x00,
  0x24, 0x01, 0x00, 0x00, 0xcc, 0x00, 0x00, 0x00, 0xc4, 0x00, 0x00, 0x00, 0xbc, 0x00, 0x00, 0x00,
  0xb4, 0x00, 0x00, 0x00, 0xac, 0x00, 0x00, 0x00, 0xa4, 0x00, 0x00, 0x00, 0x9c, 0x00, 0x00, 0x00,
  0x94, 0x00, 0x00, 0x00, 0x74, 0x00, 0x00, 0x00, 0x04, 0x00, 0x00, 0x00, 0x5e, 0xcf, 0xff, 0xff,
  0x04, 0x00, 0x00, 0x00, 0x60, 0x00, 0x00, 0x00, 0x0c, 0x00, 0x00, 0x00, 0x08, 0x00, 0x0e, 0x00,
  0x08, 0x00, 0x04, 0x00, 0x08, 0x00, 0x00, 0x00, 0x10, 0x00, 0x00, 0x00, 0x28, 0x00, 0x00, 0x00,
  0x00, 0x00, 0x06, 0x00, 0x08, 0x00, 0x04, 0x00, 0x06, 0x00, 0x00, 0x00, 0x04, 0x00, 0x00, 0x00,
  0x01, 0x00, 0x00, 0x00, 0xeb, 0x03, 0x00, 0x00, 0x0c, 0x00, 0x18, 0x00, 0x14, 0x00, 0x10, 0x00,
  0x0c, 0x00, 0x04, 0x00, 0x0c, 0x00, 0x00, 0x00, 0x7f, 0xdf, 0xb6, 0x10, 0xb4, 0x5e, 0x9e, 0x8d,
  0x02, 0x00, 0x00, 0x00, 0x02, 0x00, 0x00, 0x00, 0x04, 0x00, 0x00, 0x00, 0x06, 0x00, 0x00, 0x00,
  0x32, 0x2e, 0x32, 0x30, 0x2e, 0x30, 0x00, 0x00, 0xca, 0xcf, 0xff, 0xff, 0x04, 0x00, 0x00, 0x00,
  0x10, 0x00, 0x00, 0x00, 0x31, 0x2e, 0x31, 0x34, 0x2e, 0x30, 0x00, 0x00, 0x00, 0x00, 0x00, 0x00,
  0x00, 0x00, 0x00, 0x00, 0x08, 0xbd, 0xff, 0xff, 0x0c, 0xbd, 0xff, 0xff, 0x10, 0xbd, 0xff, 0xff,
  0x14, 0xbd, 0xff, 0xff, 0x18, 0xbd, 0xff, 0xff, 0x1c, 0xbd, 0xff, 0xff, 0x20, 0xbd, 0xff, 0xff,
  0x02, 0xd0, 0xff, 0xff, 0x04, 0x00, 0x00, 0x00, 0x48, 0x00, 0x00, 0x00, 0x7e, 0xfc, 0x3c, 0x63,
  0xa9, 0x81, 0x6b, 0x9e, 0xb0, 0xf2, 0x03, 0x81, 0x69, 0xc7, 0x30, 0x62, 0xe7, 0xcc, 0x31, 0x7f,
  0x0c, 0xaf, 0x4a, 0xea, 0xae, 0xbe, 0xf1, 0x09, 0x29, 0x7f, 0xaf, 0xd0, 0x07, 0x91, 0xbe, 0x51,
  0xd7, 0xf8, 0x3d, 0x66, 0xf0, 0xac, 0x98, 0x37, 0x81, 0x81, 0xd0, 0xe0, 0xe7, 0xef, 0x37, 0x06,
  0x33, 0xda, 0x1c, 0x48, 0xdb, 0xff, 0x8f, 0x95, 0xf2, 0x7f, 0x8f, 0xef, 0xcb, 0x47, 0xba, 0x81,
  0xd6, 0x7f, 0x7c, 0xe8, 0x56, 0xd0, 0xff, 0xff, 0x04, 0x00, 0x00, 0x00, 0x20, 0x00, 0x00, 0x00,
  0xaf, 0x07, 0x00, 0x00, 0x2f, 0x08, 0x00, 0x00, 0x8a, 0x00, 0x00, 0x00, 0x3e, 0x15, 0x00, 0x00,
  0xaf, 0x46, 0x00, 0x00, 0x21, 0x4c, 0x00, 0x00, 0x3e, 0x3f, 0x00, 0x00, 0x65, 0x08, 0x00, 0x00,
  0x82, 0xd0, 0xff, 0xff, 0x04, 0x00, 0x00, 0x00, 0x80, 0x04, 0x00, 0x00, 0x21, 0x24, 0xa0, 0x54,
  0xe4, 0xbf, 0x55, 0xf8, 0xeb, 0x1a, 0x52, 0xd3, 0x46, 0x1a, 0x3c, 0xaf, 0x2d, 0xe8, 0x4e, 0x3b,
  0x18, 0xe9, 0xea, 0xb4, 0xdc, 0x42, 0x81, 0x29, 0xc7, 0x59, 0xbd, 0xc8, 0x42, 0x2c, 0xd6, 0x48,
  0x3a, 0xdf, 0x2f, 0xd7, 0x2b, 0x38, 0xc1, 0xb0, 0x28, 0xf7, 0xf5, 0x01, 0xfc, 0x40, 0x9c, 0x1c,
  0x49, 0xcc, 0xdc, 0x1f, 0x62, 0x5b, 0x1d, 0x3d, 0xb5, 0x28, 0xe0, 0x9e, 0xf3, 0xbf, 0xda, 0x45,
  0xd2, 0xf4, 0xe3, 0xa3, 0xe6, 0x11, 0xff, 0xd8, 0xe6, 0x44, 0x2d, 0x11, 0x19, 0xc9, 0xbc, 0xcd,
  0x08, 0x1a, 0x31, 0xcb, 0xdf, 0xf7, 0xd8, 0x1c, 0x38, 0x14, 0xc4, 0xfb, 0xe0, 0xdf, 0x4c, 0xe2,
  0xf9, 0xe3, 0x27, 0xe6, 0xd7, 0xb5, 0x1a, 0x09, 0x31, 0x43, 0x14, 0xfd, 0x1c, 0xc1, 0x62, 0x24,
  0xf3, 0x1a, 0x1c, 0xda, 0x14, 0x29, 0x05, 0x21, 0x16, 0xd0, 0x35, 0x81, 0x64, 0x29, 0x3c, 0xe7,
  0xe0, 0xea, 0xf1, 0xb1, 0x46, 0x25, 0x72, 0xcb, 0x32, 0x0e, 0x1d, 0xbe, 0x8e, 0xd3, 0x2a, 0x1c,
  0xd7, 0xc3, 0x09, 0xda, 0xba, 0xad, 0x1c, 0xb8, 0x3e, 0xcb, 0xec, 0xe6, 0x19, 0xda, 0xe0, 0xef,
  0xe8, 0x32, 0xd0, 0xec, 0x1d, 0xb6, 0x07, 0x17, 0xe6, 0x05, 0x1e, 0x81, 0xe1, 0xfb, 0x3c, 0x0d,
  0xf6, 0xf0, 0x20, 0xd1, 0xf1, 0x29, 0xf1, 0xe3, 0x1c, 0x30, 0xe8, 0x03, 0x12, 0x37, 0x66, 0xfc,
  0xfe, 0x3a, 0x27, 0x8c, 0xf7, 0xf0, 0x2b, 0xe4, 0x0e, 0xd9, 0x12, 0xc8, 0x43, 0x08, 0xee, 0x35,
  0xef, 0x24, 0xf4, 0x98, 0xff, 0x19, 0x53, 0x4e, 0x2a, 0x25, 0x16, 0x1b, 0xef, 0x2b, 0x3a, 0x3d,
  0x0e, 0xc2, 0x50, 0x49, 0x3f, 0x32, 0x0e, 0x9f, 0x1a, 0xb8, 0xd4, 0xbf, 0xbf, 0xf5, 0x4a, 0x5a,
  0xf2, 0x1f, 0xe7, 0xd3, 0x37, 0x0a, 0x13, 0xe7, 0x2f, 0xcb, 0xc3, 0x0b, 0x64, 0x1d, 0xda, 0xd8,
  0xe6, 0x08, 0x58, 0x9e, 0x81, 0x9c, 0x08, 0xe1, 0xfc, 0x0c, 0xe4, 0xec, 0x3e, 0xd1, 0x1d, 0xa4,
  0xee, 0x33, 0x03, 0x8d, 0xfe, 0xd3, 0xbb, 0x35, 0x05, 0x20, 0x26, 0xe7, 0x38, 0xd5, 0xd3, 0x17,
  0xf2, 0xd7, 0xdd, 0x01, 0x29, 0xc3, 0xef, 0x21, 0xc4, 0xdc, 0xfe, 0xfa, 0xd8, 0xf0, 0xe5, 0x0d,
  0x41, 0x27, 0xf7, 0xee, 0xdd, 0xf8, 0x18, 0xe0, 0x1d, 0xe2, 0x1b, 0xc8, 0x3d, 0xdf, 0x48, 0x35,
  0x0f, 0xf7, 0x3b, 0x1d, 0x5a, 0x3a, 0xf5, 0xfd, 0xfe, 0xc9, 0x1c, 0x26, 0xfe, 0x27, 0x81, 0xd9,
  0xe9, 0x14, 0xf0, 0xce, 0xfd, 0x21, 0xb6, 0xac, 0xe1, 0xda, 0x0f, 0xef, 0x0c, 0x57, 0xe4, 0xcc,
  0xe7, 0x29, 0x12, 0x15, 0x38, 0x20, 0xc1, 0xee, 0xc6, 0xe5, 0xfd, 0x89, 0x12, 0xdb, 0xb8, 0x44,
  0x2f, 0x2e, 0xe1, 0x0f, 0x81, 0xb2, 0xf0, 0x36, 0xec, 0xce, 0xe5, 0xd3, 0x25, 0xe5, 0xd1, 0xd3,
  0xfa, 0xe8, 0x48, 0x9d, 0x35, 0x02, 0xd8, 0xf4, 0x39, 0x3d, 0x06, 0xcf, 0x92, 0x41, 0xe3, 0x40,
  0x39, 0xcb, 0xf6, 0xc5, 0x23, 0x1e, 0x0a, 0x43, 0xfe, 0x09, 0x18, 0xf5, 0x15, 0xab, 0xf7, 0xef,
  0x0b, 0x14, 0xe8, 0xf0, 0xf5, 0xf9, 0xcf, 0xf8, 0x37, 0xb5, 0xe3, 0x09, 0x34, 0xd1, 0x30, 0x28,
  0xe2, 0x11, 0x3b, 0xf5, 0x00, 0xca, 0x08, 0x08, 0xee, 0x1f, 0xee, 0x26, 0x16, 0xf2, 0x15, 0x3f,
  0xfc, 0x34, 0x10, 0xfc, 0xe6, 0xeb, 0xd4, 0xdd, 0xf8, 0x08, 0xd3, 0xfe, 0xff, 0x1b, 0xf6, 0xc7,
  0x01, 0x38, 0x0f, 0x1f, 0xe1, 0x3b, 0x16, 0x02, 0x2a, 0x02, 0xf5, 0x0a, 0xfe, 0x26, 0x31, 0x0c,
  0x20, 0xe6, 0xfa, 0xde, 0xea, 0xe7, 0x18, 0xf0, 0x10, 0xc6, 0xd8, 0xb3, 0xf2, 0x06, 0x16, 0x06,
  0x1c, 0xee, 0xd2, 0x81, 0x4f, 0x31, 0xfc, 0xeb, 0x1d, 0x0b, 0xd9, 0xf0, 0xe0, 0xd0, 0xe4, 0xdb,
  0xc7, 0xcf, 0xd0, 0xeb, 0x81, 0x0d, 0x4c, 0x31, 0xce, 0x0f, 0x52, 0xa3, 0x34, 0x08, 0xcd, 0xec,
  0x37, 0x42, 0xb1, 0xfa, 0xfb, 0xb8, 0x21, 0xdf, 0xd9, 0x28, 0x01, 0xec, 0x9b, 0x8f, 0xe2, 0x3b,
  0x16, 0x01, 0xfc, 0xcb, 0xf9, 0x29, 0xbc, 0xf8, 0x21, 0xc9, 0x31, 0x38, 0xf9, 0xd5, 0x4c, 0xd7,
  0x05, 0xde, 0x07, 0x05, 0x82, 0xad, 0x24, 0xf2, 0xeb, 0x32, 0xe6, 0xc7, 0xfd, 0x2a, 0xb0, 0x97,
  0x11, 0xea, 0x0c, 0x58, 0xb3, 0xba, 0x27, 0xb3, 0x51, 0xe6, 0x25, 0x59, 0xcc, 0x19, 0xa4, 0xeb,
  0xd3, 0x3a, 0xd1, 0x4a, 0x21, 0x27, 0xc9, 0x1a, 0xcc, 0xbb, 0x4e, 0xf5, 0x9c, 0x20, 0xf6, 0x2c,
  0x09, 0x1d, 0xca, 0xde, 0xdb, 0xeb, 0x5f, 0x28, 0xdb, 0xd1, 0x25, 0xff, 0x1a, 0xfc, 0x18, 0x3b,
  0x1a, 0xcf, 0x16, 0xcb, 0x22, 0xfc, 0xd8, 0x36, 0x7f, 0xc4, 0xde, 0xd4, 0x54, 0x15, 0x27, 0xdf,
  0x26, 0x59, 0x14, 0x09, 0xb0, 0xd4, 0xd2, 0xef, 0x21, 0x1f, 0x32, 0x13, 0x88, 0x46, 0xab, 0x13,
  0x19, 0x29, 0x28, 0xe7, 0x88, 0xc2, 0xed, 0x9c, 0x8b, 0xe4, 0x01, 0x04, 0x9e, 0xec, 0x13, 0x71,
  0x30, 0x9f, 0x16, 0x2b, 0x82, 0x06, 0xe7, 0xb4, 0x23, 0xfe, 0x2e, 0x87, 0x81, 0x01, 0x06, 0x72,
  0x87, 0xac, 0xc7, 0x8e, 0xce, 0x42, 0x96, 0x02, 0x1b, 0xb2, 0x48, 0x2b, 0xda, 0x2d, 0x14, 0x5a,
  0x15, 0x32, 0x35, 0x53, 0x08, 0x9f, 0xab, 0x4a, 0xd1, 0xa1, 0x3e, 0xe9, 0x09, 0x54, 0x9e, 0xc4,
  0xdd, 0xdc, 0x0e, 0x2b, 0x2c, 0x25, 0xee, 0xd9, 0x22, 0xc1, 0xe6, 0x17, 0x24, 0x5b, 0xc2, 0x21,
  0xd4, 0xde, 0xc7, 0x47, 0x0e, 0xf0, 0xa8, 0x13, 0x3d, 0x1a, 0x02, 0xfb, 0xc1, 0xc5, 0xc8, 0x49,
  0x18, 0xe2, 0xf2, 0xef, 0xed, 0xea, 0x10, 0x07, 0x20, 0xc3, 0xcc, 0x03, 0x08, 0x11, 0x9a, 0xa6,
  0xd2, 0x11, 0x3c, 0x11, 0x00, 0x19, 0x81, 0x1c, 0x1c, 0xcf, 0xe6, 0xf8, 0xf3, 0x1f, 0xae, 0xe6,
  0x30, 0xe9, 0x0f, 0xf0, 0x16, 0x95, 0x35, 0xe7, 0xc3, 0x10, 0x50, 0x07, 0xe9, 0xd4, 0xe7, 0x13,
  0x1f, 0x27, 0xb7, 0x81, 0x22, 0x9c, 0xf6, 0x35, 0xe8, 0xa8, 0xaf, 0x8e, 0x42, 0x23, 0xc1, 0x4c,
  0x5f, 0xbb, 0x22, 0x06, 0x37, 0xe3, 0x3f, 0x18, 0x72, 0xdf, 0x18, 0xf5, 0x2a, 0x12, 0x54, 0x16,
  0xfe, 0x21, 0x03, 0x1f, 0x43, 0x2f, 0xce, 0x12, 0x32, 0xc3, 0x39, 0x31, 0x2e, 0x62, 0xba, 0xa6,
  0x19, 0x2f, 0x39, 0xe7, 0xb9, 0xf5, 0xab, 0xb0, 0x23, 0xcc, 0xc3, 0x51, 0xd8, 0x7f, 0x0f, 0xc8,
  0x28, 0x3c, 0xf0, 0x1e, 0x15, 0xdf, 0x02, 0x17, 0x44, 0x4e, 0x46, 0xfd, 0x2c, 0xfe, 0xb4, 0x08,
  0xcb, 0xaa, 0x26, 0xfb, 0x5d, 0xff, 0xd8, 0x2f, 0x12, 0x33, 0xe9, 0x0a, 0x16, 0xa9, 0xc7, 0xee,
  0x5c, 0x49, 0x15, 0x06, 0xfc, 0xe6, 0x32, 0x12, 0x45, 0xf8, 0x2d, 0xae, 0x50, 0xa8, 0x9e, 0xee,
  0x0a, 0x0a, 0xf1, 0x17, 0x05, 0x1b, 0xb8, 0xe4, 0xc6, 0xbb, 0xd0, 0xf9, 0x17, 0xdb, 0xed, 0x15,
  0xc8, 0x9d, 0x10, 0xfc, 0x0d, 0x29, 0x9a, 0xd1, 0x17, 0xfb, 0x31, 0x36, 0xbf, 0xfe, 0xe9, 0xdb,
  0xe2, 0xf1, 0xb3, 0xba, 0xfd, 0x2b, 0xb1, 0xc5, 0xe6, 0x10, 0x21, 0xc8, 0xc1, 0xcf, 0x81, 0x2c,
  0xdf, 0xfd, 0xf8, 0x2f, 0xcd, 0xca, 0x0f, 0x00, 0x1b, 0x1b, 0x33, 0x00, 0xda, 0x20, 0xab, 0xc2,
  0x1d, 0x25, 0x2d, 0x08, 0xc0, 0xbb, 0xd5, 0xf0, 0xbd, 0xe0, 0x0c, 0x03, 0x08, 0x14, 0x35, 0xf6,
  0x03, 0xf4, 0xbe, 0x23, 0x19, 0xbe, 0xb5, 0x22, 0xf8, 0x2b, 0x01, 0x2f, 0xd7, 0x33, 0xc5, 0xd2,
  0x1d, 0x2e, 0x0e, 0xf3, 0xfd, 0x07, 0x9d, 0x07, 0x26, 0xe5, 0xdf, 0x20, 0xca, 0xe8, 0xdc, 0xdb,
  0xdf, 0xec, 0x22, 0x13, 0x24, 0x01, 0xc6, 0xf8, 0xd9, 0x21, 0x09, 0xf2, 0xf1, 0x13, 0xbc, 0xee,
  0x15, 0x16, 0x1e, 0xfe, 0xdb, 0xf4, 0x06, 0xe5, 0xd3, 0x13, 0xd2, 0xfc, 0x16, 0x0a, 0x81, 0x27,
  0x06, 0xff, 0xe8, 0x19, 0xff, 0xed, 0x8a, 0x1c, 0xd8, 0xe8, 0xdd, 0x00, 0xcd, 0xfb, 0xb8, 0xf7,
  0x1d, 0x0c, 0xe8, 0x05, 0x36, 0x37, 0xed, 0xaa, 0x28, 0xb2, 0xc7, 0x40, 0x30, 0xee, 0xe9, 0xca,
  0x3b, 0x09, 0x2f, 0x35, 0xf3, 0xe3, 0xc8, 0x47, 0xcb, 0x4f, 0xbd, 0xb0, 0xcb, 0x1d, 0xc4, 0x1b,
  0xd2, 0xe7, 0x47, 0x61, 0x34, 0x3b, 0x04, 0x11, 0xd5, 0xb0, 0xe6, 0xc4, 0xce, 0x36, 0x8d, 0x21,
  0x30, 0x2a, 0xd5, 0x52, 0x66, 0x01, 0x0b, 0x99, 0xc6, 0x42, 0x29, 0xed, 0xa3, 0xc5, 0xd4, 0x3b,
  0xb0, 0x05, 0xf3, 0x4e, 0x01, 0x1b, 0x16, 0x1c, 0x39, 0x1f, 0xc2, 0x7f, 0x0e, 0xd5, 0xff, 0xff,
  0x04, 0x00, 0x00, 0x00, 0x40, 0x00, 0x00, 0x00, 0x65, 0xf9, 0xff, 0xff, 0x77, 0xf7, 0xff, 0xff,
  0xfb, 0x09, 0x00, 0x00, 0xed, 0xf8, 0xff, 0xff, 0xaa, 0x01, 0x00, 0x00, 0xbe, 0x0a, 0x00, 0x00,
  0x1e, 0xfe, 0xff, 0xff, 0xb6, 0x10, 0x00, 0x00, 0x18, 0xfc, 0xff, 0xff, 0xdd, 0x1b, 0x00, 0x00,
  0x59, 0x09, 0x00, 0x00, 0x51, 0xf5, 0xff, 0xff, 0x95, 0xf7, 0xff, 0xff, 0x6f, 0x16, 0x00, 0x00,
  0xa3, 0x10, 0x00, 0x00, 0x8d, 0xff, 0xff, 0xff, 0x5a, 0xd5, 0xff, 0xff, 0x04, 0x00, 0x00, 0x00,
  0x80, 0x0d, 0x00, 0x00, 0xe2, 0x12, 0xde, 0xe2, 0xe3, 0x18, 0x0e, 0xbc, 0xa8, 0xfe, 0x0b, 0xf4,
  0xe6, 0xc5, 0xfd, 0xf2, 0xf6, 0x2a, 0x47, 0x09, 0xd1, 0xea, 0x2a, 0x1b, 0x1a, 0xb5, 0x09, 0xd9,
  0x16, 0x0b, 0xb9, 0xe8, 0xea, 0x01, 0x14, 0xc7, 0xf4, 0x19, 0xdb, 0x17, 0xef, 0x27, 0xec, 0x33,
  0x3e, 0xf9, 0x0d, 0xe5, 0x3d, 0xfa, 0xd5, 0xf0, 0xae, 0x2a, 0x08, 0xe1, 0xcd, 0x14, 0xdf, 0xff,
  0xf1, 0x81, 0xc4, 0xe3, 0x50, 0x04, 0x1d, 0x3e, 0xef, 0xd3, 0xcc, 0xa2, 0xd3, 0xc0, 0x22, 0x09,
  0x0d, 0xec, 0xe3, 0x22, 0x3d, 0x2c, 0x0a, 0xd9, 0xb6, 0x22, 0xe4, 0xc4, 0x3a, 0xda, 0x14, 0x0e,
  0x32, 0x25, 0xc2, 0xf4, 0x46, 0x27, 0x19, 0xf0, 0x04, 0xfe, 0xe4, 0x05, 0x06, 0xeb, 0x1d, 0xfa,
  0xca, 0x9b, 0x13, 0xd8, 0xc2, 0x08, 0x02, 0x03, 0xc8, 0xcb, 0x36, 0xe1, 0xce, 0xaa, 0xfb, 0xb5,
  0xf0, 0xc6, 0xb2, 0xe8, 0x17, 0xfe, 0x26, 0xfe, 0xc5, 0x00, 0xff, 0x23, 0x27, 0xf9, 0xe1, 0xd7,
  0xd2, 0xe0, 0x14, 0x30, 0x10, 0x19, 0x39, 0xd5, 0xc2, 0xf1, 0xda, 0x3d, 0xe9, 0x1f, 0xe3, 0x9d,
  0x0d, 0x53, 0x34, 0x06, 0x25, 0xe8, 0x23, 0xaf, 0xe1, 0x00, 0x24, 0x20, 0xc7, 0xdf, 0xda, 0x1d,
  0x0a, 0x65, 0xfa, 0x10, 0x13, 0xbe, 0x00, 0x96, 0xd8, 0x17, 0xd0, 0x0b, 0x03, 0xd1, 0x3a, 0xe9,
  0xff, 0x7f, 0x03, 0xff, 0x11, 0x27, 0xec, 0xf1, 0xa3, 0x10, 0x16, 0x31, 0xe0, 0x50, 0xe2, 0xc3,
  0xd9, 0xbe, 0x16, 0xd7, 0xc9, 0x3b, 0xe0, 0xc2, 0x0a, 0x04, 0x3a, 0x1b, 0x3b, 0x21, 0x15, 0xca,
  0xee, 0x1a, 0x29, 0x03, 0x1c, 0x01, 0x1d, 0xc2, 0x29, 0xed, 0xf0, 0xcb, 0xf0, 0xdb, 0xec, 0xc2,
  0xf6, 0xea, 0xad, 0xe2, 0x31, 0x39, 0x2d, 0x3d, 0x9e, 0x1e, 0xcd, 0xe2, 0x1b, 0xfe, 0xe2, 0x23,
  0x00, 0xda, 0xeb, 0xb0, 0xee, 0xde, 0x0b, 0xcd, 0x21, 0x22, 0xd2, 0xd7, 0xf8, 0x16, 0xff, 0xc4,
  0x26, 0xcb, 0xf9, 0x9e, 0xf7, 0xd8, 0x0d, 0xed, 0x18, 0xe9, 0x22, 0xd1, 0x09, 0xb9, 0xc3, 0x20,
  0xdc, 0x01, 0xdf, 0xe9, 0xf3, 0x17, 0x10, 0xbd, 0xc3, 0x09, 0xe4, 0x1e, 0x3b, 0x28, 0x20, 0xe6,
  0xb8, 0x30, 0x48, 0x0a, 0x0f, 0x43, 0x0c, 0xc3, 0x35, 0xed, 0xf6, 0xdd, 0x0c, 0x24, 0x0f, 0x2f,
  0xeb, 0x1a, 0x31, 0xf1, 0xf0, 0x22, 0xfb, 0xed, 0x1c, 0xfd, 0x37, 0xc8, 0xf0, 0x10, 0xef, 0x2b,
  0x10, 0xd0, 0xff, 0xee, 0x1f, 0xb7, 0x07, 0x81, 0x2f, 0xe6, 0xe3, 0xfb, 0xcb, 0x1d, 0x17, 0xf9,
  0xb8, 0x09, 0x01, 0x09, 0xf3, 0xcd, 0x12, 0xc3, 0x28, 0x19, 0x3f, 0xe8, 0x04, 0x00, 0xdf, 0x02,
  0xbd, 0x23, 0x06, 0xe3, 0xea, 0x21, 0x0e, 0xbc, 0xc4, 0xd3, 0x2a, 0xe2, 0xd1, 0xc8, 0xc6, 0x47,
  0x07, 0x35, 0xe9, 0x08, 0xf8, 0xc2, 0xe4, 0xe1, 0x10, 0xf0, 0x38, 0xe6, 0x11, 0x2f, 0x10, 0x0c,
  0xeb, 0xc1, 0xc7, 0xfb, 0xd3, 0x1e, 0x20, 0xa6, 0xed, 0xe4, 0x30, 0xf4, 0x15, 0x0f, 0xf3, 0x3a,
  0xfb, 0xf5, 0xbd, 0xef, 0xf0, 0x11, 0x02, 0xc1, 0xdd, 0x13, 0xfd, 0x03, 0x0c, 0xc2, 0xaa, 0x21,
  0x15, 0x00, 0xef, 0xe9, 0xde, 0x04, 0x1b, 0x0b, 0x07, 0xf2, 0xd1, 0x28, 0xe5, 0x56, 0xe6, 0x33,
  0xfd, 0x41, 0x18, 0xc5, 0xda, 0xd9, 0x23, 0xd4, 0xf1, 0xec, 0x93, 0xf8, 0xc1, 0x1c, 0xf9, 0x21,
  0x2e, 0x07, 0x21, 0xe0, 0x09, 0xf5, 0x36, 0xc8, 0xd7, 0xf1, 0xc6, 0xed, 0xe8, 0xc5, 0x11, 0xcf,
  0x07, 0xe6, 0x30, 0xe8, 0xdb, 0xe9, 0x32, 0xea, 0xda, 0x38, 0xff, 0x23, 0xe1, 0x50, 0xbc, 0xec,
  0xdb, 0xee, 0xfc, 0xc6, 0xe5, 0x03, 0xe8, 0xb0, 0x34, 0x04, 0x21, 0xf2, 0x36, 0x07, 0xf9, 0x43,
  0x03, 0xd2, 0xe9, 0xfb, 0x0e, 0xe3, 0x0f, 0xaf, 0x32, 0xc8, 0x59, 0xad, 0x16, 0x81, 0x0f, 0x0d,
  0x24, 0xce, 0xf7, 0x12, 0x09, 0x04, 0x19, 0xe2, 0xcc, 0xe0, 0x0b, 0xc5, 0xd7, 0x1a, 0xaa, 0xed,
  0xe8, 0xce, 0xa9, 0xd6, 0x1e, 0x1e, 0xc3, 0x9f, 0xef, 0xe4, 0x2b, 0xd6, 0xcd, 0xe5, 0x04, 0x19,
  0xe7, 0xbe, 0xbd, 0xcf, 0x0a, 0x17, 0xff, 0xd5, 0x32, 0xe5, 0x10, 0xf3, 0xc4, 0xfe, 0x20, 0x0e,
  0x33, 0xf3, 0xee, 0x22, 0xb4, 0x1a, 0x17, 0xbd, 0xe0, 0x59, 0x0a, 0xf6, 0x36, 0x28, 0x12, 0xc5,
  0xd3, 0x46, 0x03, 0x30, 0x14, 0x25, 0x2c, 0xfb, 0xf9, 0x36, 0xd8, 0x18, 0x02, 0x00, 0xee, 0xd0,
  0xf0, 0x0b, 0x15, 0xe1, 0xd1, 0xc2, 0xe1, 0xc6, 0xf4, 0xcb, 0xde, 0xf2, 0xfe, 0xdf, 0x0f, 0x02,
  0xf9, 0xea, 0x14, 0xd7, 0xe4, 0xdb, 0x1b, 0xaa, 0xe1, 0x09, 0xad, 0x41, 0x1a, 0xf3, 0xf4, 0x39,
  0xbd, 0xe1, 0xec, 0x07, 0x3f, 0xb8, 0x0c, 0xdb, 0x01, 0x3c, 0xfa, 0xda, 0x31, 0x09, 0x03, 0x38,
  0x13, 0xec, 0xcd, 0xda, 0xca, 0x19, 0x05, 0x95, 0xce, 0x26, 0x1f, 0x08, 0x1e, 0xbd, 0x25, 0xd2,
  0x18, 0xc7, 0xc5, 0xc4, 0x18, 0x26, 0x17, 0xd9, 0xce, 0xe7, 0x26, 0x0c, 0xef, 0x12, 0x12, 0xfb,
  0xeb, 0x11, 0xac, 0xed, 0x19, 0xf8, 0x00, 0xd2, 0x09, 0x2c, 0xde, 0x08, 0xf9, 0xd4, 0xbf, 0x05,
  0xff, 0xd4, 0xc2, 0xf8, 0x1d, 0xd4, 0x1e, 0x81, 0x24, 0x18, 0xe2, 0xf2, 0xe2, 0xc1, 0xfc, 0xf0,
  0x39, 0xc0, 0xbd, 0xeb, 0x1a, 0xff, 0x22, 0x0d, 0x07, 0x96, 0x2c, 0xb0, 0x0c, 0xfb, 0x0b, 0xf8,
  0x28, 0x2d, 0x0d, 0x10, 0x09, 0xdd, 0xd6, 0xf6, 0x0c, 0xed, 0xf7, 0x34, 0x05, 0x26, 0xde, 0x27,
  0x09, 0xc2, 0x00, 0xd7, 0xec, 0x28, 0x25, 0xf1, 0x00, 0xe0, 0x0c, 0xe7, 0xd4, 0xf9, 0xfd, 0x2d,
  0xd2, 0x0e, 0x13, 0xf3, 0x1e, 0xdf, 0x1b, 0x12, 0x08, 0xb4, 0xfa, 0xec, 0x11, 0xe8, 0x00, 0xd8,
  0xf2, 0x1b, 0xd0, 0xa2, 0x15, 0x16, 0xcf, 0x26, 0x01, 0x46, 0xdd, 0xf0, 0x04, 0x30, 0xe0, 0xff,
  0x03, 0xc7, 0x32, 0x02, 0xe1, 0xe3, 0xff, 0x1e, 0xf4, 0x09, 0xfa, 0xec, 0x9b, 0x12, 0xc7, 0x0c,
  0xf2, 0xbf, 0xd4, 0xd2, 0x0d, 0xfa, 0x10, 0xd8, 0xf4, 0xb2, 0xf2, 0x1a, 0xf0, 0x17, 0x03, 0xbd,
  0xff, 0xfe, 0x09, 0x81, 0xe9, 0xd0, 0x06, 0xd4, 0xd4, 0x1f, 0xce, 0x21, 0x10, 0xf1, 0xf6, 0x05,
  0x18, 0xb9, 0x0e, 0xff, 0xe5, 0x18, 0x24, 0xf3, 0xe6, 0xfb, 0xf7, 0xf6, 0xd0, 0xf8, 0x0c, 0xf7,
  0x0a, 0xf9, 0xee, 0xe2, 0x08, 0x11, 0x38, 0x08, 0xbb, 0xdb, 0x00, 0x16, 0x43, 0x3e, 0xbf, 0xa6,
  0xee, 0x23, 0x0e, 0xfa, 0x03, 0xf2, 0x5c, 0x81, 0x04, 0x50, 0xd6, 0x38, 0x21, 0xb8, 0x19, 0x99,
  0xcf, 0x37, 0x32, 0xda, 0x07, 0xd5, 0xb9, 0xd8, 0xe3, 0x4c, 0x93, 0x2d, 0xd2, 0xae, 0x2f, 0xa8,
  0xc4, 0x6e, 0xfe, 0x08, 0xef, 0xad, 0x2e, 0x08, 0x03, 0xf8, 0x2d, 0x03, 0xf7, 0xd5, 0xd6, 0xea,
  0x2a, 0xe0, 0xc7, 0xd9, 0x24, 0xee, 0xe9, 0xbd, 0x0a, 0x45, 0xed, 0x16, 0xd3, 0x0f, 0x1e, 0xb6,
  0x0a, 0x24, 0xd0, 0xe8, 0x06, 0x1e, 0xee, 0xaa, 0xe0, 0x26, 0x01, 0xd5, 0xe8, 0xa4, 0xf4, 0xf9,
  0xde, 0xe3, 0xcb, 0x0b, 0x07, 0xb2, 0xf2, 0x10, 0xaf, 0xc0, 0xf8, 0x3c, 0x35, 0x36, 0xdd, 0x0b,
  0x1e, 0xc7, 0x0d, 0x92, 0xd6, 0xe0, 0xc6, 0x96, 0xfc, 0x0c, 0xdf, 0xea, 0xf6, 0xc5, 0xdd, 0x14,
  0xf8, 0x08, 0xdb, 0xca, 0xbb, 0x09, 0xdc, 0xd8, 0x0d, 0x1a, 0x11, 0xf3, 0xf4, 0x13, 0xc7, 0xd2,
  0x35, 0xd9, 0xe0, 0xea, 0x48, 0x1c, 0x50, 0x01, 0x2e, 0x10, 0x81, 0x4e, 0xe7, 0xd2, 0xf1, 0xfc,
  0x17, 0x34, 0x15, 0xe6, 0xb1, 0x17, 0x1f, 0x10, 0x12, 0x03, 0xb9, 0x19, 0xec, 0x32, 0xbe, 0xfb,
  0xd0, 0x00, 0x13, 0x01, 0x99, 0x35, 0x6c, 0x28, 0xc9, 0x55, 0xcf, 0x32, 0xcc, 0x22, 0x00, 0x2c,
  0xb1, 0x23, 0xe5, 0xff, 0xf0, 0xec, 0x1f, 0x44, 0x01, 0x23, 0xe7, 0x1b, 0xef, 0xbf, 0xc5, 0x1f,
  0xdd, 0x38, 0xdf, 0x25, 0x12, 0xfc, 0xcf, 0xfa, 0xdf, 0x14, 0xd9, 0x34, 0xc3, 0xb6, 0xfc, 0xd9,
  0xc9, 0xd9, 0x03, 0x1c, 0xba, 0xf0, 0xfd, 0xf5, 0x19, 0x21, 0xa6, 0x14, 0xe9, 0x0e, 0x19, 0xb4,
  0xc4, 0xbd, 0xc0, 0x22, 0x1f, 0xb2, 0x06, 0xef, 0xf4, 0x0e, 0xf9, 0x2f, 0x1b, 0xd7, 0x35, 0xed,
  0xe7, 0x5f, 0xe7, 0x30, 0xee, 0x08, 0x1b, 0x07, 0xf4, 0x05, 0xf8, 0x00, 0xe0, 0xde, 0x09, 0x02,
  0xf6, 0x46, 0x34, 0x09, 0xff, 0x01, 0xfb, 0xfd, 0xd9, 0x99, 0x04, 0x07, 0x2f, 0xdb, 0x27, 0xff,
  0xd3, 0xf3, 0xe9, 0x0a, 0xde, 0x10, 0x49, 0x09, 0xb5, 0xf3, 0xe8, 0x2a, 0x00, 0x10, 0x29, 0x49,
  0xf9, 0xda, 0xf5, 0x25, 0xe2, 0xd5, 0x3d, 0x03, 0xc6, 0x28, 0xf0, 0x29, 0xf8, 0x27, 0xd3, 0x36,
  0x4e, 0xda, 0xea, 0xbb, 0xff, 0xbf, 0x37, 0x03, 0xb8, 0x36, 0xd9, 0x26, 0x81, 0xaf, 0x46, 0x1f,
  0x10, 0x18, 0xaa, 0xe9, 0xe0, 0xf5, 0xdf, 0x19, 0xf4, 0x03, 0x33, 0x02, 0x2d, 0x3c, 0xda, 0xf6,
  0x01, 0xc4, 0xfb, 0xe6, 0x0f, 0xe0, 0xfe, 0xb9, 0xf1, 0xdc, 0x47, 0x0c, 0x3e, 0x44, 0xb6, 0x21,
  0x03, 0xe8, 0x32, 0xf2, 0xcf, 0xef, 0xf5, 0x93, 0xf5, 0x32, 0xb5, 0xee, 0x0e, 0x20, 0xf2, 0x49,
  0x0d, 0x06, 0x01, 0xa0, 0xea, 0xeb, 0xe1, 0x0c, 0x2f, 0x87, 0x2a, 0x16, 0x21, 0xed, 0x22, 0x2f,
  0xdb, 0xd5, 0x42, 0x18, 0xf0, 0xbf, 0xec, 0x10, 0xfc, 0xb3, 0x36, 0xe9, 0xde, 0x1c, 0xe7, 0xfe,
  0x0d, 0xa7, 0xd1, 0xe7, 0xf3, 0xc7, 0x03, 0xaf, 0xec, 0xbc, 0x3a, 0x1c, 0xc6, 0xed, 0xc6, 0xbf,
  0xea, 0x02, 0xa5, 0xf9, 0x0f, 0x2b, 0xf0, 0xc6, 0xfe, 0x12, 0x1a, 0xcd, 0xda, 0x30, 0xf2, 0x13,
  0xf1, 0x3e, 0xe5, 0xc1, 0x1e, 0xc5, 0x42, 0x16, 0xe0, 0x27, 0x01, 0x47, 0xd1, 0x46, 0x16, 0x0a,
  0x00, 0x1e, 0xfe, 0xc6, 0x30, 0xf5, 0xc1, 0xd8, 0x20, 0xfa, 0x23, 0x04, 0xf5, 0x4b, 0xc3, 0x1f,
  0x44, 0x05, 0x55, 0x81, 0x45, 0xe4, 0x35, 0xdb, 0xd0, 0xe6, 0x32, 0xd1, 0x3c, 0x1b, 0xb2, 0xf2,
  0xef, 0x10, 0xd6, 0xc2, 0x26, 0x3a, 0x0d, 0x44, 0xf6, 0x28, 0x06, 0xbc, 0xf2, 0xe3, 0x38, 0x20,
  0x5b, 0x01, 0x00, 0xca, 0x49, 0x08, 0xdd, 0x03, 0xfd, 0x63, 0x26, 0x23, 0x3f, 0x2d, 0x25, 0x2b,
  0xfa, 0x1c, 0xf6, 0x20, 0x1e, 0xfc, 0x44, 0xcc, 0xd3, 0xbe, 0xc9, 0xc4, 0x31, 0x07, 0x01, 0x2d,
  0xdf, 0xf9, 0xc3, 0x45, 0x22, 0x31, 0x33, 0x11, 0xc3, 0x22, 0xfc, 0xa4, 0x05, 0xf5, 0xf5, 0xed,
  0x2d, 0xcf, 0xd5, 0xf8, 0x07, 0x08, 0x1f, 0xe3, 0xf2, 0xd2, 0xe0, 0xdb, 0xfb, 0xe6, 0xa7, 0x36,
  0xc9, 0xf2, 0xfe, 0x43, 0x15, 0xba, 0x0c, 0xe2, 0xe8, 0xba, 0x21, 0x17, 0xd7, 0xd5, 0xf4, 0x27,
  0xee, 0xc6, 0x12, 0xd1, 0xb0, 0xe5, 0x11, 0xd4, 0x34, 0xe6, 0x2a, 0x29, 0xf1, 0x19, 0xeb, 0x22,
  0xd6, 0x0c, 0xce, 0xe4, 0xe8, 0x13, 0x0d, 0xd8, 0x10, 0xf9, 0x51, 0xff, 0xed, 0x05, 0x08, 0xed,
  0xba, 0xd3, 0xcb, 0xfa, 0xcb, 0x11, 0x18, 0x07, 0xd8, 0xe2, 0x3e, 0x19, 0x02, 0x20, 0xf0, 0xf9,
  0xf9, 0x03, 0xfb, 0xd9, 0x01, 0xd3, 0xf9, 0x81, 0xd9, 0xca, 0xfd, 0xef, 0x04, 0x12, 0x00, 0x49,
  0xd7, 0xe5, 0xe6, 0xde, 0x13, 0x1b, 0xc6, 0xc6, 0x1a, 0xed, 0x10, 0xe4, 0xf5, 0x04, 0x26, 0x2f,
  0xfa, 0x13, 0x34, 0x0f, 0x0e, 0x0b, 0x1b, 0xcd, 0x0e, 0xba, 0x0b, 0xde, 0xd7, 0x19, 0x13, 0xd3,
  0x22, 0x1b, 0x21, 0x08, 0xb8, 0xb0, 0x12, 0xd8, 0xff, 0xcc, 0x33, 0x0d, 0xb3, 0x1e, 0x0a, 0x1c,
  0x13, 0xea, 0xcd, 0x17, 0xe3, 0xfa, 0x31, 0xed, 0x1e, 0xe4, 0x0d, 0x12, 0x04, 0x30, 0x21, 0x12,
  0x24, 0x2a, 0x05, 0xf4, 0x07, 0x4c, 0x48, 0x1f, 0x0f, 0xdc, 0xd9, 0xbf, 0x04, 0xf7, 0xc8, 0x23,
  0x11, 0xe2, 0xb0, 0xca, 0x0d, 0x40, 0xfe, 0x41, 0xf7, 0x13, 0x0d, 0x07, 0x26, 0x21, 0x0e, 0x36,
  0x09, 0xee, 0x35, 0x36, 0xb0, 0x11, 0x40, 0xc8, 0xd8, 0x2a, 0x2a, 0x22, 0xe3, 0x34, 0xc3, 0x55,
  0xe8, 0xd9, 0xfb, 0xb1, 0xf0, 0x07, 0x1a, 0xff, 0xb7, 0xe0, 0xc4, 0x2d, 0xed, 0x27, 0x0c, 0xdd,
  0x46, 0xe1, 0x9f, 0xc3, 0x17, 0x12, 0xc1, 0xd9, 0x15, 0x22, 0xa6, 0xeb, 0xd2, 0xf8, 0x3a, 0x50,
  0x15, 0xfb, 0x4c, 0x10, 0x2b, 0x13, 0x2e, 0xee, 0xbe, 0x53, 0xd3, 0x18, 0x00, 0x12, 0x22, 0xdf,
  0xb5, 0x03, 0x86, 0xf6, 0xfd, 0xb5, 0x14, 0xcd, 0x81, 0x25, 0xf2, 0x1d, 0xf2, 0x3c, 0xc5, 0xf1,
  0x44, 0xdf, 0xd1, 0xdf, 0xe2, 0x17, 0x4a, 0x2e, 0xea, 0x4b, 0x98, 0xe9, 0xb9, 0x1b, 0xb5, 0xcf,
  0xbf, 0xa0, 0xef, 0xd9, 0x08, 0x00, 0xf8, 0x15, 0xff, 0x37, 0xb6, 0xc3, 0xd9, 0xe2, 0xd4, 0x1c,
  0x3a, 0xcf, 0x18, 0x05, 0x18, 0xea, 0x01, 0xf0, 0x06, 0x3d, 0x81, 0x1b, 0xd8, 0x15, 0xc5, 0xcb,
  0xc3, 0x92, 0xe6, 0xda, 0xea, 0xe3, 0xf1, 0x33, 0xed, 0xad, 0xe9, 0x2a, 0x16, 0x26, 0xd6, 0xd7,
  0x0b, 0xe3, 0xf2, 0x30, 0xdc, 0x0d, 0xfd, 0x42, 0x37, 0xfd, 0x01, 0x46, 0xf8, 0x06, 0xe0, 0xf8,
  0xd9, 0xb4, 0x0b, 0xf1, 0xce, 0xa9, 0xdc, 0x2f, 0xcd, 0xf4, 0xac, 0xf5, 0x32, 0x38, 0x26, 0xc3,
  0xf8, 0xfe, 0x03, 0xaf, 0x00, 0xfb, 0xeb, 0x23, 0xda, 0xe7, 0xf4, 0xf4, 0xf1, 0xed, 0x27, 0x07,
  0xc4, 0xf6, 0xbe, 0xbf, 0x11, 0x0b, 0x1c, 0x33, 0xcb, 0xeb, 0xc0, 0x07, 0x07, 0x50, 0xd0, 0xf4,
  0xf9, 0xee, 0xd2, 0xe7, 0xdb, 0xdd, 0xf7, 0x03, 0xe7, 0x3b, 0xcc, 0x0d, 0x23, 0x1e, 0xe8, 0x17,
  0x2d, 0x11, 0xd5, 0xb4, 0xe9, 0x2f, 0x03, 0x06, 0xb4, 0x05, 0xdc, 0xe9, 0xe2, 0xe9, 0x37, 0xec,
  0x23, 0xc0, 0xf0, 0xfc, 0xda, 0x31, 0x3e, 0xfc, 0xcc, 0xcb, 0x03, 0x2c, 0xd1, 0xfa, 0xf5, 0x24,
  0x00, 0x03, 0xfb, 0xd1, 0xb7, 0x0e, 0xf8, 0x23, 0x33, 0x49, 0xb0, 0x4a, 0x0b, 0xef, 0xe0, 0xab,
  0x45, 0xec, 0x18, 0x2b, 0x03, 0xdd, 0x17, 0x56, 0x17, 0x30, 0xec, 0x3b, 0xf4, 0xf7, 0xa6, 0xda,
  0x52, 0x09, 0x81, 0x46, 0x38, 0xc2, 0xe6, 0x21, 0xe1, 0xdc, 0xf8, 0x10, 0xe7, 0x44, 0x16, 0x24,
  0xfe, 0xc6, 0xa3, 0xdd, 0x96, 0x17, 0xd0, 0x04, 0xd1, 0xed, 0xd3, 0xf6, 0x11, 0xa3, 0xc1, 0xce,
  0xf4, 0xcc, 0xce, 0xdc, 0x0a, 0xd4, 0x54, 0x0d, 0x18, 0xdd, 0xc9, 0xed, 0x24, 0xf3, 0xe7, 0xc7,
  0xb1, 0x41, 0xca, 0x23, 0x97, 0x13, 0xe2, 0xf8, 0xb5, 0xd3, 0x0d, 0x11, 0xdb, 0xcc, 0xdd, 0xd8,
  0xcd, 0x1f, 0xb9, 0x22, 0x9f, 0xd0, 0x39, 0x18, 0x0d, 0xd2, 0x0b, 0x46, 0xe7, 0xdb, 0xf0, 0xf4,
  0xa6, 0xf0, 0x40, 0x14, 0xcd, 0x07, 0x4e, 0x0e, 0x20, 0x03, 0x1c, 0xf2, 0x13, 0xbc, 0x41, 0xc5,
  0xd6, 0xf1, 0xb6, 0xf8, 0x1a, 0x00, 0x44, 0xfa, 0xe2, 0xef, 0x15, 0x17, 0xfa, 0xc4, 0x47, 0xd5,
  0xf8, 0x37, 0xb2, 0x3d, 0xe7, 0xfa, 0x16, 0x2f, 0xf6, 0x12, 0x81, 0xf4, 0x19, 0xcf, 0xad, 0xd6,
  0x45, 0xde, 0x12, 0x2c, 0xcf, 0x17, 0xeb, 0x1f, 0xe8, 0x3f, 0xc4, 0xfb, 0xd5, 0xe1, 0xa0, 0x3a,
  0x1f, 0xdb, 0xba, 0x59, 0x08, 0x1f, 0xf7, 0x3a, 0xe4, 0xdb, 0x94, 0xad, 0x2a, 0xbc, 0x95, 0x04,
  0xe5, 0xcc, 0x09, 0x15, 0xc4, 0x40, 0xe2, 0xf1, 0x93, 0xeb, 0x1c, 0xce, 0xdc, 0xf8, 0xef, 0xf4,
  0x1a, 0x35, 0x15, 0x0a, 0x0a, 0x08, 0xc0, 0x14, 0xed, 0x04, 0xc4, 0xc0, 0xc6, 0xd2, 0xc7, 0x1e,
  0xd5, 0x05, 0xe8, 0xfb, 0x1d, 0xee, 0x2a, 0x19, 0xd8, 0x4d, 0xf7, 0xaf, 0x33, 0x13, 0xc4, 0x36,
  0x25, 0x07, 0xfa, 0x18, 0x1e, 0x21, 0x08, 0x08, 0xdd, 0xf6, 0x07, 0x38, 0xd0, 0x20, 0xcb, 0xff,
  0xe2, 0xdf, 0xf7, 0xe7, 0xec, 0xb8, 0x5a, 0xbc, 0xdc, 0x25, 0xeb, 0x08, 0xdb, 0x16, 0x0a, 0xe9,
  0x09, 0x0a, 0x11, 0xdf, 0xc6, 0xe1, 0x44, 0x08, 0x81, 0xff, 0x0c, 0x19, 0xd4, 0x09, 0x25, 0xe6,
  0xcd, 0xe8, 0x14, 0xef, 0x4d, 0x1e, 0x20, 0x07, 0x37, 0x32, 0xb8, 0x06, 0x04, 0xf5, 0x48, 0xfd,
  0x24, 0x63, 0x29, 0x27, 0x30, 0x08, 0x1f, 0x45, 0x4a, 0x35, 0xf2, 0xe0, 0xe1, 0xdf, 0xfb, 0x10,
  0x02, 0x4d, 0x7f, 0x42, 0x0b, 0x1b, 0x13, 0x48, 0x29, 0xe3, 0xe7, 0xf3, 0xd7, 0x2d, 0xe0, 0x02,
  0x38, 0x3a, 0x3d, 0xd2, 0xeb, 0xee, 0xbc, 0xf2, 0xf2, 0x4a, 0x9b, 0x2a, 0xf3, 0x09, 0x40, 0xe0,
  0x1a, 0xe3, 0xc3, 0x0b, 0x36, 0xfd, 0xd7, 0x0b, 0xf7, 0x32, 0xe6, 0x0e, 0x01, 0x03, 0x0b, 0xcf,
  0xfc, 0xe8, 0x57, 0x20, 0x25, 0x09, 0x1a, 0x36, 0xbd, 0xf3, 0xdb, 0x3c, 0x38, 0xe6, 0x0c, 0xd6,
  0xdf, 0x22, 0x15, 0xc7, 0x2d, 0xf1, 0xf1, 0xec, 0xe3, 0xfe, 0x1b, 0x0c, 0xdb, 0xc8, 0xe9, 0xab,
  0x18, 0xe7, 0xab, 0xfa, 0x21, 0xee, 0xe6, 0x08, 0xef, 0x4b, 0xfc, 0x01, 0x0c, 0x0a, 0xe8, 0x48,
  0xf4, 0xf5, 0xa8, 0x28, 0xf1, 0x00, 0xdb, 0xb3, 0xd0, 0x31, 0x07, 0x35, 0xca, 0xc3, 0xf9, 0xf1,
  0x34, 0x0b, 0xcf, 0xec, 0xa7, 0x14, 0xa6, 0x9e, 0x11, 0xdf, 0x3e, 0xee, 0xfc, 0xc6, 0xf5, 0x38,
  0xe7, 0xe5, 0x28, 0x04, 0xe6, 0xbb, 0xd0, 0xf9, 0x38, 0x29, 0xfa, 0xc6, 0xe8, 0xf2, 0x63, 0x9b,
  0x33, 0xfa, 0x1b, 0xce, 0xd4, 0x32, 0xfc, 0x60, 0xc3, 0xda, 0x0f, 0x27, 0xf7, 0x27, 0xf9, 0xd2,
  0x2c, 0x6c, 0x6d, 0x0a, 0x43, 0xf2, 0xb9, 0xec, 0x28, 0xdb, 0x26, 0xb4, 0xf0, 0xec, 0x46, 0x23,
  0x12, 0xe5, 0x15, 0xd0, 0x1d, 0xf2, 0xae, 0x0d, 0xe7, 0xbb, 0x41, 0xcc, 0xf6, 0x81, 0x40, 0x1c,
  0x1a, 0x1e, 0x0d, 0x0b, 0x20, 0x0f, 0x2c, 0x14, 0xb3, 0x21, 0xc4, 0xc3, 0xc7, 0xfe, 0x10, 0xef,
  0xeb, 0x2c, 0x53, 0xd1, 0x06, 0x0d, 0xa2, 0x49, 0x28, 0x33, 0xc2, 0x14, 0xb0, 0x17, 0x50, 0x8d,
  0xbd, 0xf7, 0x15, 0xbf, 0x21, 0xa0, 0xaf, 0xc7, 0x30, 0xf7, 0xf7, 0x1a, 0xd5, 0xad, 0xcf, 0xc6,
  0xc4, 0xf9, 0x1e, 0x07, 0xe2, 0xf3, 0xba, 0x25, 0xeb, 0x0a, 0xbe, 0x27, 0xe2, 0xf3, 0x00, 0x9a,
  0x39, 0x4b, 0x56, 0x22, 0xfb, 0x2d, 0x2b, 0xfa, 0x1c, 0xf7, 0xec, 0xc1, 0xd5, 0xd9, 0x37, 0xf4,
  0x1b, 0x0b, 0x0f, 0x3f, 0x25, 0xe2, 0x26, 0xfd, 0x24, 0xe5, 0xea, 0x15, 0xc2, 0x41, 0x0b, 0x42,
  0xf7, 0xea, 0x41, 0xe1, 0xdf, 0x02, 0xd3, 0x1b, 0x04, 0x2e, 0x27, 0xe4, 0x13, 0xf2, 0xf6, 0x19,
  0x32, 0x3c, 0x2c, 0xff, 0x25, 0xfd, 0x34, 0xc8, 0xff, 0x9e, 0xbb, 0xeb, 0xfd, 0x81, 0xf0, 0xe6,
  0x02, 0xde, 0xf0, 0x11, 0xf3, 0x10, 0x2d, 0xcc, 0x09, 0x12, 0xdc, 0xbf, 0xff, 0xfb, 0x9f, 0xec,
  0x25, 0x10, 0x06, 0x1e, 0xf0, 0x1c, 0x40, 0x0a, 0x8f, 0xcb, 0xe6, 0x8c, 0x0c, 0xdb, 0xe1, 0x28,
  0xfe, 0x2e, 0xc7, 0x3f, 0xf1, 0xef, 0xe0, 0xf4, 0xad, 0x89, 0x1e, 0x0e, 0xf1, 0xb8, 0xa6, 0x35,
  0x40, 0x10, 0x00, 0x08, 0x44, 0xc1, 0xbb, 0x38, 0x03, 0x25, 0xed, 0x1c, 0x03, 0x1d, 0xbb, 0xd0,
  0x3d, 0x0d, 0xee, 0xfd, 0x0f, 0xe8, 0xd7, 0xfe, 0xe9, 0xc8, 0xb2, 0xe3, 0xf3, 0x8a, 0x11, 0x51,
  0x06, 0xe8, 0xd8, 0xfe, 0xcb, 0x20, 0x29, 0x17, 0xdf, 0x49, 0xae, 0xf6, 0xf8, 0x1c, 0xea, 0x17,
  0xa1, 0x08, 0x28, 0x9d, 0x98, 0x14, 0xfc, 0x1a, 0x2d, 0xc5, 0x2c, 0xfc, 0xbf, 0x04, 0xdf, 0x1b,
  0x97, 0x16, 0xd2, 0xfd, 0xd3, 0xeb, 0xc4, 0x22, 0xb6, 0xa4, 0xb0, 0x24, 0xea, 0x36, 0xd8, 0xc8,
  0x24, 0x90, 0xd2, 0xef, 0xc0, 0xe7, 0xb6, 0x17, 0xaf, 0xdb, 0x8b, 0x48, 0x17, 0x24, 0xdc, 0x40,
  0x81, 0x06, 0xa7, 0xb9, 0x40, 0x50, 0x4f, 0x09, 0xd7, 0xcb, 0x8a, 0x16, 0xbf, 0xaf, 0xbb, 0x28,
  0xaf, 0xd6, 0xe3, 0x0d, 0x1e, 0x11, 0xe0, 0x11, 0x09, 0x31, 0xa1, 0x21, 0xa0, 0x2c, 0xa0, 0xe0,
  0xe0, 0xfa, 0xc6, 0x23, 0x03, 0xff, 0xfe, 0x29, 0xbe, 0x1b, 0xde, 0x27, 0x51, 0xc4, 0x5e, 0xdd,
  0xc3, 0x04, 0x1e, 0x29, 0x23, 0xd7, 0x93, 0xd1, 0xf2, 0xd4, 0xca, 0xc9, 0x08, 0xa6, 0x3d, 0xf4,
  0x18, 0x3b, 0x47, 0x04, 0xfe, 0x9a, 0xc2, 0xc4, 0x41, 0xc8, 0xf1, 0x30, 0xb7, 0x47, 0xf3, 0xfa,
  0x04, 0xc2, 0xb7, 0x2c, 0xe3, 0x12, 0xe2, 0xd7, 0x15, 0x12, 0xd3, 0x24, 0x19, 0x21, 0x23, 0xfc,
  0xe9, 0x3b, 0x25, 0xc6, 0xef, 0x18, 0xf0, 0xda, 0x2e, 0xea, 0xde, 0xfa, 0x06, 0xd9, 0xec, 0x20,
  0x11, 0xd8, 0x1a, 0x03, 0xe3, 0x2e, 0x14, 0xd2, 0x29, 0xec, 0x0e, 0xe3, 0x02, 0xe2, 0xd9, 0x13,
  0x19, 0x1b, 0x1d, 0x1f, 0xfb, 0xef, 0x06, 0xef, 0x3c, 0xe7, 0xd7, 0xe3, 0xd9, 0x0f, 0xed, 0xf3,
  0x10, 0x31, 0x3d, 0xdf, 0xf2, 0x13, 0xc5, 0xce, 0xf8, 0x11, 0x35, 0xd1, 0xd3, 0xd7, 0x0d, 0xe1,
  0x0d, 0xe7, 0x19, 0xf7, 0x04, 0x1d, 0xec, 0xf5, 0x2a, 0xec, 0x22, 0xe6, 0x1e, 0xab, 0xe1, 0xf2,
  0x13, 0xe5, 0xd9, 0x15, 0x24, 0xf4, 0xf0, 0x81, 0x07, 0x16, 0xe8, 0xd6, 0xcc, 0x0c, 0xeb, 0xc4,
  0x07, 0x03, 0x09, 0xf1, 0xec, 0x01, 0xf5, 0xad, 0x19, 0xdc, 0xef, 0xf0, 0xe2, 0xbd, 0x06, 0x36,
  0x16, 0xcb, 0x04, 0xf2, 0xcc, 0xf5, 0xe8, 0xb3, 0x04, 0xd1, 0x29, 0x10, 0x16, 0xbd, 0xef, 0xfe,
  0x24, 0xc4, 0xec, 0x24, 0xfc, 0xe6, 0xe7, 0xcf, 0x24, 0x33, 0xf4, 0x49, 0x15, 0xcc, 0xe2, 0xcb,
  0xe3, 0xe1, 0xe8, 0xb1, 0xa3, 0xf1, 0xd1, 0x32, 0xf4, 0xe8, 0xda, 0x02, 0xec, 0x37, 0x38, 0xe7,
  0xb2, 0xec, 0xfd, 0xf6, 0x9e, 0xfb, 0x4f, 0x15, 0x10, 0x0b, 0x01, 0x0f, 0x9e, 0xda, 0xdc, 0xe5,
  0x8a, 0xf1, 0xf9, 0xda, 0x3f, 0x46, 0x0c, 0xcd, 0xef, 0x43, 0xb6, 0x14, 0xe8, 0xc2, 0xd5, 0xfd,
  0xdf, 0x03, 0x20, 0x1c, 0xf4, 0x09, 0x3e, 0x05, 0xdb, 0xec, 0xcd, 0x08, 0xba, 0xf9, 0x1c, 0xfc,
  0xf8, 0xfd, 0x07, 0xf1, 0xc9, 0xeb, 0xf6, 0xe9, 0xeb, 0xc3, 0xe6, 0x0f, 0xd4, 0x26, 0xb6, 0xe6,
  0xc5, 0x22, 0x11, 0xef, 0xf5, 0x24, 0xdc, 0x0d, 0x06, 0xfd, 0x81, 0xd6, 0xdf, 0x8a, 0xfb, 0xd6,
  0x02, 0xc4, 0xa6, 0x4e, 0x12, 0xdb, 0xad, 0x11, 0xd4, 0xd5, 0xaf, 0xf8, 0xfc, 0x22, 0xc3, 0xec,
  0x2a, 0xa1, 0xda, 0x3b, 0xd9, 0xfe, 0x44, 0x3d, 0xc3, 0x03, 0xdd, 0xd7, 0x9a, 0xea, 0xea, 0xc1,
  0x16, 0xd9, 0xd0, 0x3f, 0xd5, 0xce, 0xf7, 0xb1, 0x3f, 0x5d, 0x16, 0x0c, 0x1b, 0xd8, 0xf0, 0xbb,
  0x39, 0xd6, 0x1f, 0xda, 0x14, 0xdf, 0x01, 0xb4, 0x05, 0x54, 0x3f, 0x00, 0x0d, 0xff, 0x20, 0x06,
  0x18, 0x0e, 0x07, 0x05, 0xff, 0x0c, 0x1e, 0x01, 0xf8, 0x23, 0x24, 0xe6, 0xeb, 0xf0, 0xd8, 0x1a,
  0x0c, 0xe5, 0xc6, 0xdc, 0xc0, 0x13, 0xbb, 0xc6, 0xea, 0xf6, 0xe2, 0x14, 0xf0, 0xde, 0xdc, 0xf5,
  0x25, 0x81, 0xb1, 0xe5, 0x1b, 0xe8, 0x1a, 0x8d, 0xec, 0xc6, 0x23, 0x30, 0xde, 0x18, 0xe8, 0x1b,
  0xe2, 0xd8, 0xa9, 0xdd, 0x32, 0x2c, 0xd7, 0xf4, 0x27, 0xef, 0x31, 0xee, 0xea, 0x2c, 0xe6, 0x28,
  0xda, 0xdc, 0xee, 0xd1, 0x0e, 0x2a, 0xaa, 0xa3, 0x00, 0xdd, 0xdd, 0xda, 0xd3, 0x03, 0x2f, 0xf5,
  0xe1, 0xc9, 0xcc, 0x04, 0x30, 0x1f, 0xd1, 0xdf, 0x1d, 0xe4, 0x18, 0xc4, 0x42, 0x26, 0x27, 0x04,
  0xdd, 0x09, 0x2b, 0xd5, 0x27, 0xf9, 0xfa, 0x32, 0xdf, 0xf7, 0xfa, 0x29, 0x26, 0x4c, 0x07, 0x3a,
  0xf7, 0x2b, 0x14, 0xf0, 0x34, 0x34, 0x9a, 0xfb, 0x0a, 0x5e, 0xbb, 0x0b, 0xb3, 0xe6, 0x28, 0xdd,
  0x00, 0x95, 0x10, 0x3b, 0xfc, 0x08, 0x3f, 0x12, 0xa8, 0xa2, 0x24, 0x1c, 0x3f, 0x04, 0xd3, 0x32,
  0x2a, 0xe7, 0x89, 0x16, 0xdd, 0x14, 0xe0, 0xf0, 0xdc, 0x4f, 0x17, 0xab, 0x83, 0xcf, 0x0c, 0x19,
  0xe3, 0xd5, 0xd0, 0xec, 0xce, 0x90, 0xb7, 0x09, 0xed, 0x79, 0xf4, 0xc7, 0x37, 0x3a, 0xfc, 0x87,
  0xc4, 0x2c, 0x13, 0xf9, 0xfe, 0xab, 0x0c, 0x08, 0xd9, 0x2c, 0xda, 0x3b, 0x4c, 0xa2, 0xdb, 0xf6,
  0xda, 0x17, 0x17, 0xf9, 0x31, 0xdc, 0x58, 0xe9, 0xc1, 0x09, 0x36, 0xd0, 0x25, 0xff, 0x18, 0x36,
  0xf6, 0x94, 0xfa, 0x0d, 0x99, 0xd7, 0x05, 0x44, 0xf8, 0xef, 0x43, 0xe6, 0x24, 0x13, 0x15, 0xcb,
  0x3a, 0x32, 0x6a, 0x81, 0x81, 0xcc, 0xd8, 0x4e, 0x4f, 0xe3, 0x62, 0x19, 0x26, 0x8f, 0x13, 0x9d,
  0x24, 0x64, 0x47, 0x56, 0xd8, 0xe0, 0xfa, 0x1c, 0x29, 0xf8, 0x18, 0x35, 0x02, 0x04, 0x1c, 0xea,
  0xdb, 0x56, 0xd7, 0xf7, 0x2e, 0xf8, 0x69, 0x97, 0x0e, 0x04, 0xf0, 0xd8, 0x08, 0x17, 0xc1, 0x08,
  0xe6, 0xce, 0xc4, 0xc7, 0x41, 0xd4, 0x25, 0xaa, 0xcf, 0xd5, 0x23, 0xf1, 0x0c, 0xf5, 0x9c, 0x1f,
  0xdc, 0xdb, 0xac, 0x3d, 0x31, 0xed, 0x32, 0xa6, 0x3f, 0x53, 0xc6, 0xc9, 0xd2, 0xeb, 0xea, 0xdc,
  0xe3, 0x20, 0x27, 0xec, 0x2d, 0x9e, 0xea, 0xcf, 0xb7, 0x42, 0x1b, 0x2e, 0xf4, 0x1f, 0x25, 0xba,
  0xe1, 0xa5, 0x04, 0x86, 0x08, 0x2d, 0xdc, 0xa9, 0xd8, 0xf5, 0x0e, 0xfe, 0x00, 0x2e, 0x2c, 0x4b,
  0x22, 0xa3, 0x49, 0xd9, 0x00, 0x7f, 0x0a, 0x1c, 0x37, 0x71, 0x0d, 0x2d, 0xd0, 0x1f, 0x2a, 0x59,
  0x93, 0x58, 0x44, 0x21, 0xba, 0xd3, 0xc2, 0x3a, 0x1b, 0x95, 0xff, 0x3b, 0x2e, 0x08, 0xe3, 0xd8,
  0x45, 0xfb, 0xcb, 0xce, 0xd4, 0x39, 0xee, 0xd6, 0x2e, 0xe2, 0x0d, 0x19, 0xe6, 0xe6, 0x46, 0xf8,
  0xdf, 0xa2, 0xd4, 0xef, 0xc8, 0x1b, 0x97, 0x0b, 0xea, 0xe1, 0x25, 0x4f, 0x06, 0xf1, 0xda, 0xbd,
  0x3e, 0x3d, 0x19, 0x20, 0xe6, 0xe2, 0xff, 0xff, 0x04, 0x00, 0x00, 0x00, 0x60, 0x00, 0x00, 0x00,
  0x74, 0x26, 0x00, 0x00, 0x49, 0x0b, 0x00, 0x00, 0x7c, 0x0a, 0x00, 0x00, 0x3c, 0x19, 0x00, 0x00,
  0x98, 0x16, 0x00, 0x00, 0x82, 0x16, 0x00, 0x00, 0x24, 0x1c, 0x00, 0x00, 0x99, 0x02, 0x00, 0x00,
  0xdd, 0x12, 0x00, 0x00, 0xb8, 0xf3, 0xff, 0xff, 0x31, 0x16, 0x00, 0x00, 0x51, 0x0d, 0x00, 0x00,
  0x0a, 0x1f, 0x00, 0x00, 0x03, 0x22, 0x00, 0x00, 0xbc, 0x18, 0x00, 0x00, 0xa7, 0xea, 0xff, 0xff,
  0x1d, 0x0a, 0x00, 0x00, 0x14, 0x12, 0x00, 0x00, 0x80, 0x2d, 0x00, 0x00, 0x5b, 0x12, 0x00, 0x00,
  0xba, 0x2e, 0x00, 0x00, 0x79, 0x15, 0x00, 0x00, 0x86, 0x10, 0x00, 0x00, 0x07, 0x0b, 0x00, 0x00,
  0x52, 0xe3, 0xff, 0xff, 0x04, 0x00, 0x00, 0x00, 0x00, 0x1b, 0x00, 0x00, 0xfa, 0x13, 0xee, 0xbc,
  0xe5, 0xfa, 0xdf, 0xed, 0xe0, 0xde, 0xe3, 0xe1, 0xe3, 0xe8, 0x15, 0x27, 0xf1, 0x0c, 0x00, 0xf2,
  0xf3, 0xdb, 0x1d, 0xfc, 0xe6, 0x30, 0xfd, 0xca, 0xfb, 0x0a, 0xf8, 0xec, 0xd9, 0x16, 0xc5, 0x00,
  0xf6, 0x24, 0x19, 0x20, 0x2f, 0xf1, 0x25, 0xbd, 0xfa, 0xb0, 0x0a, 0xee, 0xef, 0xfb, 0xe6, 0xd0,
  0xca, 0x3f, 0xf7, 0xee, 0xd1, 0x10, 0x01, 0x2f, 0xc0, 0x10, 0x0d, 0x02, 0x14, 0xfe, 0xeb, 0xd5,
  0xe8, 0xfc, 0x1c, 0x0d, 0x25, 0xd8, 0xff, 0xf6, 0xc6, 0x03, 0x13, 0x15, 0xbb, 0x13, 0xfc, 0xd8,
  0x3b, 0x32, 0x01, 0xed, 0xfb, 0x4e, 0xf1, 0xf1, 0x0c, 0xce, 0x23, 0xe3, 0x23, 0xde, 0xd6, 0xf0,
  0xd5, 0xd6, 0xcc, 0xf6, 0xae, 0xf3, 0x11, 0xf9, 0x3a, 0x10, 0x0e, 0xff, 0x33, 0x34, 0xd7, 0x0d,
  0x02, 0xf7, 0x1a, 0xdb, 0x02, 0xe0, 0xcd, 0x08, 0xdc, 0x1f, 0xf0, 0xf2, 0x81, 0xe5, 0x03, 0x16,
  0x3e, 0x27, 0x10, 0xdb, 0x31, 0x10, 0x20, 0x1e, 0x36, 0xcf, 0x1c, 0x10, 0x08, 0x21, 0x0b, 0xa7,
  0xca, 0x23, 0xda, 0xec, 0xfb, 0xe3, 0x01, 0xfe, 0xcf, 0xfd, 0xf5, 0xf9, 0x25, 0xfd, 0xed, 0x03,
  0xe5, 0xe1, 0x1e, 0xe6, 0xfc, 0xd9, 0x21, 0xf2, 0xbf, 0xf7, 0xe7, 0xdd, 0xe6, 0x1b, 0xe3, 0x17,
  0xf5, 0x26, 0xe6, 0xe2, 0x3a, 0x12, 0x0a, 0xc2, 0xec, 0xe8, 0x27, 0x00, 0x20, 0xe6, 0x1a, 0xf2,
  0xbf, 0x28, 0xd6, 0x13, 0xfc, 0x19, 0x2a, 0xf1, 0xd2, 0x0c, 0x1c, 0x01, 0x2f, 0xd5, 0x00, 0xf4,
  0xf2, 0xd4, 0x20, 0x29, 0xc5, 0xc3, 0x07, 0xe0, 0xd7, 0x0f, 0xb6, 0xae, 0x3e, 0x47, 0x2b, 0x07,
  0x22, 0x22, 0xfb, 0xff, 0x16, 0x06, 0xc9, 0x28, 0x1b, 0xed, 0x19, 0xbd, 0x25, 0xf4, 0x13, 0x3d,
  0xf4, 0xd4, 0xd1, 0xf4, 0x40, 0xd9, 0x16, 0xe0, 0x26, 0x0e, 0xc1, 0x02, 0xe7, 0x02, 0xf0, 0x07,
  0xcf, 0x00, 0xe0, 0xf9, 0xdf, 0xde, 0x44, 0x3c, 0x8a, 0x04, 0xff, 0xb9, 0x15, 0xe8, 0xe4, 0x01,
  0xf9, 0x13, 0x18, 0xcc, 0x51, 0xe7, 0xe8, 0xfa, 0xf9, 0xd4, 0x17, 0xb6, 0xb2, 0xf3, 0x2a, 0x5c,
  0xfb, 0xd8, 0xf7, 0x11, 0x20, 0x06, 0x0b, 0xdd, 0xd2, 0xdf, 0x1b, 0x08, 0xe7, 0xc7, 0xe7, 0xc4,
  0xf9, 0x09, 0xe5, 0x39, 0xff, 0x42, 0x4d, 0x12, 0x18, 0x11, 0x5d, 0xc4, 0x69, 0xf7, 0x36, 0xec,
  0xf5, 0x0e, 0x32, 0x46, 0xb6, 0xfb, 0x2f, 0x00, 0x22, 0x3c, 0xc6, 0x0b, 0xf5, 0x44, 0x36, 0x5e,
  0xfa, 0xb2, 0x1e, 0x12, 0x61, 0xb7, 0x2b, 0xd8, 0xe2, 0xdc, 0x19, 0x44, 0x24, 0x0c, 0xf0, 0x26,
  0x20, 0xbc, 0x08, 0x36, 0xf5, 0x1d, 0xeb, 0x46, 0x2b, 0xdc, 0xf6, 0x07, 0x16, 0xe0, 0x7f, 0x2c,
  0xfd, 0x0a, 0xe4, 0x13, 0xe4, 0xc1, 0x10, 0x0b, 0xf2, 0x2c, 0xc8, 0xe6, 0x2b, 0x08, 0xf3, 0x40,
  0x17, 0xb9, 0x69, 0xe8, 0xf3, 0xec, 0x14, 0x0b, 0xda, 0xd9, 0x1e, 0xff, 0x03, 0xee, 0xee, 0x3b,
  0xb5, 0x2b, 0xe1, 0x3d, 0x2f, 0xd2, 0x21, 0x35, 0x50, 0xd4, 0x5a, 0xd0, 0x28, 0xe6, 0xfc, 0xd7,
  0xa9, 0xf8, 0xca, 0x2f, 0xe0, 0x21, 0x0d, 0x41, 0xd9, 0x72, 0xee, 0xed, 0xf8, 0xf2, 0x0f, 0x22,
  0x24, 0xd1, 0x0d, 0xc3, 0x6a, 0xdf, 0x1c, 0xff, 0xf1, 0xff, 0xe5, 0xf7, 0xb8, 0xe8, 0x02, 0x36,
  0xfe, 0x20, 0xd9, 0xe9, 0x33, 0xf0, 0xf2, 0x46, 0x31, 0xf7, 0x25, 0xed, 0x17, 0xb9, 0x21, 0x00,
  0x15, 0x01, 0xd2, 0x0d, 0xf4, 0xee, 0x01, 0x0d, 0x0d, 0x1c, 0xef, 0x18, 0x19, 0x05, 0x29, 0x34,
  0xfb, 0xd6, 0x2d, 0x09, 0x01, 0x12, 0x12, 0x1a, 0xc7, 0xed, 0x1b, 0x03, 0x3e, 0x25, 0x09, 0xf7,
  0x14, 0x05, 0x02, 0xcf, 0xe9, 0x23, 0x53, 0x25, 0x0a, 0xcf, 0xfe, 0xc3, 0x50, 0xc3, 0x4a, 0xe4,
  0xe4, 0xe1, 0xdb, 0x11, 0x00, 0xf7, 0xf5, 0x03, 0xff, 0x1b, 0xc9, 0x48, 0xdf, 0x39, 0x7f, 0x18,
  0x01, 0xd9, 0x30, 0xff, 0x57, 0xf7, 0x22, 0xf7, 0xd6, 0xe7, 0xdc, 0x3a, 0xc2, 0xf0, 0x22, 0xd3,
  0xe3, 0x27, 0xc3, 0x5b, 0xe2, 0x18, 0x21, 0x37, 0x21, 0x19, 0x24, 0xe3, 0x46, 0xd4, 0xda, 0xff,
  0xa9, 0x06, 0x0f, 0x1f, 0xe7, 0xd0, 0xed, 0x0d, 0x00, 0xfe, 0x03, 0x47, 0xf0, 0xef, 0x17, 0x23,
  0xae, 0xd6, 0xb7, 0xd5, 0x4d, 0xf5, 0x08, 0x01, 0xdd, 0xeb, 0xe0, 0xd8, 0x31, 0xd5, 0xe3, 0x24,
  0xe7, 0x22, 0xfa, 0xcc, 0xf2, 0x30, 0x2e, 0x69, 0x35, 0xce, 0x00, 0xf4, 0x09, 0xc3, 0x46, 0xdf,
  0x0f, 0xfd, 0x02, 0x13, 0x2f, 0xf6, 0x03, 0x09, 0xf2, 0x23, 0xf6, 0xfb, 0x05, 0xda, 0x25, 0x2a,
  0xc9, 0x84, 0x0b, 0xc8, 0x1d, 0xe6, 0xfd, 0xcb, 0xcc, 0xca, 0xe3, 0x01, 0x1c, 0x07, 0x10, 0x1b,
  0xd5, 0x00, 0x01, 0xe6, 0x0d, 0x2d, 0xf7, 0xd4, 0xf9, 0x08, 0x00, 0x3f, 0xd0, 0x08, 0x02, 0xf5,
  0x03, 0xfc, 0xf4, 0xd1, 0xe9, 0xf3, 0x1f, 0xbd, 0x16, 0xc8, 0x05, 0xf7, 0xcf, 0xd6, 0xc8, 0xf9,
  0xec, 0x04, 0xc8, 0x1f, 0xbc, 0xff, 0xc7, 0x15, 0x13, 0x08, 0x19, 0xda, 0xc6, 0xf9, 0x66, 0x81,
  0x12, 0xcf, 0xe9, 0xb6, 0x00, 0xfa, 0xd4, 0xd0, 0xd1, 0x33, 0xe0, 0x05, 0xd0, 0x18, 0xe1, 0x31,
  0x28, 0xe8, 0x30, 0xe1, 0xbf, 0x1e, 0x4d, 0xa3, 0x34, 0xe8, 0xf3, 0x21, 0x25, 0xca, 0xeb, 0xba,
  0x04, 0xe4, 0xf1, 0x21, 0xaa, 0x0d, 0xf8, 0xe0, 0x29, 0x3d, 0x46, 0x09, 0x14, 0xff, 0x48, 0xc8,
  0xeb, 0xe3, 0xb7, 0x04, 0x13, 0xa1, 0xbe, 0xe9, 0xe4, 0x1f, 0xe7, 0xf2, 0x9d, 0x01, 0xe8, 0x27,
  0x1f, 0x0b, 0x02, 0xb3, 0x03, 0x25, 0x03, 0xac, 0xf2, 0xbe, 0x5d, 0xee, 0xf9, 0xaa, 0xdd, 0xa6,
  0xcb, 0x57, 0xbe, 0xe1, 0xd1, 0x18, 0xde, 0x43, 0x2d, 0x23, 0x1e, 0xb3, 0x0a, 0x28, 0x3d, 0xbf,
  0x39, 0xe8, 0x08, 0x03, 0xf4, 0xf8, 0x07, 0xe4, 0x5e, 0x05, 0x03, 0xd3, 0xd4, 0x13, 0x40, 0x2a,
  0x1d, 0x12, 0x12, 0xf3, 0xc6, 0x08, 0x30, 0xde, 0x17, 0xda, 0x3d, 0x1f, 0xa9, 0x00, 0x15, 0xdf,
  0xe4, 0x66, 0xdc, 0xf6, 0xe2, 0xef, 0xef, 0x0c, 0x33, 0x23, 0xfe, 0x91, 0xed, 0x6f, 0x51, 0xc8,
  0x00, 0xe9, 0x22, 0x09, 0xf1, 0x00, 0xcf, 0xdd, 0x2c, 0x3f, 0xd2, 0xc5, 0xdf, 0x28, 0x67, 0x14,
  0x12, 0x40, 0xef, 0xd0, 0xda, 0x33, 0x50, 0xbc, 0x3d, 0xfa, 0x50, 0x12, 0x09, 0xcb, 0x3b, 0xfa,
  0xfb, 0xe8, 0x21, 0xcc, 0x65, 0xf4, 0x06, 0xf3, 0x01, 0x33, 0x04, 0xf5, 0xe3, 0xdb, 0xf3, 0x44,
  0x28, 0x52, 0xcd, 0xe9, 0x0a, 0x31, 0x09, 0x4c, 0x52, 0xd1, 0x10, 0xc9, 0x33, 0x89, 0x63, 0xe0,
  0xd7, 0xf5, 0xb5, 0x15, 0xa2, 0x01, 0x1c, 0x14, 0x0d, 0x40, 0xb8, 0x25, 0x53, 0x13, 0x05, 0x56,
  0x0f, 0xe8, 0x46, 0x00, 0x4a, 0xb9, 0xf0, 0x0a, 0xe0, 0xfe, 0x14, 0x1e, 0x19, 0xfd, 0xe6, 0x1d,
  0xeb, 0x0e, 0xd8, 0xfd, 0xc8, 0x09, 0x3c, 0x34, 0x0e, 0xec, 0x10, 0xcc, 0x4a, 0xe0, 0x35, 0x10,
  0xe8, 0xc7, 0xf7, 0xd8, 0x13, 0xec, 0xdc, 0xf2, 0xcb, 0xea, 0xd4, 0x2b, 0xcc, 0x28, 0x67, 0x2b,
  0x46, 0xfc, 0x23, 0x0b, 0x4a, 0x08, 0x43, 0xcb, 0xcc, 0x0b, 0xfd, 0x22, 0xfd, 0xdb, 0x25, 0x12,
  0xe7, 0x25, 0xb9, 0x7f, 0xd8, 0x41, 0x7c, 0x66, 0x4a, 0xfd, 0x2e, 0xe5, 0x6d, 0xac, 0x26, 0x0c,
  0x98, 0xd8, 0xda, 0x30, 0x04, 0xea, 0x1a, 0xf9, 0x99, 0x22, 0x27, 0x51, 0xfd, 0xf9, 0x19, 0x17,
  0xab, 0xfc, 0xcd, 0xd7, 0x55, 0x03, 0xdc, 0x17, 0x08, 0xed, 0x0f, 0x01, 0x2a, 0xed, 0xed, 0xe9,
  0xc5, 0x2c, 0x04, 0xb8, 0xfb, 0x30, 0x10, 0x3e, 0x0a, 0xf9, 0xf9, 0x0f, 0x03, 0xd3, 0xf7, 0xdf,
  0x01, 0xf9, 0xf1, 0x2f, 0x33, 0xe0, 0x07, 0x2f, 0x23, 0xeb, 0x02, 0x05, 0x08, 0xd9, 0x42, 0x5e,
  0x96, 0x8a, 0xc0, 0x03, 0xe7, 0x06, 0x14, 0xce, 0x9e, 0xf8, 0x11, 0xe1, 0x24, 0x07, 0xaa, 0x1d,
  0xd8, 0x16, 0x09, 0xc9, 0x22, 0x40, 0x0b, 0xb8, 0xf2, 0x15, 0xec, 0xf8, 0xf0, 0xe4, 0xf5, 0xd9,
  0xd2, 0xf5, 0x11, 0x45, 0x0c, 0x1f, 0x16, 0xf8, 0x10, 0xea, 0x37, 0xf1, 0xd9, 0x14, 0x19, 0xe5,
  0xf8, 0x0c, 0xc8, 0x14, 0xdd, 0x2b, 0xec, 0xf3, 0xbb, 0x05, 0x0c, 0x13, 0x2a, 0xd7, 0x0f, 0xe3,
  0x0d, 0xd7, 0x02, 0xe9, 0xf3, 0x3a, 0xfe, 0xdc, 0xf4, 0x20, 0xe2, 0xda, 0xce, 0x22, 0x1c, 0x18,
  0xcf, 0x0c, 0xe7, 0xf7, 0x24, 0x18, 0xe4, 0xdd, 0x1c, 0xea, 0x21, 0xfd, 0x28, 0xce, 0xeb, 0x06,
  0xad, 0xf8, 0x12, 0xfd, 0xce, 0x1a, 0xeb, 0xfc, 0x13, 0x1d, 0xf1, 0xff, 0x32, 0x18, 0x0f, 0x0d,
  0xfe, 0xee, 0x18, 0xc8, 0x3b, 0xe7, 0xda, 0x1f, 0xd2, 0xe7, 0xe4, 0x15, 0x9c, 0xe8, 0xfd, 0x01,
  0x15, 0x17, 0x0f, 0xeb, 0x1e, 0x1f, 0xd5, 0x1c, 0x1e, 0xd6, 0x48, 0xef, 0xf4, 0xc1, 0xda, 0xff,
  0xe0, 0x0a, 0xf1, 0x14, 0xaa, 0xfd, 0xfc, 0xe3, 0x02, 0x15, 0x1d, 0xea, 0x3c, 0x27, 0xf0, 0xf3,
  0x19, 0xf7, 0x25, 0xd1, 0xd7, 0xe9, 0x30, 0xed, 0xb6, 0x1d, 0x81, 0x18, 0xf1, 0xff, 0xd9, 0x39,
  0x01, 0xf8, 0x1f, 0xbc, 0x23, 0xde, 0xf8, 0xf0, 0xc4, 0xdf, 0x2e, 0x0f, 0x2f, 0xf2, 0xf1, 0x15,
  0xd3, 0x23, 0x98, 0x26, 0x03, 0xf1, 0xf2, 0x14, 0xcd, 0x0c, 0x07, 0xd8, 0x14, 0x25, 0x2e, 0xdf,
  0x12, 0xfe, 0xd8, 0xd9, 0x2b, 0x16, 0x1e, 0x11, 0xc3, 0x20, 0xb1, 0x19, 0xc1, 0x08, 0x1d, 0x04,
  0xd2, 0x2d, 0x2a, 0xd3, 0x12, 0x19, 0xe3, 0xca, 0x0f, 0xdb, 0x09, 0x21, 0xc6, 0xc1, 0x0e, 0x21,
  0xe9, 0xfd, 0xc5, 0xbb, 0x21, 0xe9, 0x20, 0x0c, 0x14, 0xf7, 0xef, 0xb4, 0xf5, 0xf3, 0xe4, 0x32,
  0xe6, 0xe8, 0x15, 0xc2, 0xe4, 0x25, 0x65, 0x53, 0x00, 0xdb, 0xdc, 0xe7, 0x03, 0xfb, 0x30, 0xd5,
  0x03, 0x0c, 0x04, 0x20, 0xf5, 0x01, 0x0b, 0x02, 0x05, 0x10, 0xfc, 0x1f, 0x0c, 0xef, 0x7f, 0x5c,
  0xab, 0xcb, 0xfc, 0xdb, 0x45, 0xac, 0xfc, 0xe8, 0xf2, 0x07, 0x05, 0xfb, 0x39, 0x22, 0xe8, 0x17,
  0xf3, 0x06, 0xde, 0xe5, 0x08, 0x26, 0x07, 0x1c, 0x13, 0xe5, 0xd4, 0xfa, 0x36, 0x07, 0xe0, 0xed,
  0xda, 0xf4, 0xf8, 0x17, 0xd0, 0xcb, 0xd1, 0xce, 0xf8, 0xe1, 0xfe, 0x1c, 0xd4, 0x4d, 0x59, 0x46,
  0x32, 0xe4, 0x46, 0x0f, 0x61, 0xfe, 0x36, 0x09, 0xc3, 0x0e, 0x25, 0x28, 0xe7, 0xe2, 0x1f, 0x28,
  0x1c, 0x14, 0xd7, 0x1b, 0xcf, 0x02, 0x45, 0x5a, 0x09, 0xb7, 0x4e, 0xd0, 0x5a, 0xee, 0x10, 0xcc,
  0xf7, 0xf2, 0x0a, 0x4d, 0x37, 0xf8, 0x2e, 0x0c, 0xec, 0x07, 0x30, 0xf6, 0xce, 0x2d, 0xeb, 0x1e,
  0x1f, 0xda, 0xfb, 0xb5, 0x2d, 0x11, 0x54, 0x0f, 0x0e, 0xf0, 0x1b, 0xfe, 0xdd, 0x11, 0xf0, 0x23,
  0xe6, 0x35, 0xea, 0x0b, 0x20, 0xff, 0x33, 0x34, 0x42, 0xd5, 0x7b, 0xef, 0x27, 0xb8, 0x44, 0xc9,
  0x20, 0xf2, 0xfb, 0x2d, 0xd0, 0xdd, 0x26, 0x2f, 0xcc, 0x56, 0xb1, 0x30, 0x34, 0xc5, 0x1f, 0x45,
  0x31, 0xe2, 0x24, 0xf0, 0x48, 0xf8, 0x45, 0xba, 0xd7, 0xe1, 0x24, 0xfa, 0x24, 0x11, 0x13, 0x00,
  0xa5, 0x43, 0xf4, 0xee, 0xf0, 0xe6, 0x36, 0x4b, 0x0c, 0x04, 0xd3, 0xf0, 0x32, 0x1b, 0x15, 0xf4,
  0x13, 0xe9, 0x0c, 0xed, 0xee, 0xf3, 0xb4, 0xdc, 0x10, 0x15, 0xee, 0xde, 0x21, 0x0a, 0x45, 0x5f,
  0x00, 0xd7, 0x14, 0x07, 0xff, 0xcc, 0xef, 0x03, 0x22, 0x0f, 0xea, 0x23, 0xe7, 0x1e, 0xef, 0x1c,
  0x28, 0xd7, 0x0b, 0x01, 0x1f, 0x11, 0x21, 0x13, 0x8d, 0xe0, 0x01, 0xd2, 0x02, 0xcc, 0xe1, 0x02,
  0xf2, 0x0b, 0xf5, 0x03, 0x3a, 0x29, 0xd3, 0x3e, 0x33, 0xe5, 0x10, 0xc7, 0xcc, 0x60, 0x2e, 0x33,
  0x16, 0xa5, 0xd1, 0xb0, 0x58, 0xd0, 0x64, 0xfc, 0xfe, 0xf5, 0xbc, 0x1d, 0xe9, 0xe5, 0x0b, 0xfd,
  0x12, 0x10, 0xc9, 0x19, 0xd6, 0x7b, 0x3a, 0x18, 0xf8, 0x19, 0x4c, 0xd8, 0x52, 0x01, 0x37, 0xe6,
  0x01, 0xf4, 0x2c, 0x2f, 0x9d, 0xdb, 0x11, 0x45, 0x01, 0x2f, 0xd9, 0x45, 0x05, 0x13, 0x33, 0x48,
  0x07, 0xb6, 0x49, 0xe4, 0x36, 0xe1, 0x1f, 0xca, 0xd3, 0xf1, 0xf8, 0x5a, 0xe5, 0xe5, 0x09, 0xf2,
  0xef, 0x13, 0xfe, 0x39, 0xef, 0x01, 0x0b, 0x3e, 0x41, 0xba, 0xed, 0xb4, 0x37, 0xf2, 0x56, 0x01,
  0x04, 0xe0, 0x15, 0xe3, 0x04, 0xe1, 0x0c, 0xd0, 0xd4, 0x3d, 0xc2, 0xa5, 0x02, 0x3f, 0x21, 0x5f,
  0x2f, 0xa3, 0x28, 0xfd, 0x05, 0xf0, 0x38, 0xf2, 0x0d, 0x01, 0xec, 0x14, 0x47, 0xf1, 0x2a, 0x28,
  0xd4, 0x49, 0x05, 0x0f, 0x28, 0xe3, 0x0e, 0x35, 0x23, 0x81, 0xce, 0xe7, 0x1e, 0xcd, 0xea, 0xc7,
  0xae, 0xe3, 0x01, 0xee, 0x45, 0x1e, 0xd1, 0x0a, 0xb7, 0x46, 0x0c, 0xcd, 0x11, 0x17, 0xe7, 0xb8,
  0xfa, 0x17, 0xbf, 0x19, 0xc3, 0xcc, 0x07, 0x0e, 0xef, 0x22, 0xdf, 0x25, 0x2e, 0xfa, 0x2b, 0xd3,
  0xe1, 0xcb, 0x10, 0xf1, 0x1b, 0x10, 0xc7, 0xc4, 0x00, 0x1d, 0xc9, 0x18, 0xf2, 0xfe, 0xe2, 0x01,
  0xf6, 0x25, 0x04, 0x06, 0x27, 0xe4, 0xed, 0xe5, 0xeb, 0xcb, 0x1b, 0xde, 0xeb, 0x23, 0xe5, 0xad,
  0xd6, 0x3e, 0xd2, 0x07, 0xe8, 0x21, 0x1c, 0x28, 0x26, 0x40, 0xf4, 0xfa, 0x13, 0x0e, 0xf2, 0xcf,
  0xfa, 0x02, 0x12, 0xe2, 0xff, 0xcc, 0xbd, 0xeb, 0xe1, 0xd5, 0xf9, 0x36, 0x97, 0xfa, 0xd8, 0x04,
  0x2c, 0x0e, 0x15, 0xcd, 0xf9, 0x22, 0x12, 0xfb, 0xeb, 0xd6, 0x3b, 0xe0, 0x01, 0x81, 0xa6, 0xeb,
  0xbf, 0xec, 0xd9, 0x0c, 0x91, 0x13, 0x1e, 0x14, 0x34, 0x06, 0x3b, 0xa8, 0xf8, 0x36, 0xd8, 0xe5,
  0xfe, 0xd8, 0x3b, 0xd3, 0xc2, 0xbd, 0x9b, 0x03, 0xce, 0x16, 0x09, 0x0c, 0xaa, 0x11, 0xe3, 0x2c,
  0x49, 0x2f, 0x0b, 0xc8, 0x07, 0x3a, 0x23, 0xc9, 0x18, 0xd6, 0x32, 0xe6, 0x04, 0xea, 0xfa, 0xa8,
  0xc7, 0x2b, 0xcd, 0xe6, 0xdd, 0xca, 0x08, 0x24, 0xe4, 0x08, 0x35, 0xc5, 0x22, 0x2f, 0x02, 0xf5,
  0xe2, 0xe9, 0x31, 0x08, 0xfc, 0xdc, 0x08, 0xf7, 0xd2, 0x11, 0x01, 0x22, 0xe4, 0x08, 0xf9, 0xfd,
  0xfb, 0x12, 0x2e, 0xe7, 0x29, 0x01, 0x0d, 0xb3, 0x00, 0xce, 0x1b, 0x3c, 0x00, 0xd3, 0xd6, 0xd6,
  0xe5, 0x4c, 0xe6, 0x14, 0xec, 0x15, 0x27, 0x32, 0xea, 0x47, 0xe4, 0xd4, 0x34, 0x34, 0x11, 0xea,
  0xf9, 0xec, 0x35, 0x3c, 0x07, 0xed, 0x11, 0x2f, 0x30, 0xd8, 0xf6, 0xd8, 0x32, 0xc6, 0x0e, 0x1e,
  0xf0, 0xfe, 0x09, 0xfc, 0x01, 0xe4, 0xdd, 0x26, 0x0c, 0x0a, 0xe7, 0x00, 0x1d, 0x04, 0x0c, 0x5a,
  0x21, 0xe7, 0x2d, 0x0f, 0x38, 0xc8, 0x27, 0xf5, 0xfb, 0xdd, 0x0a, 0x0c, 0xa8, 0x15, 0xf9, 0x12,
  0xe9, 0x40, 0xde, 0x2a, 0xf7, 0xd0, 0x31, 0x56, 0x24, 0xdb, 0x4a, 0xfa, 0x24, 0xe1, 0xff, 0xfd,
  0xe1, 0xf9, 0xff, 0x08, 0xea, 0xec, 0xf7, 0x05, 0x1a, 0x1c, 0xf7, 0xea, 0x00, 0x38, 0x45, 0x1e,
  0x07, 0xe1, 0xe1, 0xf3, 0x7f, 0xd7, 0x06, 0x1f, 0xdb, 0xde, 0xc9, 0xec, 0x15, 0xec, 0xe9, 0xe7,
  0xf9, 0x09, 0xf1, 0x23, 0xcc, 0x08, 0x68, 0x1d, 0x08, 0xcb, 0xf4, 0x03, 0x3d, 0xe7, 0x2c, 0xf7,
  0xcb, 0xf8, 0xe3, 0x1e, 0xe1, 0xff, 0x0f, 0x08, 0xc9, 0x0e, 0xf9, 0x76, 0xef, 0xf6, 0x49, 0x37,
  0x04, 0x0f, 0x2d, 0xda, 0x3f, 0xc9, 0xfe, 0xec, 0xa1, 0xde, 0xfd, 0xfc, 0x28, 0xd3, 0x22, 0x16,
  0xd0, 0xfb, 0x03, 0x4e, 0x08, 0x0b, 0x18, 0x2c, 0xaa, 0x09, 0xe3, 0x04, 0x48, 0xd5, 0x09, 0xf1,
  0x06, 0xdd, 0x09, 0xf8, 0x06, 0xf1, 0xee, 0x0a, 0x16, 0x05, 0x03, 0xcd, 0x09, 0xe7, 0x15, 0x18,
  0xf6, 0xcb, 0xe2, 0xf3, 0x06, 0xd0, 0x00, 0xf3, 0xef, 0xe2, 0xf3, 0x29, 0x1e, 0x0d, 0xf5, 0x23,
  0x03, 0x37, 0x21, 0xef, 0xf6, 0x17, 0x2f, 0x3f, 0xc5, 0xcc, 0xe7, 0xf4, 0xed, 0xe9, 0x18, 0xbc,
  0xc7, 0xd4, 0xfe, 0xfb, 0x16, 0xfc, 0xe2, 0x11, 0xe2, 0x05, 0xe3, 0xd1, 0x16, 0x3c, 0x05, 0xa7,
  0xbf, 0x37, 0x02, 0xfe, 0xee, 0x21, 0xf5, 0x17, 0xcf, 0x0d, 0xf5, 0xf5, 0x26, 0x23, 0xee, 0xed,
  0xfa, 0xe3, 0x06, 0x03, 0xb8, 0xee, 0xf3, 0x96, 0xf1, 0x0f, 0x11, 0xda, 0xc1, 0xe5, 0xcd, 0x26,
  0xde, 0x3b, 0x15, 0xfc, 0x10, 0x12, 0xfc, 0xff, 0xe9, 0xc2, 0xf9, 0xf0, 0xf3, 0x20, 0xe6, 0x9c,
  0xf4, 0x2c, 0xef, 0xd3, 0x03, 0xe6, 0xf4, 0x22, 0xdb, 0x25, 0x0d, 0xf8, 0x14, 0xfe, 0x09, 0x07,
  0x01, 0xfd, 0x0d, 0xf9, 0xee, 0xc1, 0xd0, 0xf7, 0xcd, 0xf8, 0xee, 0xf1, 0xb8, 0xeb, 0x23, 0x13,
  0x02, 0x29, 0x00, 0xe5, 0x33, 0x24, 0x07, 0x2d, 0x00, 0x0e, 0x2c, 0xda, 0x0d, 0xae, 0xb2, 0x10,
  0xbe, 0xc4, 0x03, 0x03, 0xb3, 0x14, 0xfb, 0xfc, 0x1a, 0x16, 0x2f, 0xfb, 0x35, 0x25, 0xef, 0xee,
  0x1f, 0x08, 0x59, 0xbc, 0xf0, 0xef, 0xdf, 0xfc, 0xad, 0x45, 0x16, 0xfe, 0x81, 0x0c, 0xe9, 0xfb,
  0x18, 0x21, 0x23, 0xfb, 0x1c, 0x42, 0xf8, 0x05, 0x3c, 0xcf, 0x26, 0x0b, 0xd4, 0xec, 0x30, 0xcd,
  0xac, 0x10, 0xc4, 0x15, 0xe5, 0x06, 0xd4, 0x15, 0xea, 0x20, 0xe6, 0xb6, 0x19, 0xf8, 0x0d, 0xe0,
  0x04, 0xe9, 0x3e, 0x15, 0x07, 0xea, 0x06, 0xe6, 0xc4, 0x0b, 0x13, 0xdc, 0x11, 0x16, 0xe3, 0x28,
  0xc2, 0x23, 0x02, 0xd4, 0x1d, 0x06, 0x0e, 0xd9, 0xf0, 0xde, 0x27, 0x20, 0x12, 0x0f, 0x21, 0xdf,
  0xcb, 0x1d, 0xbb, 0xf0, 0x16, 0x32, 0x3b, 0x1f, 0xfb, 0x37, 0xd8, 0xc7, 0x3c, 0xc9, 0x33, 0xf0,
  0xeb, 0xe1, 0x29, 0x37, 0xf2, 0xcb, 0x26, 0x2e, 0x2c, 0xf2, 0x11, 0xd4, 0x21, 0xf6, 0x10, 0x23,
  0x05, 0x0b, 0x05, 0x0f, 0xf4, 0xd9, 0xcf, 0x0d, 0x1b, 0x20, 0xeb, 0xe9, 0x2d, 0x16, 0x20, 0x30,
  0x0d, 0xcd, 0x20, 0xfe, 0x27, 0xb7, 0xec, 0xf8, 0x0f, 0xfd, 0xe4, 0x29, 0xbe, 0xf7, 0xe8, 0xf8,
  0x13, 0x2a, 0xe8, 0x3f, 0x2b, 0x11, 0xfe, 0x2f, 0x26, 0xfd, 0x19, 0xdf, 0x10, 0xc4, 0x25, 0x03,
  0xcf, 0xee, 0xf8, 0xdd, 0xfd, 0x16, 0x03, 0xf9, 0x02, 0x19, 0xf3, 0xd9, 0xfd, 0x03, 0x25, 0x24,
  0x14, 0xfc, 0xea, 0xd9, 0x60, 0xc9, 0x06, 0x29, 0xe1, 0xed, 0xd6, 0xd9, 0x1b, 0xcd, 0xcf, 0x08,
  0xf8, 0xef, 0xe4, 0x05, 0xd8, 0x27, 0x7f, 0x23, 0x14, 0xc9, 0x16, 0xf2, 0x3a, 0xf1, 0x55, 0xd7,
  0xc2, 0xfe, 0x05, 0x2c, 0xe3, 0xfd, 0x2d, 0xb8, 0x0a, 0x27, 0xb7, 0x4f, 0xe3, 0x08, 0x50, 0x4a,
  0x2f, 0xfc, 0x3b, 0x06, 0x22, 0xda, 0xf5, 0xff, 0xd2, 0xf2, 0xe2, 0x43, 0xfe, 0xf5, 0x05, 0x22,
  0xca, 0xeb, 0x06, 0x54, 0x05, 0xee, 0xf2, 0x05, 0xb9, 0x04, 0xf1, 0xe0, 0x25, 0xe6, 0xf7, 0x1d,
  0xfb, 0xfa, 0x18, 0xea, 0x25, 0xd7, 0xfc, 0x0b, 0xdb, 0xf7, 0xf8, 0xb6, 0xdb, 0x07, 0x2e, 0x3b,
  0x04, 0xf4, 0xf9, 0xea, 0x09, 0xf4, 0x28, 0xf2, 0x1a, 0xf7, 0x00, 0x21, 0x04, 0xf3, 0x0f, 0x41,
  0xe3, 0x06, 0xf3, 0xc8, 0x10, 0xed, 0x32, 0x48, 0xbf, 0x9f, 0x00, 0x0d, 0x17, 0xd9, 0xd8, 0x9d,
  0xd7, 0xe6, 0xea, 0xf4, 0x39, 0xff, 0xc3, 0x08, 0xea, 0x1b, 0xff, 0xed, 0x1c, 0x1e, 0xe1, 0xd5,
  0x08, 0x1a, 0x00, 0x3e, 0xbd, 0x1f, 0xfa, 0xe7, 0xdc, 0x23, 0xee, 0xdb, 0xdc, 0xfb, 0x3b, 0xc7,
  0x2a, 0xba, 0x0a, 0xed, 0xad, 0xb1, 0xbc, 0xb4, 0x2e, 0x0a, 0xab, 0x21, 0xcd, 0x21, 0xc1, 0x26,
  0xdf, 0x19, 0x43, 0x14, 0xe3, 0xe2, 0x3b, 0xc4, 0x05, 0xe6, 0x04, 0xc2, 0x20, 0x0c, 0xb0, 0xfc,
  0xdc, 0x02, 0xfa, 0x2c, 0xd5, 0x08, 0xc7, 0x25, 0x11, 0x11, 0xec, 0xf0, 0xed, 0xfd, 0x38, 0xca,
  0x55, 0x07, 0x32, 0x1a, 0x09, 0x06, 0xf8, 0x9c, 0x09, 0xee, 0x12, 0x29, 0xd0, 0x1a, 0x01, 0xc7,
  0x16, 0x3c, 0x54, 0xc1, 0xff, 0x30, 0x2f, 0xcc, 0xfe, 0x07, 0x17, 0xea, 0x03, 0xb2, 0x0a, 0xed,
  0xe2, 0x04, 0xaa, 0x27, 0x9d, 0x15, 0xc5, 0x3b, 0xd5, 0x38, 0x3e, 0xb5, 0xea, 0xe0, 0x23, 0xa4,
  0xd5, 0xa3, 0x39, 0xf6, 0x26, 0xdf, 0xc4, 0xc6, 0xde, 0x59, 0xc1, 0x14, 0xd5, 0xe6, 0xf9, 0x2c,
  0x1f, 0x24, 0x14, 0xb3, 0xe2, 0x43, 0x41, 0xf2, 0x0f, 0x0b, 0x23, 0x12, 0x08, 0x13, 0x25, 0x0e,
  0x1d, 0xfe, 0xea, 0x05, 0x0e, 0x0a, 0xe8, 0x15, 0x1e, 0xf4, 0x3b, 0x08, 0xaa, 0x2e, 0x35, 0xba,
  0xeb, 0xb9, 0x46, 0x17, 0xc1, 0x2d, 0xf6, 0xf3, 0xe2, 0x4d, 0xf7, 0xc5, 0xd5, 0x34, 0xc7, 0x06,
  0x11, 0x25, 0xf9, 0xbf, 0xdb, 0x34, 0x47, 0x81, 0x34, 0xfb, 0x31, 0xe4, 0x1d, 0xf1, 0x16, 0xfe,
  0x11, 0x46, 0xba, 0x22, 0x1e, 0xf0, 0xe7, 0x1d, 0x13, 0xfe, 0x3f, 0xf9, 0xdf, 0x1f, 0x5b, 0xd2,
  0x28, 0x16, 0x15, 0x2e, 0xe3, 0xdb, 0x3b, 0x1f, 0x22, 0xfd, 0xd2, 0xaf, 0x62, 0x25, 0x22, 0x18,
  0x0f, 0xfa, 0x28, 0xea, 0xf0, 0xf6, 0xdf, 0x27, 0x1e, 0xff, 0x0d, 0xb0, 0x16, 0x35, 0x5f, 0x70,
  0x13, 0xe4, 0x21, 0x17, 0x50, 0xaa, 0x2f, 0xe2, 0x25, 0x1d, 0xcd, 0x2b, 0xdd, 0xe9, 0x02, 0x45,
  0x0d, 0x10, 0xed, 0x0e, 0x1f, 0xb7, 0x3e, 0x53, 0x8a, 0xf9, 0xca, 0xcd, 0x0c, 0xc2, 0x21, 0xcc,
  0xe2, 0x0d, 0xe0, 0xf9, 0x21, 0x3c, 0x9a, 0x1c, 0x16, 0xc6, 0xee, 0xe9, 0xa7, 0x59, 0x38, 0x49,
  0x2f, 0xb5, 0xcb, 0xf2, 0x48, 0x0f, 0x38, 0xf2, 0xfa, 0xaf, 0x0b, 0xf7, 0xdf, 0xf7, 0x25, 0x03,
  0x2a, 0x00, 0xdb, 0xf4, 0xd0, 0x3b, 0x49, 0x3d, 0x0a, 0xd1, 0x71, 0xfe, 0x52, 0xfe, 0x46, 0xe4,
  0xe4, 0x1b, 0x24, 0x57, 0xca, 0x04, 0x3a, 0xe5, 0xe7, 0x21, 0xd5, 0x66, 0x0c, 0x3b, 0x5d, 0x29,
  0xe1, 0xc4, 0x44, 0xdc, 0x52, 0xd1, 0xf3, 0xd9, 0xb4, 0x12, 0xe0, 0x41, 0x1f, 0xe6, 0xe5, 0x01,
  0xb9, 0x00, 0x27, 0x39, 0xee, 0x24, 0xfe, 0x34, 0x66, 0xc3, 0x0b, 0xca, 0x29, 0x03, 0x7f, 0xe3,
  0xf0, 0xd1, 0xe0, 0xe8, 0xdb, 0xbd, 0xfb, 0xd5, 0xf4, 0x30, 0xd5, 0xea, 0x08, 0xe1, 0x01, 0x7d,
  0x0e, 0xd6, 0x49, 0xd5, 0x18, 0xcd, 0x30, 0xd9, 0xd8, 0x0b, 0x06, 0x00, 0x1b, 0xf9, 0xf0, 0x31,
  0x97, 0x3d, 0x0e, 0xfc, 0x3d, 0xf2, 0x29, 0x4e, 0x33, 0xd4, 0x11, 0x0d, 0x06, 0xf0, 0xf7, 0xb4,
  0xe5, 0xd1, 0xf0, 0xe7, 0x51, 0x21, 0xae, 0x26, 0xb8, 0x79, 0xf1, 0xb2, 0xfb, 0x4d, 0xf3, 0x81,
  0x9d, 0x38, 0x1a, 0xc4, 0x01, 0xec, 0xee, 0xe4, 0xd2, 0x0a, 0xf2, 0x2e, 0xf7, 0xf4, 0x19, 0x0f,
  0x0e, 0xe0, 0x15, 0xfc, 0xb3, 0x1b, 0xe0, 0x9f, 0xf3, 0x0c, 0xe1, 0x00, 0xe6, 0x2a, 0xab, 0xec,
  0xd3, 0x23, 0xfc, 0x08, 0x25, 0x0d, 0x02, 0xf1, 0x1f, 0xf1, 0x3a, 0xf2, 0xd6, 0x12, 0xf7, 0x92,
  0xd7, 0x1d, 0xe5, 0xc1, 0xd4, 0xef, 0xee, 0x14, 0x9b, 0x2e, 0x3c, 0x02, 0x10, 0x0f, 0x09, 0x05,
  0x02, 0x00, 0x1c, 0x23, 0x1f, 0xf4, 0xdd, 0xf1, 0xbd, 0xf0, 0x0e, 0x03, 0xb7, 0x1f, 0x10, 0xf6,
  0x05, 0x41, 0x3a, 0xfd, 0x35, 0x0b, 0x2f, 0x22, 0xe7, 0xf1, 0x25, 0xcd, 0x13, 0x8e, 0xa3, 0x21,
  0xc1, 0xe7, 0xcd, 0x22, 0x82, 0xf8, 0xda, 0x00, 0x4e, 0x07, 0x11, 0xe1, 0x22, 0xf7, 0xbb, 0x1e,
  0x0d, 0x05, 0x54, 0xd3, 0xc9, 0xb9, 0xa9, 0x1c, 0xd0, 0x2e, 0x26, 0xe9, 0xa0, 0x1e, 0x34, 0xe0,
  0x34, 0x21, 0x21, 0x09, 0x02, 0x4b, 0xf8, 0x05, 0x4c, 0xde, 0x6c, 0xf5, 0xf4, 0xcf, 0x1a, 0xf4,
  0x8d, 0x28, 0xc5, 0x05, 0xe4, 0xed, 0xeb, 0x08, 0xe0, 0x10, 0xf4, 0xdb, 0x46, 0xfd, 0x0d, 0x05,
  0xec, 0xcd, 0x37, 0xe6, 0x31, 0xe9, 0x13, 0x13, 0xc6, 0x30, 0xba, 0xd6, 0xf0, 0x17, 0x2a, 0x1a,
  0xd4, 0x26, 0xde, 0xd8, 0x36, 0x00, 0x35, 0xbd, 0x15, 0xf0, 0x16, 0x22, 0x2d, 0x0c, 0x01, 0xff,
  0xc7, 0x03, 0xcb, 0x30, 0x1f, 0x17, 0x0a, 0x1a, 0xb3, 0x16, 0x19, 0xcf, 0x4e, 0xca, 0xef, 0xe3,
  0x19, 0xe9, 0x1c, 0x29, 0x15, 0x07, 0xeb, 0xab, 0x09, 0xfe, 0x13, 0xe1, 0xb0, 0xe8, 0x0d, 0xea,
  0x0e, 0x02, 0x1f, 0x22, 0x0e, 0x0f, 0x22, 0xb7, 0xf8, 0xab, 0x13, 0x08, 0xfe, 0x1a, 0xa5, 0xb8,
  0x08, 0x0b, 0xe9, 0xec, 0xb6, 0x24, 0xa6, 0x01, 0xe3, 0x14, 0x04, 0x0c, 0x2d, 0x1e, 0x4b, 0xb8,
  0xe5, 0xae, 0x19, 0xea, 0x1d, 0xfd, 0xbd, 0xdd, 0xe3, 0x31, 0xe9, 0xf6, 0xee, 0xfc, 0xce, 0x42,
  0x14, 0x2f, 0x33, 0xd5, 0x16, 0x1e, 0x0b, 0xbe, 0x36, 0xe7, 0x29, 0x07, 0x29, 0xd8, 0xca, 0xf8,
  0xc1, 0xcb, 0xe8, 0xd7, 0xa3, 0xf1, 0x2e, 0x0f, 0x28, 0x24, 0x17, 0xd8, 0x16, 0x47, 0x09, 0xe1,
  0x3f, 0xfc, 0x17, 0xb0, 0x25, 0xab, 0xf6, 0x41, 0xab, 0xef, 0xd3, 0x2d, 0x81, 0xf3, 0xf7, 0x23,
  0x0e, 0x2a, 0xfe, 0xcb, 0x3e, 0x42, 0xfb, 0xd8, 0x12, 0xeb, 0x51, 0xcf, 0xce, 0xc6, 0xe5, 0x24,
  0x9a, 0x4b, 0xf8, 0x02, 0x83, 0x1a, 0xd8, 0x0e, 0x48, 0x0f, 0x1e, 0xe8, 0x16, 0x16, 0x28, 0x03,
  0x20, 0xd3, 0x52, 0xd7, 0x16, 0x19, 0x2c, 0xcb, 0xe0, 0x12, 0xbf, 0x23, 0xd1, 0xe1, 0x32, 0x0d,
  0xe1, 0xf3, 0x18, 0xd1, 0x13, 0x26, 0xf5, 0xed, 0xc6, 0xea, 0x2d, 0x00, 0xe3, 0xd2, 0x07, 0x03,
  0x10, 0x46, 0xbe, 0xeb, 0xfb, 0x21, 0xcc, 0x19, 0xdf, 0x51, 0xf5, 0xb9, 0x4e, 0x07, 0x2c, 0x94,
  0x18, 0xdb, 0x0e, 0x13, 0xf4, 0xfd, 0x2e, 0x02, 0xd9, 0x1c, 0xcc, 0xfa, 0xea, 0x3e, 0x26, 0x5a,
  0xef, 0x0b, 0x28, 0xa2, 0x22, 0xf0, 0x18, 0xf6, 0x22, 0xe4, 0x2a, 0x58, 0x0a, 0xe5, 0xfd, 0x1f,
  0xfe, 0xd8, 0xec, 0xce, 0x2d, 0xd6, 0xe7, 0xfb, 0xff, 0x19, 0xec, 0xf6, 0x1d, 0xf9, 0x02, 0x2c,
  0x1d, 0x2d, 0xf2, 0xde, 0x3f, 0x48, 0x14, 0x30, 0x14, 0xae, 0x2f, 0xf2, 0x1f, 0xac, 0x1c, 0xee,
  0x11, 0xe3, 0xe3, 0x30, 0x9d, 0x19, 0xed, 0x08, 0x26, 0x01, 0xdd, 0x15, 0x3e, 0xdc, 0x12, 0x5d,
  0xfd, 0xdc, 0x25, 0xf9, 0x23, 0xc9, 0x16, 0x21, 0xcd, 0xf7, 0xf7, 0xe4, 0x11, 0xf3, 0xec, 0x1c,
  0x22, 0x04, 0xf9, 0x11, 0xfa, 0x0f, 0x2b, 0x16, 0x1c, 0x0f, 0x13, 0xe2, 0x3e, 0xdc, 0xed, 0x10,
  0xc3, 0xdb, 0xcb, 0xe1, 0xf2, 0x07, 0xf2, 0x34, 0x0d, 0x10, 0xf1, 0x37, 0xe7, 0x3c, 0x7f, 0x27,
  0x34, 0xeb, 0x05, 0xeb, 0x55, 0xe6, 0x2c, 0xcd, 0xd2, 0xec, 0x11, 0x31, 0xbd, 0xd0, 0x14, 0xf2,
  0xd6, 0x16, 0xc5, 0x66, 0xe6, 0x1d, 0x55, 0x4c, 0x4d, 0xf5, 0x46, 0x0a, 0x36, 0xbb, 0x21, 0xf9,
  0xa8, 0x07, 0xec, 0x4e, 0xee, 0xc1, 0x03, 0xe0, 0xc6, 0x1e, 0x01, 0x3c, 0xe6, 0xf9, 0x08, 0x39,
  0xb3, 0xd3, 0x00, 0x0e, 0x29, 0xea, 0x0f, 0x0a, 0xfa, 0x09, 0xe4, 0xfd, 0x3a, 0xd9, 0x03, 0x1e,
  0xe1, 0x1d, 0xfa, 0xd0, 0xe6, 0x09, 0x2d, 0x32, 0x02, 0xd6, 0xd2, 0xe6, 0xf7, 0x03, 0x2e, 0xfc,
  0x0a, 0xf5, 0x09, 0x1a, 0x45, 0x0d, 0xdd, 0xff, 0xde, 0x0d, 0xfc, 0xcc, 0xde, 0x11, 0x35, 0x2b,
  0xdc, 0xb8, 0xe4, 0xc5, 0x1f, 0xe9, 0x03, 0xa6, 0xfb, 0xdc, 0xf4, 0xe2, 0x1f, 0xe9, 0xe1, 0x0e,
  0xc3, 0x01, 0x0a, 0xbb, 0xf6, 0xd8, 0x03, 0x10, 0xbb, 0xe4, 0xff, 0xe7, 0x4b, 0x36, 0xe9, 0xe0,
  0x30, 0xfe, 0x22, 0xd9, 0x2d, 0x12, 0xf1, 0x1d, 0x00, 0x10, 0x1f, 0xc0, 0x09, 0x3e, 0x2a, 0x35,
  0xef, 0xe2, 0xea, 0xcd, 0xe5, 0xf1, 0x15, 0xd6, 0x4f, 0xee, 0xf1, 0x39, 0xb6, 0x21, 0x13, 0x07,
  0x30, 0xdd, 0xfa, 0x23, 0xfe, 0xca, 0x6d, 0x2c, 0x81, 0xe2, 0xe1, 0xa0, 0xde, 0xdc, 0x06, 0xdc,
  0xe9, 0x13, 0xd8, 0xae, 0x56, 0x0c, 0xe0, 0x31, 0x33, 0xda, 0x2b, 0xad, 0xfa, 0x42, 0x1f, 0x54,
  0x10, 0xdb, 0xdd, 0x0b, 0x28, 0xc1, 0xce, 0x34, 0xc9, 0x0a, 0x0c, 0x22, 0x25, 0xce, 0xf2, 0xb7,
  0x21, 0xfe, 0x0e, 0x18, 0xd3, 0x7d, 0xff, 0x32, 0x02, 0xd1, 0x56, 0xdb, 0x44, 0xf7, 0x30, 0xd6,
  0xe8, 0x1b, 0x02, 0x6c, 0xa2, 0xc1, 0x0d, 0x23, 0x0a, 0x50, 0xb2, 0x40, 0xcb, 0x36, 0x5a, 0x49,
  0x30, 0xae, 0x4a, 0x12, 0x72, 0xff, 0xd6, 0xda, 0x9e, 0xe6, 0xe9, 0x43, 0xd8, 0xd2, 0x26, 0x17,
  0xf5, 0xd3, 0x32, 0x19, 0x0c, 0xf7, 0xf2, 0x24, 0x2e, 0xb7, 0xd8, 0xe3, 0x2d, 0xe7, 0x2f, 0x1b,
  0xe5, 0xda, 0xea, 0xf0, 0xfe, 0x03, 0x19, 0x12, 0xe5, 0x3f, 0xd9, 0xef, 0x31, 0x1d, 0x07, 0x4c,
  0x56, 0xa8, 0x3f, 0xbd, 0x31, 0x81, 0x67, 0xb9, 0x2b, 0xba, 0x18, 0xf1, 0xeb, 0x02, 0xe6, 0x1b,
  0xc8, 0x76, 0xcf, 0x25, 0x2f, 0xe3, 0x49, 0x5c, 0x3b, 0x9a, 0x43, 0x10, 0x63, 0xb1, 0x39, 0xf6,
  0xc5, 0xea, 0xf6, 0xf9, 0x11, 0xdb, 0xf3, 0x21, 0xb6, 0x5b, 0xef, 0x09, 0xfe, 0x11, 0x23, 0x25,
  0x1a, 0xec, 0xf5, 0xe8, 0x40, 0xc5, 0x13, 0x17, 0xe6, 0x04, 0xcc, 0xee, 0xe8, 0xe8, 0xea, 0x1f,
  0x03, 0x31, 0xec, 0x00, 0xf4, 0x1b, 0x18, 0x4c, 0x20, 0xbc, 0x25, 0xfa, 0x45, 0xc0, 0x40, 0x08,
  0x1d, 0xf3, 0xfc, 0x10, 0xa1, 0xe2, 0xf4, 0x2a, 0x09, 0x30, 0xd4, 0x22, 0x04, 0xef, 0x04, 0x3a,
  0x1e, 0xd2, 0x3c, 0xda, 0x3e, 0xd9, 0xd6, 0x20, 0xd1, 0x0b, 0x03, 0x08, 0x45, 0xf5, 0xe0, 0xf8,
  0x0b, 0x24, 0xec, 0xf7, 0xf8, 0x17, 0x4d, 0x4f, 0x41, 0xcb, 0xf7, 0xda, 0x63, 0xd2, 0x49, 0xe0,
  0xe6, 0xc4, 0xfb, 0xfd, 0x00, 0xff, 0xec, 0x04, 0xf8, 0x26, 0xd9, 0x39, 0xfc, 0x2d, 0x7f, 0x39,
  0x17, 0x14, 0x3c, 0xe6, 0x47, 0xda, 0x54, 0xd9, 0xe2, 0xeb, 0xfe, 0x30, 0xdb, 0xcc, 0x44, 0xfe,
  0xbc, 0xf0, 0xd8, 0x57, 0x0c, 0x1a, 0x52, 0x40, 0x06, 0x0f, 0x16, 0xca, 0x3a, 0xbb, 0x17, 0xfb,
  0xb1, 0xf5, 0xc0, 0x2d, 0x0e, 0x03, 0xec, 0xe9, 0xe1, 0x02, 0xff, 0x51, 0xe6, 0x37, 0x13, 0x18,
  0xc4, 0xea, 0xc4, 0xdd, 0x5f, 0x21, 0x2d, 0xec, 0xf2, 0xec, 0x18, 0xd1, 0x1e, 0xdb, 0x17, 0x1b,
  0xe0, 0x11, 0xfe, 0xa2, 0xf3, 0x0c, 0x27, 0x46, 0x0d, 0xc7, 0xff, 0x11, 0x32, 0xe8, 0x00, 0xd4,
  0x20, 0xf1, 0x12, 0x36, 0x3d, 0x07, 0x05, 0x2f, 0xdb, 0xf9, 0x04, 0xcb, 0xf7, 0x06, 0x2a, 0x2c,
  0xc6, 0x92, 0x04, 0x08, 0x07, 0xf6, 0xca, 0xd3, 0xbe, 0xe9, 0x06, 0xf3, 0x38, 0xf5, 0xd4, 0x20,
  0xd8, 0x24, 0xed, 0xdf, 0xf7, 0x17, 0xeb, 0x81, 0xf4, 0x53, 0xec, 0x20, 0xb0, 0x18, 0xd7, 0xf2,
  0xda, 0x25, 0xf7, 0x18, 0xf4, 0x24, 0x28, 0xfe, 0xc8, 0xe6, 0xfe, 0xf6, 0xe9, 0x3c, 0xe5, 0x9a,
  0xca, 0xfe, 0xf7, 0xd5, 0xde, 0xed, 0xcb, 0xfa, 0xe4, 0x15, 0x38, 0x00, 0x23, 0x0c, 0xe6, 0xff,
  0x24, 0xcb, 0x18, 0xb8, 0xc5, 0x35, 0x13, 0x98, 0xc0, 0x21, 0xbe, 0xf8, 0xf5, 0xfb, 0xe8, 0x1e,
  0xda, 0x17, 0x0d, 0xee, 0x16, 0x2e, 0x0d, 0xc2, 0x0c, 0xd6, 0xe4, 0x1e, 0xf9, 0x0b, 0xc1, 0xf3,
  0xca, 0x32, 0xfb, 0xf8, 0xa1, 0xd8, 0xd5, 0x04, 0x21, 0x46, 0x07, 0xe9, 0x26, 0x00, 0xd8, 0x04,
  0x0b, 0x11, 0x4a, 0xe7, 0xdc, 0x8f, 0xd7, 0xef, 0xb8, 0xbf, 0xf1, 0x35, 0x9a, 0x10, 0x08, 0xfc,
  0x19, 0x0d, 0x09, 0xcc, 0x32, 0x07, 0xcb, 0xf4, 0x05, 0x0c, 0x69, 0xcd, 0x14, 0xde, 0xa8, 0x1b,
  0x9f, 0x19, 0x1c, 0xe2, 0x83, 0x04, 0x37, 0xda, 0x77, 0x2e, 0x3b, 0xe3, 0x40, 0x60, 0x0e, 0x2d,
  0x60, 0xe1, 0x24, 0xda, 0xf5, 0xe0, 0x0e, 0xbd, 0x9e, 0xe3, 0xb0, 0xf3, 0xb6, 0xe7, 0x0f, 0x11,
  0xbf, 0x16, 0x26, 0xf6, 0x1f, 0xde, 0x3d, 0x10, 0xcd, 0xb5, 0x3d, 0x12, 0x33, 0xca, 0xfd, 0x2f,
  0xe9, 0x35, 0xaa, 0x0e, 0xf4, 0x34, 0xd7, 0x1f, 0xde, 0x61, 0xfb, 0xe2, 0x2b, 0xf6, 0x06, 0xc1,
  0xf8, 0xeb, 0x0b, 0x1a, 0x2f, 0x24, 0x0d, 0xdb, 0x9d, 0x3d, 0xc9, 0x2e, 0xde, 0xed, 0x12, 0x0b,
  0xb5, 0x43, 0xdb, 0xfc, 0x00, 0xce, 0xf2, 0xbd, 0xf5, 0xcf, 0x21, 0x49, 0x04, 0x02, 0xd8, 0xcd,
  0x56, 0xec, 0x9f, 0x50, 0xd6, 0xf0, 0xb5, 0xd2, 0x2f, 0xeb, 0xc1, 0x12, 0xd6, 0x1b, 0x63, 0x95,
  0x11, 0xea, 0x19, 0xf5, 0xf4, 0xcd, 0xdf, 0x9a, 0x32, 0x35, 0xc5, 0x43, 0xba, 0x0c, 0x8f, 0x07,
  0xea, 0xdb, 0x47, 0xd9, 0xdc, 0xda, 0x4e, 0x86, 0xd8, 0xcd, 0x34, 0x94, 0x29, 0x2d, 0xa0, 0xd0,
  0xf4, 0x33, 0x86, 0x01, 0xd1, 0x19, 0xf4, 0x7c, 0x03, 0x14, 0xd3, 0xa4, 0xc1, 0xf7, 0x3a, 0xbb,
  0x7c, 0x13, 0x0b, 0x41, 0x50, 0xc5, 0xd7, 0xc7, 0xf4, 0x06, 0xdd, 0x22, 0xb9, 0x00, 0x01, 0xe2,
  0x4c, 0x20, 0x4b, 0xcb, 0xcb, 0xf6, 0x41, 0xba, 0xee, 0xe9, 0xad, 0x16, 0x13, 0x81, 0xb3, 0xd5,
  0xc3, 0x0c, 0xaf, 0xf0, 0xa1, 0x22, 0x8f, 0x39, 0x09, 0x4e, 0x12, 0x82, 0xca, 0x4d, 0x28, 0xd8,
  0xf5, 0xa9, 0x37, 0x1b, 0xf6, 0x9c, 0xbf, 0xaf, 0x2a, 0x36, 0xa0, 0xf2, 0xe9, 0xe9, 0xbf, 0x33,
  0x5b, 0x12, 0x24, 0xd4, 0x0d, 0x34, 0x44, 0xc6, 0x46, 0xfd, 0x48, 0xf9, 0xec, 0x63, 0x16, 0xd8,
  0xfd, 0x1f, 0x2f, 0xea, 0xf0, 0x25, 0x23, 0x37, 0xf5, 0xee, 0x47, 0xdc, 0xa4, 0x23, 0xff, 0xff,
  0x39, 0x24, 0x57, 0x05, 0x97, 0x13, 0xe3, 0xb8, 0x4d, 0x55, 0xd0, 0x37, 0x9b, 0x18, 0x22, 0xf0,
  0x2f, 0x59, 0x3e, 0xa2, 0xe0, 0x6d, 0x4b, 0xdf, 0x19, 0x04, 0x4c, 0x24, 0x05, 0xf8, 0xe1, 0xec,
  0x25, 0x23, 0x2b, 0x13, 0xed, 0xdb, 0x04, 0xf9, 0x41, 0x0b, 0x12, 0xcd, 0xde, 0x5b, 0xfc, 0xe5,
  0x44, 0x2c, 0x52, 0x06, 0x1b, 0x22, 0x04, 0xb2, 0x06, 0x15, 0xd0, 0xf1, 0xcc, 0xd5, 0xcc, 0x11,
  0x0c, 0xee, 0xf8, 0x07, 0x21, 0xdf, 0x32, 0x95, 0xe4, 0xd9, 0xfe, 0xe3, 0xf4, 0xf4, 0xb7, 0xa8,
  0xfd, 0x2d, 0xcb, 0x2f, 0x81, 0x47, 0xd2, 0xeb, 0xec, 0x15, 0x35, 0x0b, 0x1f, 0x10, 0x52, 0x94,
  0x27, 0xda, 0x13, 0xc7, 0xe8, 0x22, 0xbe, 0xaa, 0xc5, 0x17, 0xd3, 0xd5, 0xfb, 0xf7, 0xeb, 0x59,
  0x39, 0x34, 0x2a, 0x18, 0xec, 0xeb, 0x16, 0xc9, 0x16, 0x06, 0xf2, 0x11, 0x0e, 0x0b, 0xc5, 0x93,
  0xe7, 0xe3, 0x0c, 0x16, 0x87, 0xf0, 0x2c, 0x19, 0x27, 0x29, 0x42, 0xef, 0xec, 0x01, 0x21, 0xe1,
  0x01, 0xa3, 0xe5, 0xfa, 0x27, 0xd0, 0xae, 0xd0, 0xae, 0x15, 0x8b, 0xf9, 0x9d, 0x23, 0x0a, 0xf9,
  0x36, 0xee, 0xfe, 0x9a, 0x06, 0x1b, 0x18, 0xae, 0xda, 0xcf, 0x22, 0xe6, 0xfd, 0xd7, 0x9f, 0xad,
  0xc3, 0x40, 0xed, 0x17, 0xa0, 0xe9, 0x0f, 0x1f, 0x53, 0x29, 0x52, 0xe1, 0x1e, 0x2c, 0x22, 0xb3,
  0x20, 0xbc, 0x0f, 0x25, 0x05, 0xfb, 0xd9, 0xc0, 0x51, 0x49, 0xd6, 0xdc, 0xac, 0xe0, 0x0c, 0xf7,
  0xe7, 0x0b, 0x0f, 0xc7, 0xe6, 0x3e, 0x1a, 0xfe, 0xd6, 0xca, 0x18, 0x01, 0xd1, 0x11, 0x11, 0xa4,
  0xfa, 0x25, 0xdd, 0xd8, 0x01, 0xd6, 0xf6, 0x58, 0xf8, 0x17, 0xdf, 0xa3, 0x39, 0x16, 0x5a, 0xd0,
  0xe2, 0xe2, 0x46, 0x3b, 0x1f, 0xe1, 0xe1, 0xcb, 0xd5, 0x39, 0xc6, 0xf9, 0xc5, 0x06, 0x5d, 0x28,
  0x0a, 0x51, 0x4d, 0xbf, 0x37, 0x42, 0xf5, 0xeb, 0xf0, 0xea, 0x3b, 0x6f, 0xea, 0x26, 0xf1, 0xc9,
  0xfb, 0xfd, 0xd3, 0x23, 0xd1, 0xf0, 0xf7, 0x1b, 0x0f, 0x01, 0xde, 0xee, 0xc6, 0x12, 0x28, 0xc4,
  0x33, 0xcd, 0xe4, 0x00, 0xae, 0xaa, 0xd6, 0xf7, 0x18, 0x1a, 0xd0, 0x3a, 0xd3, 0x08, 0x9b, 0x3b,
  0xd8, 0x2e, 0x1e, 0xda, 0xce, 0xef, 0x57, 0x81, 0x1a, 0xdc, 0xe5, 0xb4, 0x36, 0x0e, 0xe7, 0x02,
  0xd5, 0x4b, 0xb6, 0x1e, 0xe7, 0x22, 0xcf, 0x32, 0x03, 0xd5, 0x22, 0xea, 0xd2, 0x09, 0x50, 0x9f,
  0x4a, 0xdc, 0x10, 0x03, 0x3f, 0xca, 0x03, 0xd7, 0x12, 0x00, 0x05, 0x37, 0xa8, 0xfd, 0x09, 0xd5,
  0x1f, 0x22, 0x5a, 0xef, 0xfb, 0x20, 0x48, 0xeb, 0xeb, 0xd0, 0xc1, 0x15, 0x1e, 0xc1, 0xc0, 0xf2,
  0xd4, 0x0e, 0xe1, 0x14, 0xbd, 0xf2, 0xba, 0x1a, 0x10, 0x13, 0xe9, 0xd4, 0xfb, 0x04, 0xf2, 0xd8,
  0xba, 0xd6, 0x5e, 0x0a, 0x07, 0x81, 0xd4, 0xd6, 0xf6, 0x32, 0xe5, 0xfc, 0xcd, 0x0b, 0x0c, 0x1d,
  0x4a, 0x17, 0x2c, 0xbe, 0x04, 0x56, 0x3f, 0xc1, 0x2f, 0xdb, 0xf7, 0xf4, 0xf1, 0x57, 0x19, 0xd9,
  0x54, 0x18, 0xee, 0x1e, 0xd8, 0xe2, 0x23, 0x39, 0x06, 0x06, 0x27, 0xbf, 0xd5, 0x06, 0x37, 0xb7,
  0x1d, 0xfc, 0x1b, 0xfc, 0xf5, 0xda, 0xfd, 0xe4, 0x0f, 0x3e, 0xd5, 0x17, 0xd3, 0x21, 0xdc, 0x08,
  0x2c, 0x2b, 0x24, 0xa8, 0xc7, 0x62, 0x40, 0x94, 0x02, 0xdf, 0x22, 0x0a, 0xf3, 0xe8, 0x09, 0x02,
  0xff, 0x62, 0x0f, 0x10, 0xf8, 0xf2, 0x1f, 0x29, 0x16, 0x2e, 0x2d, 0xb8, 0xf7, 0x35, 0x3e, 0xea,
  0x36, 0xfe, 0x3b, 0x15, 0x04, 0x44, 0xe9, 0xc9, 0x02, 0xfb, 0xdf, 0x09, 0xd3, 0xca, 0xee, 0xfc,
  0xff, 0xf4, 0x11, 0x0d, 0xeb, 0x0a, 0x21, 0xca, 0x08, 0xbb, 0xf0, 0xe8, 0x13, 0xd0, 0xe2, 0xab,
  0xdb, 0x19, 0xf5, 0x1d, 0xc9, 0xff, 0xac, 0x00, 0x15, 0x24, 0x0f, 0xef, 0x0f, 0x0e, 0x43, 0x81,
  0x21, 0xbe, 0xe0, 0xd6, 0xf8, 0x03, 0xc6, 0xd5, 0xe8, 0x55, 0xfa, 0xfe, 0xef, 0x35, 0xe3, 0x56,
  0x14, 0x04, 0x35, 0xd2, 0x05, 0xfa, 0x07, 0xb8, 0x15, 0xf5, 0x14, 0x40, 0x3e, 0xff, 0xce, 0xb7,
  0x06, 0xd7, 0xf1, 0xf3, 0x9b, 0xfe, 0x31, 0xfd, 0x2d, 0x1f, 0x13, 0xfa, 0xf7, 0x0c, 0x16, 0xae,
  0xef, 0xc1, 0xfd, 0xf1, 0xed, 0xaf, 0xc9, 0xe2, 0xcd, 0x08, 0xc3, 0x30, 0xbd, 0x1a, 0xc3, 0x0a,
  0xf5, 0x1e, 0x19, 0xe3, 0xf9, 0x0e, 0xfe, 0xb7, 0xf5, 0xc0, 0xf7, 0xf0, 0x2e, 0xe3, 0xe0, 0xbe,
  0xbd, 0x2c, 0xe2, 0x1e, 0xcc, 0xe7, 0x02, 0x3b, 0x0b, 0x10, 0x1f, 0xbd, 0x24, 0x22, 0x2e, 0xc3,
  0x19, 0xd8, 0x4a, 0xfb, 0xde, 0x16, 0x0e, 0xeb, 0xf9, 0x24, 0xb4, 0xdc, 0xbd, 0x26, 0x10, 0x03,
  0xe6, 0xe5, 0x3c, 0xb1, 0xd9, 0x27, 0x24, 0x00, 0x11, 0xed, 0x1f, 0x16, 0xfd, 0xe4, 0xf1, 0xe3,
  0xf0, 0x2f, 0xe9, 0xef, 0xce, 0x28, 0xf1, 0x14, 0x3b, 0x1e, 0x15, 0xcc, 0x26, 0x30, 0x3a, 0xd6,
  0x03, 0xd7, 0x01, 0x09, 0x39, 0x12, 0xfe, 0xe3, 0xeb, 0x01, 0xbd, 0x02, 0xbc, 0xe3, 0x22, 0x0a,
  0xe7, 0x2e, 0x34, 0xdd, 0x0a, 0x09, 0x1d, 0xb4, 0x32, 0xeb, 0x23, 0x41, 0x2e, 0x16, 0xfb, 0xb1,
  0x3c, 0x0f, 0xb8, 0x44, 0xee, 0x01, 0x1a, 0xe8, 0xfc, 0xd0, 0xdd, 0xe4, 0xe8, 0x22, 0x1e, 0xdc,
  0x03, 0xcd, 0x16, 0xd0, 0x0d, 0xf4, 0xab, 0xaa, 0x06, 0x1d, 0xdd, 0x09, 0xae, 0xeb, 0xcb, 0x21,
  0xef, 0x07, 0xf7, 0xee, 0xe4, 0xf3, 0x6c, 0xca, 0x2a, 0xb3, 0x2d, 0xe7, 0x16, 0x32, 0xda, 0xb8,
  0x07, 0x21, 0xa2, 0x24, 0xd4, 0xf9, 0xb6, 0x53, 0x33, 0xeb, 0xed, 0xd4, 0xad, 0x10, 0x2b, 0xcb,
  0x23, 0x08, 0x16, 0x1d, 0x4b, 0xf9, 0xeb, 0xae, 0x14, 0xcb, 0xd6, 0x1a, 0xc8, 0xf8, 0x1e, 0x23,
  0x02, 0x3a, 0x36, 0xae, 0x09, 0x30, 0x5a, 0xb1, 0x21, 0xf1, 0xfb, 0x02, 0x12, 0xa9, 0xd0, 0xf1,
  0xdb, 0x56, 0xb9, 0x40, 0xbf, 0x16, 0xa2, 0x15, 0x21, 0x2a, 0x29, 0xd1, 0x12, 0xe5, 0xf2, 0xb8,
  0xb3, 0xd7, 0x33, 0xff, 0xdf, 0x81, 0xcb, 0xce, 0xd3, 0x4c, 0xd1, 0xd5, 0xdf, 0x0d, 0xe7, 0x51,
  0x45, 0x0c, 0x29, 0xae, 0x0a, 0x2b, 0x40, 0xcb, 0x58, 0xdf, 0x13, 0x05, 0xd3, 0xf6, 0x04, 0xed,
  0x47, 0xf0, 0x29, 0x10, 0xe0, 0x18, 0x11, 0x3e, 0x0a, 0xff, 0x45, 0xf6, 0xb9, 0x46, 0x10, 0xe6,
  0x01, 0xf7, 0x27, 0x03, 0xd0, 0xe6, 0xfa, 0xd1, 0x35, 0x12, 0x08, 0x1c, 0xda, 0x22, 0xd3, 0x14,
  0x18, 0x2c, 0x33, 0x9f, 0xda, 0x58, 0x26, 0xa3, 0x01, 0xee, 0x3d, 0xe3, 0x23, 0x0c, 0xdf, 0x01,
  0x29, 0x09, 0xbd, 0x02, 0xf9, 0x0d, 0x13, 0x56, 0x22, 0x43, 0xf5, 0x9e, 0x1e, 0x1b, 0x46, 0xe8,
  0x1e, 0xfe, 0x40, 0x2a, 0xca, 0xe2, 0x42, 0x20, 0x01, 0x15, 0xb5, 0xbc, 0x7a, 0x28, 0x17, 0x00,
  0x36, 0x18, 0x03, 0xce, 0xdd, 0xea, 0xc7, 0xf8, 0x33, 0x11, 0x07, 0xe0, 0x02, 0x22, 0x02, 0x37,
  0x13, 0xda, 0x35, 0x05, 0xfa, 0xed, 0xf2, 0x23, 0x1b, 0x0b, 0xda, 0xf0, 0xff, 0x18, 0xf3, 0x4c,
  0x07, 0xe2, 0x22, 0xec, 0xe7, 0xe2, 0x57, 0x45, 0x81, 0xc4, 0xe8, 0xe5, 0xee, 0xdc, 0x1a, 0xec,
  0xf3, 0xf1, 0x18, 0x0c, 0x43, 0x26, 0xbc, 0xf7, 0xec, 0x02, 0x0d, 0x98, 0xc7, 0x3f, 0x2e, 0x5c,
  0x14, 0xb6, 0x0e, 0xc0, 0x51, 0xef, 0x2e, 0x0c, 0xe5, 0xd4, 0xf4, 0xf5, 0xfd, 0xdb, 0x0c, 0xe7,
  0x24, 0xe0, 0xc5, 0x32, 0xe4, 0x25, 0x60, 0x1f, 0x19, 0x18, 0x34, 0xdc, 0x4b, 0xec, 0x55, 0xcd,
  0xd4, 0x08, 0x0a, 0x20, 0x91, 0xea, 0x2b, 0x21, 0xea, 0x1e, 0xf3, 0x52, 0x02, 0x6b, 0x16, 0x29,
  0x19, 0xcb, 0x27, 0x12, 0x1d, 0xc6, 0x1d, 0xd4, 0xdd, 0x0c, 0x03, 0x49, 0xf0, 0x18, 0x19, 0x08,
  0x0f, 0xed, 0xff, 0x36, 0xf4, 0xe8, 0x05, 0x30, 0x65, 0xd5, 0xfa, 0xe4, 0x4f, 0x0e, 0x5f, 0xf1,
  0xd8, 0x0f, 0xe3, 0xfc, 0x22, 0xd0, 0xed, 0xec, 0x07, 0x54, 0xd3, 0xeb, 0x0f, 0xf2, 0x27, 0x78,
  0x24, 0xd4, 0x5b, 0xfe, 0x07, 0xed, 0x1f, 0xf7, 0xc3, 0xe8, 0x1d, 0x10, 0x02, 0xd5, 0xe6, 0x29,
  0x9e, 0x33, 0xcf, 0x30, 0x32, 0xb7, 0x03, 0x57, 0x28, 0xe6, 0x54, 0xcf, 0xd8, 0x05, 0x30, 0xe2,
  0x8b, 0xe5, 0xed, 0x17, 0x13, 0xf2, 0x12, 0x13, 0xae, 0x47, 0x2f, 0xc1, 0xe4, 0x07, 0x3c, 0x1b,
  0x15, 0x09, 0xdf, 0xee, 0x58, 0xde, 0x32, 0x1a, 0x1a, 0xfe, 0x01, 0xf6, 0xdc, 0x01, 0xdd, 0xef,
  0xbf, 0x3e, 0xe0, 0xd6, 0xfa, 0x0a, 0x1b, 0x74, 0x39, 0xe5, 0x1b, 0xd4, 0x23, 0xf3, 0x37, 0x05,
  0xee, 0x05, 0xc4, 0x2e, 0xcc, 0x0d, 0xfb, 0x40, 0x11, 0x19, 0x07, 0x26, 0xf9, 0xc3, 0x5a, 0x5c,
  0xbb, 0xc3, 0xf2, 0xce, 0x2d, 0xd0, 0x34, 0xf2, 0xf1, 0x1c, 0xfa, 0xfd, 0x36, 0x0a, 0xcb, 0x11,
  0x09, 0xe7, 0xe8, 0xdd, 0xc4, 0x32, 0x51, 0x7a, 0xfe, 0x93, 0xe7, 0xdb, 0x7f, 0xce, 0x5a, 0x0b,
  0xcb, 0xd4, 0xcc, 0x07, 0xf2, 0xd5, 0xeb, 0xd6, 0x16, 0x1c, 0xcc, 0x2e, 0xe3, 0x41, 0x5c, 0x57,
  0xd9, 0x09, 0x51, 0xdc, 0x5d, 0xdf, 0x35, 0xc0, 0xf8, 0x2f, 0x1f, 0x21, 0xd8, 0xbb, 0x2b, 0xeb,
  0xe3, 0x25, 0xa4, 0x55, 0x01, 0x3b, 0x4a, 0x47, 0x1f, 0xc4, 0x35, 0xbd, 0x50, 0xb0, 0x32, 0x07,
  0xbb, 0xfa, 0xe5, 0x58, 0xeb, 0x1e, 0xef, 0x35, 0x01, 0xf9, 0xf8, 0x11, 0x00, 0xea, 0x2d, 0x37,
  0xfd, 0xc3, 0xd6, 0xb4, 0x5c, 0xf2, 0x39, 0x03, 0xdf, 0xe5, 0x3f, 0xda, 0x18, 0xdd, 0xff, 0xe8,
  0xf6, 0x46, 0xce, 0xc7, 0x05, 0x35, 0x32, 0x57, 0x51, 0xc4, 0x53, 0xdc, 0x2d, 0xea, 0x35, 0xcc,
  0xe5, 0x0b, 0xee, 0x28, 0x38, 0xda, 0x03, 0x33, 0xb3, 0x46, 0xde, 0x01, 0x11, 0x10, 0x01, 0x55,
  0x20, 0xb9, 0x14, 0xfa, 0x10, 0xcd, 0x11, 0xd8, 0xb1, 0xe1, 0xe3, 0xd0, 0x59, 0x17, 0xfc, 0x49,
  0xc1, 0x3c, 0x07, 0xe7, 0xbb, 0xfb, 0x2c, 0x2c, 0xde, 0xfd, 0xbf, 0xb7, 0x55, 0x02, 0x3f, 0x0e,
  0x20, 0xf4, 0xe0, 0xf2, 0xf4, 0xdf, 0xc6, 0x01, 0xe6, 0x29, 0xf8, 0xba, 0x06, 0x27, 0x46, 0x4e,
  0x1a, 0xf4, 0x0f, 0x07, 0xfd, 0xf2, 0x3b, 0xf6, 0x1b, 0x07, 0xf6, 0x17, 0xa3, 0x1f, 0xf7, 0x44,
  0x1d, 0xfd, 0x0e, 0xf9, 0xe9, 0xfd, 0x55, 0x34, 0xac, 0xa9, 0xcd, 0xaa, 0x33, 0xf2, 0x14, 0x10,
  0xc6, 0xe1, 0x03, 0xf9, 0x46, 0x03, 0xd7, 0x0d, 0x17, 0xee, 0x16, 0xc7, 0xc3, 0x34, 0x02, 0x3f,
  0x12, 0xd7, 0x04, 0xbc, 0x64, 0xf9, 0xfe, 0xd2, 0xde, 0xe6, 0x05, 0x27, 0x1a, 0xf9, 0x21, 0xe4,
  0x28, 0xec, 0xf0, 0x0c, 0xd8, 0x6c, 0x54, 0x37, 0x0e, 0xe6, 0x31, 0xf0, 0x67, 0xe9, 0x1e, 0xeb,
  0x10, 0x0f, 0x19, 0x10, 0xa5, 0xd1, 0x0b, 0xfd, 0xd9, 0x45, 0xf1, 0x36, 0xfa, 0x20, 0x47, 0x3c,
  0x03, 0xba, 0x40, 0xf9, 0x2f, 0xda, 0x37, 0xcb, 0xb1, 0xf8, 0xd2, 0x53, 0x1a, 0x19, 0xf6, 0x47,
  0x05, 0x0c, 0x02, 0x42, 0xff, 0xeb, 0xf1, 0x30, 0x31, 0xd7, 0xfc, 0xf4, 0x36, 0x08, 0x7a, 0xf3,
  0xf8, 0xf6, 0xe8, 0xe5, 0xf5, 0xf4, 0xfa, 0x18, 0x05, 0x65, 0xcc, 0xd6, 0x2b, 0x35, 0x16, 0x5d,
  0x2e, 0xb9, 0x2a, 0x04, 0x18, 0xb8, 0x13, 0xef, 0x11, 0xf2, 0x11, 0x4c, 0xfa, 0xff, 0xf2, 0x07,
  0x81, 0x36, 0xc6, 0xf0, 0x0d, 0x09, 0x35, 0x51, 0x2f, 0xb1, 0x24, 0xc4, 0x0d, 0xcf, 0x30, 0xed,
  0xc8, 0xb7, 0x13, 0xff, 0x59, 0xd8, 0xf0, 0x38, 0xf7, 0x42, 0x01, 0xdc, 0x08, 0xd0, 0x32, 0x2b,
  0x30, 0xec, 0xe6, 0xc2, 0x3f, 0xdd, 0x08, 0x0d, 0xe9, 0x0e, 0x04, 0x12, 0xf0, 0xf5, 0xcb, 0x00,
  0x2c, 0x4b, 0xc6, 0xed, 0x37, 0x3b, 0x34, 0x33, 0x24, 0xe6, 0x00, 0xd5, 0x2c, 0xbd, 0x56, 0xda,
  0x27, 0xe6, 0xd7, 0x09, 0x93, 0xef, 0xfd, 0x02, 0xff, 0x1a, 0xe8, 0x2b, 0x21, 0xcb, 0x05, 0x2b,
  0x04, 0xb9, 0x5d, 0xca, 0x3c, 0xe2, 0xd9, 0x28, 0xde, 0x02, 0xe1, 0x18, 0x30, 0x16, 0x05, 0x18,
  0x29, 0xfa, 0xcc, 0xe1, 0xc9, 0x34, 0x4d, 0x59, 0x08, 0xb1, 0xfb, 0xc0, 0x7f, 0xd4, 0x47, 0xfb,
  0xef, 0xd2, 0xd9, 0xf3, 0x18, 0xd5, 0x07, 0xef, 0xe0, 0x13, 0xcc, 0x0c, 0xc4, 0x62, 0x68, 0x35,
  0x22, 0x04, 0x28, 0xe6, 0x4d, 0xfc, 0x3f, 0xfc, 0xcf, 0x0c, 0xee, 0x3a, 0xd7, 0xd4, 0x2f, 0xeb,
  0xdb, 0x2c, 0xda, 0x6d, 0xe9, 0x18, 0x6a, 0x69, 0x48, 0x04, 0x4b, 0xec, 0x2c, 0xa5, 0x13, 0x18,
  0xb1, 0xda, 0xd9, 0x18, 0xed, 0xcc, 0xe5, 0x1e, 0xce, 0xfe, 0x02, 0x2c, 0x09, 0x3d, 0xec, 0x25,
  0xb4, 0xe4, 0xbc, 0xdd, 0x32, 0xe0, 0x44, 0xf8, 0x05, 0xee, 0xfe, 0xd9, 0x15, 0xd5, 0xf5, 0xf9,
  0xed, 0x28, 0xf7, 0x9f, 0xfd, 0x1d, 0x49, 0x65, 0xf5, 0xc7, 0xfc, 0x19, 0xfe, 0xe7, 0xf6, 0xf4,
  0xea, 0x10, 0xf4, 0x07, 0x44, 0x09, 0xfc, 0x28, 0xe0, 0x1d, 0x10, 0xe7, 0x16, 0xec, 0x29, 0x50,
  0x92, 0xbe, 0xe3, 0xd5, 0x2d, 0xe0, 0x0d, 0xb9, 0xc5, 0xe9, 0x13, 0x16, 0x4e, 0xf8, 0xd6, 0x26,
  0xcd, 0x27, 0xff, 0xc0, 0x0f, 0xf1, 0x38, 0x29, 0x1e, 0xd9, 0xe6, 0xb8, 0x2e, 0xec, 0x2d, 0x1e,
  0x06, 0xed, 0x10, 0xfc, 0xb8, 0xeb, 0xd6, 0x19, 0xf7, 0x46, 0xdf, 0xc2, 0x08, 0x1b, 0x25, 0x70,
  0x31, 0xe7, 0x0c, 0xf9, 0x17, 0xd6, 0x1f, 0x0e, 0xec, 0x08, 0xce, 0x1a, 0xd9, 0x0c, 0x07, 0x0f,
  0x0f, 0xfe, 0xde, 0x26, 0x3a, 0xcf, 0x06, 0x34, 0x36, 0xfa, 0x21, 0xc6, 0x26, 0xcc, 0x09, 0x01,
  0xf9, 0xe8, 0x02, 0x01, 0x31, 0x25, 0xde, 0x29, 0x0a, 0x08, 0xf7, 0xe9, 0xb6, 0x50, 0x51, 0x2a,
  0x0c, 0xd5, 0x14, 0xbf, 0x7d, 0xed, 0x44, 0xf1, 0xf9, 0xc3, 0xd1, 0x1e, 0xed, 0xfc, 0x0f, 0xf2,
  0xf8, 0x23, 0xc6, 0x1f, 0xc3, 0x22, 0x7f, 0x45, 0x1d, 0xd7, 0x0f, 0xcb, 0x4c, 0xbb, 0x2b, 0xd7,
  0xc4, 0xe8, 0xcd, 0x38, 0xb0, 0xc4, 0x2f, 0x1f, 0xdc, 0x11, 0xda, 0x70, 0x30, 0x5e, 0x69, 0x5f,
  0x28, 0xd1, 0x30, 0xe0, 0x5b, 0xae, 0x32, 0x0d, 0xa4, 0xef, 0xcb, 0x2a, 0x0f, 0xe8, 0xf6, 0xef,
  0xf4, 0x16, 0x05, 0x36, 0xef, 0x08, 0x01, 0x42, 0xd4, 0x98, 0xbe, 0xd4, 0x56, 0xe4, 0x2d, 0xe8,
  0x19, 0xfd, 0xec, 0xd5, 0x3a, 0xe0, 0xfc, 0x1b, 0xfe, 0x1a, 0xf1, 0xa1, 0xd5, 0x20, 0x4d, 0x6c,
  0xf2, 0xc4, 0x15, 0x04, 0x17, 0xf6, 0x31, 0xff, 0xcd, 0xe9, 0x25, 0x09, 0x4a, 0xf9, 0x05, 0x14,
  0xe5, 0x2e, 0x08, 0xf0, 0xff, 0xeb, 0x06, 0x56, 0xbc, 0x93, 0x0c, 0xc7, 0x03, 0xb9, 0xd0, 0xb6,
  0xc4, 0x09, 0xe1, 0x27, 0x2f, 0xe4, 0xd3, 0x12, 0xe8, 0x38, 0xd7, 0xca, 0xf6, 0x0a, 0x29, 0x35,
  0x18, 0xc5, 0xde, 0xd3, 0x5d, 0xbb, 0x10, 0x10, 0xd3, 0xe8, 0x0f, 0xf7, 0xa7, 0x0b, 0xe6, 0x07,
  0xea, 0x1a, 0xd4, 0x05, 0xfc, 0x0b, 0x1f, 0x46, 0x0e, 0xe7, 0x2e, 0x0f, 0x33, 0xf2, 0x36, 0x11,
  0x19, 0x0a, 0xc2, 0x0e, 0xd1, 0xd8, 0x1e, 0x24, 0x16, 0x4b, 0xd7, 0x23, 0x34, 0xe1, 0xfa, 0x56,
  0x38, 0xe5, 0x1e, 0xff, 0x10, 0xb8, 0xf7, 0x10, 0xbd, 0xe3, 0x09, 0x1c, 0x42, 0x22, 0xed, 0x0e,
  0x0a, 0x1e, 0x13, 0xba, 0xd0, 0x33, 0x60, 0x1b, 0x26, 0xae, 0xd4, 0xeb, 0x55, 0xdf, 0x46, 0x0f,
  0xe1, 0xd4, 0xc8, 0xf4, 0x1e, 0xe2, 0x02, 0xfd, 0xfe, 0x2f, 0xf3, 0x4c, 0xe9, 0x27, 0x67, 0x3c,
  0x41, 0xfb, 0x3d, 0xdd, 0x49, 0xc0, 0x40, 0xed, 0xde, 0xec, 0x04, 0x18, 0xd2, 0xe9, 0x0c, 0xe4,
  0x01, 0xea, 0xb3, 0x51, 0xf9, 0x10, 0x68, 0x43, 0xf8, 0x10, 0x0f, 0xd9, 0x60, 0xe4, 0xdc, 0xf6,
  0xc1, 0xd6, 0xed, 0x1f, 0x06, 0xea, 0xec, 0x03, 0xfb, 0x1e, 0xe8, 0x73, 0xdd, 0x0b, 0x0c, 0x29,
  0xd0, 0xf1, 0xc6, 0xe2, 0x7f, 0xf0, 0x13, 0x07, 0xe5, 0xee, 0xea, 0xc6, 0x18, 0xf7, 0xf4, 0x05,
  0xfa, 0x17, 0x01, 0xd6, 0xdb, 0x08, 0x17, 0x6b, 0xf8, 0xde, 0x1f, 0x24, 0x0d, 0xd8, 0x12, 0xf2,
  0xe7, 0x01, 0xdc, 0x24, 0x1b, 0xfa, 0x07, 0x50, 0xc8, 0xff, 0x06, 0xdd, 0x00, 0xe5, 0x23, 0x44,
  0xc7, 0xa1, 0x24, 0xb6, 0xf8, 0xd6, 0x1e, 0xa4, 0xc8, 0xe1, 0xed, 0x30, 0x2d, 0xe1, 0xf3, 0x11,
  0xc8, 0x20, 0xfe, 0xb9, 0xf0, 0xe7, 0x30, 0x15, 0xfc, 0x16, 0xd0, 0xe8, 0x15, 0x12, 0xe1, 0x1c,
  0x08, 0x14, 0x10, 0x0b, 0x2c, 0x24, 0xd8, 0xe2, 0xf3, 0xf3, 0x00, 0xf6, 0x27, 0x14, 0x16, 0x48,
  0x20, 0xe0, 0xeb, 0xe2, 0x03, 0xc1, 0x09, 0x1e, 0x18, 0x26, 0xc0, 0x0c, 0xc0, 0x24, 0xc5, 0x44,
  0x18, 0xef, 0x0a, 0xf8, 0xff, 0xe9, 0x44, 0x5b, 0xe3, 0xeb, 0xdb, 0xc7, 0x0e, 0x0c, 0x20, 0xdd,
  0xc6, 0x06, 0xf0, 0xdd, 0x1b, 0x24, 0xdc, 0x41, 0x0b, 0xdd, 0x1c, 0xae, 0xf1, 0x23, 0x52, 0x3a,
  0x0a, 0xd0, 0x06, 0xf9, 0x56, 0xce, 0x5c, 0xc6, 0xd9, 0xcf, 0xe3, 0xf3, 0xdf, 0xcf, 0xed, 0x04,
  0x2f, 0x11, 0xdd, 0x04, 0xed, 0x64, 0x74, 0x5a, 0x1b, 0xd4, 0x2f, 0xe0, 0x40, 0xf5, 0x05, 0xfa,
  0xc4, 0xe6, 0xf1, 0x49, 0xb8, 0xe3, 0x28, 0x28, 0x25, 0x25, 0xdf, 0x66, 0xd5, 0x2d, 0x27, 0x38,
  0xf2, 0xc7, 0x55, 0xc5, 0x67, 0xc4, 0xef, 0xd0, 0x17, 0x23, 0xec, 0x61, 0x10, 0xde, 0x04, 0xef,
  0xe0, 0xe2, 0xf7, 0x60, 0xfd, 0xe6, 0xf4, 0x42, 0x08, 0x81, 0x10, 0xe8, 0x5b, 0xdd, 0x44, 0x09,
  0xd8, 0x0c, 0x08, 0xf2, 0xe7, 0xd0, 0xf3, 0x0d, 0xdb, 0x71, 0xbb, 0xef, 0xfb, 0x21, 0x22, 0x7f,
  0x06, 0xde, 0x5c, 0xad, 0x0f, 0xc3, 0x3e, 0xb3, 0xf5, 0xf8, 0x1b, 0x04, 0x22, 0xf1, 0x03, 0xeb,
  0xa9, 0x37, 0xda, 0x31, 0x20, 0xc2, 0x35, 0x4e, 0x36, 0xba, 0x29, 0xdc, 0xfa, 0x04, 0x44, 0xf5,
  0xe6, 0xc0, 0xdf, 0x11, 0x37, 0xf4, 0xcc, 0x0b, 0xb9, 0x39, 0xef, 0xf6, 0x5e, 0xfe, 0xff, 0xff,
  0x04, 0x00, 0x00, 0x00, 0x80, 0x00, 0x00, 0x00, 0xd8, 0x22, 0x00, 0x00, 0x3d, 0xf0, 0xff, 0xff,
  0x40, 0xfa, 0xff, 0xff, 0x3b, 0x24, 0x00, 0x00, 0xe2, 0xed, 0xff, 0xff, 0xf8, 0x0f, 0x00, 0x00,
  0xea, 0xe2, 0xff, 0xff, 0x5a, 0xe9, 0xff, 0xff, 0xfe, 0x27, 0x00, 0x00, 0xc4, 0xfd, 0xff, 0xff,
  0x4d, 0x14, 0x00, 0x00, 0xb8, 0x04, 0x00, 0x00, 0x84, 0x0a, 0x00, 0x00, 0x34, 0xe0, 0xff, 0xff,
  0x63, 0x11, 0x00, 0x00, 0x49, 0x0e, 0x00, 0x00, 0x14, 0xfa, 0xff, 0xff, 0x5f, 0xeb, 0xff, 0xff,
  0x46, 0xe9, 0xff, 0xff, 0x7e, 0x26, 0x00, 0x00, 0x33, 0x15, 0x00, 0x00, 0x26, 0x32, 0x00, 0x00,
  0x12, 0x11, 0x00, 0x00, 0x61, 0x2d, 0x00, 0x00, 0x23, 0x09, 0x00, 0x00, 0xe7, 0xe2, 0xff, 0xff,
  0x0b, 0xdf, 0xff, 0xff, 0xd1, 0xe0, 0xff, 0xff, 0x5b, 0xf6, 0xff, 0xff, 0x2a, 0xf8, 0xff, 0xff,
  0xbe, 0xf4, 0xff, 0xff, 0xf0, 0xef, 0xff, 0xff, 0xea, 0xfe, 0xff, 0xff, 0x04, 0x00, 0x00, 0x00,
  0x40, 0x00, 0x00, 0x00, 0x33, 0xc3, 0xdb, 0x2e, 0xd3, 0x51, 0x92, 0xf3, 0x4e, 0xb6, 0x6e, 0xdb,
  0x69, 0xba, 0x76, 0x77, 0xcb, 0xaf, 0x81, 0x3a, 0x42, 0x2b, 0x56, 0x2a, 0x61, 0x9d, 0xa5, 0x83,
  0xb7, 0xca, 0xb3, 0xb8, 0xa3, 0x61, 0x7f, 0xb1, 0x7c, 0xba, 0x0f, 0x76, 0xc7, 0x26, 0xb1, 0x74,
  0xaf, 0x4c, 0xf7, 0xe8, 0x7b, 0x56, 0x25, 0x8c, 0xb9, 0x87, 0xa1, 0x9c, 0xab, 0x23, 0x25, 0x00,
  0x40, 0x5c, 0x53, 0x49, 0x36, 0xff, 0xff, 0xff, 0x04, 0x00, 0x00, 0x00, 0x08, 0x00, 0x00, 0x00,
  0x2e, 0x08, 0x00, 0x00, 0xf9, 0xf7, 0xff, 0xff, 0x4a, 0xff, 0xff, 0xff, 0x04, 0x00, 0x00, 0x00,
  0x08, 0x00, 0x00, 0x00, 0x01, 0x00, 0x00, 0x00, 0x02, 0x00, 0x00, 0x00, 0x80, 0xec, 0xff, 0xff,
  0x84, 0xec, 0xff, 0xff, 0x0f, 0x00, 0x00, 0x00, 0x4d, 0x4c, 0x49, 0x52, 0x20, 0x43, 0x6f, 0x6e,
  0x76, 0x65, 0x72, 0x74, 0x65, 0x64, 0x2e, 0x00, 0x01, 0x00, 0x00, 0x00, 0x14, 0x00, 0x00, 0x00,
  0x00, 0x00, 0x0e, 0x00, 0x18, 0x00, 0x14, 0x00, 0x10, 0x00, 0x0c, 0x00, 0x08, 0x00, 0x04, 0x00,
  0x0e, 0x00, 0x00, 0x00, 0x14, 0x00, 0x00, 0x00, 0x1c, 0x00, 0x00, 0x00, 0x00, 0x02, 0x00, 0x00,
  0x04, 0x02, 0x00, 0x00, 0x08, 0x02, 0x00, 0x00, 0x04, 0x00, 0x00, 0x00, 0x6d, 0x61, 0x69, 0x6e,
  0x00, 0x00, 0x00, 0x00, 0x07, 0x00, 0x00, 0x00, 0x9c, 0x01, 0x00, 0x00, 0x4c, 0x01, 0x00, 0x00,
  0x0c, 0x01, 0x00, 0x00, 0xcc, 0x00, 0x00, 0x00, 0x98, 0x00, 0x00, 0x00, 0x50, 0x00, 0x00, 0x00,
  0x14, 0x00, 0x00, 0x00, 0x00, 0x00, 0x0e, 0x00, 0x1a, 0x00, 0x14, 0x00, 0x10, 0x00, 0x0c, 0x00,
  0x0b, 0x00, 0x04, 0x00, 0x0e, 0x00, 0x00, 0x00, 0x1c, 0x00, 0x00, 0x00, 0x00, 0x00, 0x00, 0x09,
  0x1c, 0x00, 0x00, 0x00, 0x20, 0x00, 0x00, 0x00, 0x03, 0x00, 0x00, 0x00, 0x00, 0x00, 0x06, 0x00,
  0x08, 0x00, 0x04, 0x00, 0x06, 0x00, 0x00, 0x00, 0x00, 0x00, 0x80, 0x3f, 0x01, 0x00, 0x00, 0x00,
  0x12, 0x00, 0x00, 0x00, 0x01, 0x00, 0x00, 0x00, 0x11, 0x00, 0x00, 0x00, 0xca, 0xff, 0xff, 0xff,
  0x14, 0x00, 0x00, 0x00, 0x00, 0x00, 0x00, 0x08, 0x10, 0x00, 0x00, 0x00, 0x14, 0x00, 0x00, 0x00,
  0x02, 0x00, 0x00, 0x00, 0x58, 0xed, 0xff, 0xff, 0x01, 0x00, 0x00, 0x00, 0x11, 0x00, 0x00, 0x00,
  0x03, 0x00, 0x00, 0x00, 0x10, 0x00, 0x00, 0x00, 0x03, 0x00, 0x00, 0x00, 0x02, 0x00, 0x00, 0x00,
  0x00, 0x00, 0x0e, 0x00, 0x18, 0x00, 0x14, 0x00, 0x10, 0x00, 0x0c, 0x00, 0x0b, 0x00, 0x04, 0x00,
  0x0e, 0x00, 0x00, 0x00, 0x14, 0x00, 0x00, 0x00, 0x00, 0x00, 0x00, 0x1b, 0x10, 0x00, 0x00, 0x00,
  0x14, 0x00, 0x00, 0x00, 0x01, 0x00, 0x00, 0x00, 0x9c, 0xed, 0xff, 0xff, 0x01, 0x00, 0x00, 0x00,
  0x10, 0x00, 0x00, 0x00, 0x02, 0x00, 0x00, 0x00, 0x0f, 0x00, 0x00, 0x00, 0x01, 0x00, 0x00, 0x00,
  0x4a, 0xff, 0xff, 0xff, 0x10, 0x00, 0x00, 0x00, 0x00, 0x00, 0x00, 0x01, 0x18, 0x00, 0x00, 0x00,
  0x1c, 0x00, 0x00, 0x00, 0x3c, 0xff, 0xff, 0xff, 0x00, 0x00, 0x00, 0x01, 0x02, 0x00, 0x00, 0x00,
  0x02, 0x00, 0x00, 0x00, 0x01, 0x00, 0x00, 0x00, 0x0f, 0x00, 0x00, 0x00, 0x03, 0x00, 0x00, 0x00,
  0x0e, 0x00, 0x00, 0x00, 0x05, 0x00, 0x00, 0x00, 0x04, 0x00, 0x00, 0x00, 0x86, 0xff, 0xff, 0xff,
  0x10, 0x00, 0x00, 0x00, 0x00, 0x00, 0x00, 0x01, 0x18, 0x00, 0x00, 0x00, 0x1c, 0x00, 0x00, 0x00,
  0x78, 0xff, 0xff, 0xff, 0x00, 0x00, 0x00, 0x01, 0x02, 0x00, 0x00, 0x00, 0x02, 0x00, 0x00, 0x00,
  0x01, 0x00, 0x00, 0x00, 0x0e, 0x00, 0x00, 0x00, 0x03, 0x00, 0x00, 0x00, 0x0d, 0x00, 0x00, 0x00,
  0x07, 0x00, 0x00, 0x00, 0x06, 0x00, 0x00, 0x00, 0xc2, 0xff, 0xff, 0xff, 0x10, 0x00, 0x00, 0x00,
  0x00, 0x00, 0x00, 0x01, 0x18, 0x00, 0x00, 0x00, 0x1c, 0x00, 0x00, 0x00, 0xb4, 0xff, 0xff, 0xff,
  0x00, 0x00, 0x00, 0x01, 0x02, 0x00, 0x00, 0x00, 0x02, 0x00, 0x00, 0x00, 0x01, 0x00, 0x00, 0x00,
  0x0d, 0x00, 0x00, 0x00, 0x03, 0x00, 0x00, 0x00, 0x0c, 0x00, 0x00, 0x00, 0x09, 0x00, 0x00, 0x00,
  0x08, 0x00, 0x00, 0x00, 0x00, 0x00, 0x0e, 0x00, 0x14, 0x00, 0x00, 0x00, 0x10, 0x00, 0x0c, 0x00,
  0x0b, 0x00, 0x04, 0x00, 0x0e, 0x00, 0x00, 0x00, 0x1c, 0x00, 0x00, 0x00, 0x00, 0x00, 0x00, 0x01,
  0x24, 0x00, 0x00, 0x00, 0x28, 0x00, 0x00, 0x00, 0x0c, 0x00, 0x10, 0x00, 0x00, 0x00, 0x0c, 0x00,
  0x08, 0x00, 0x07, 0x00, 0x0c, 0x00, 0x00, 0x00, 0x00, 0x00, 0x00, 0x01, 0x02, 0x00, 0x00, 0x00,
  0x02, 0x00, 0x00, 0x00, 0x01, 0x00, 0x00, 0x00, 0x0c, 0x00, 0x00, 0x00, 0x03, 0x00, 0x00, 0x00,
  0x00, 0x00, 0x00, 0x00, 0x0b, 0x00, 0x00, 0x00, 0x0a, 0x00, 0x00, 0x00, 0x01, 0x00, 0x00, 0x00,
  0x12, 0x00, 0x00, 0x00, 0x01, 0x00, 0x00, 0x00, 0x00, 0x00, 0x00, 0x00, 0x13, 0x00, 0x00, 0x00,
  0x68, 0x11, 0x00, 0x00, 0x0c, 0x11, 0x00, 0x00, 0x84, 0x10, 0x00, 0x00, 0x10, 0x10, 0x00, 0x00,
  0x3c, 0x0e, 0x00, 0x00, 0x58, 0x0c, 0x00, 0x00, 0xe4, 0x0a, 0x00, 0x00, 0x60, 0x09, 0x00, 0x00,
  0x4c, 0x08, 0x00, 0x00, 0x28, 0x07, 0x00, 0x00, 0x74, 0x06, 0x00, 0x00, 0xb0, 0x05, 0x00, 0x00,
  0xac, 0x04, 0x00, 0x00, 0xa8, 0x03, 0x00, 0x00, 0xa4, 0x02, 0x00, 0x00, 0xa0, 0x01, 0x00, 0x00,
  0x24, 0x01, 0x00, 0x00, 0x80, 0x00, 0x00, 0x00, 0x04, 0x00, 0x00, 0x00, 0xfa, 0xee, 0xff, 0xff,
  0x00, 0x00, 0x00, 0x01, 0x18, 0x00, 0x00, 0x00, 0x20, 0x00, 0x00, 0x00, 0x3c, 0x00, 0x00, 0x00,
  0x13, 0x00, 0x00, 0x00, 0x00, 0x00, 0x00, 0x09, 0x50, 0x00, 0x00, 0x00, 0x02, 0x00, 0x00, 0x00,
  0xff, 0xff, 0xff, 0xff, 0x02, 0x00, 0x00, 0x00, 0xdc, 0xee, 0xff, 0xff, 0x08, 0x00, 0x00, 0x00,
  0x10, 0x00, 0x00, 0x00, 0x01, 0x00, 0x00, 0x00, 0x80, 0xff, 0xff, 0xff, 0xff, 0xff, 0xff, 0xff,
  0x01, 0x00, 0x00, 0x00, 0x00, 0x00, 0x80, 0x3b, 0x1b, 0x00, 0x00, 0x00, 0x53, 0x74, 0x61, 0x74,
  0x65, 0x66, 0x75, 0x6c, 0x50, 0x61, 0x72, 0x74, 0x69, 0x74, 0x69, 0x6f, 0x6e, 0x65, 0x64, 0x43,
  0x61, 0x6c, 0x6c, 0x5f, 0x31, 0x3a, 0x30, 0x00, 0x02, 0x00, 0x00, 0x00, 0x01, 0x00, 0x00, 0x00,
  0x02, 0x00, 0x00, 0x00, 0x72, 0xef, 0xff, 0xff, 0x00, 0x00, 0x00, 0x01, 0x18, 0x00, 0x00, 0x00,
  0x20, 0x00, 0x00, 0x00, 0x3c, 0x00, 0x00, 0x00, 0x12, 0x00, 0x00, 0x00, 0x00, 0x00, 0x00, 0x09,
  0x78, 0x00, 0x00, 0x00, 0x02, 0x00, 0x00, 0x00, 0xff, 0xff, 0xff, 0xff, 0x02, 0x00, 0x00, 0x00,
  0x54, 0xef, 0xff, 0xff, 0x08, 0x00, 0x00, 0x00, 0x10, 0x00, 0x00, 0x00, 0x01, 0x00, 0x00, 0x00,
  0xfd, 0xff, 0xff, 0xff, 0xff, 0xff, 0xff, 0xff, 0x01, 0x00, 0x00, 0x00, 0xc5, 0x60, 0x97, 0x3d,
  0x42, 0x00, 0x00, 0x00, 0x50, 0x65, 0x72, 0x73, 0x6f, 0x6e, 0x44, 0x65, 0x74, 0x65, 0x63, 0x74,
  0x6f, 0x72, 0x5f, 0x31, 0x2f, 0x6f, 0x75, 0x74, 0x70, 0x75, 0x74, 0x5f, 0x31, 0x2f, 0x4d, 0x61,
  0x74, 0x4d, 0x75, 0x6c, 0x3b, 0x50, 0x65, 0x72, 0x73, 0x6f, 0x6e, 0x44, 0x65, 0x74, 0x65, 0x63,
  0x74, 0x6f, 0x72, 0x5f, 0x31, 0x2f, 0x6f, 0x75, 0x74, 0x70, 0x75, 0x74, 0x5f, 0x31, 0x2f, 0x42,
  0x69, 0x61, 0x73, 0x41, 0x64, 0x64, 0x00, 0x00, 0x02, 0x00, 0x00, 0x00, 0x01, 0x00, 0x00, 0x00,
  0x02, 0x00, 0x00, 0x00, 0x12, 0xf0, 0xff, 0xff, 0x00, 0x00, 0x00, 0x01, 0x18, 0x00, 0x00, 0x00,
  0x20, 0x00, 0x00, 0x00, 0x3c, 0x00, 0x00, 0x00, 0x11, 0x00, 0x00, 0x00, 0x00, 0x00, 0x00, 0x09,
  0x50, 0x00, 0x00, 0x00, 0x02, 0x00, 0x00, 0x00, 0xff, 0xff, 0xff, 0xff, 0x20, 0x00, 0x00, 0x00,
  0xf4, 0xef, 0xff, 0xff, 0x08, 0x00, 0x00, 0x00, 0x10, 0x00, 0x00, 0x00, 0x01, 0x00, 0x00, 0x00,
  0x80, 0xff, 0xff, 0xff, 0xff, 0xff, 0xff, 0xff, 0x01, 0x00, 0x00, 0x00, 0xa7, 0xee, 0x09, 0x3c,
  0x1b, 0x00, 0x00, 0x00, 0x50, 0x65, 0x72, 0x73, 0x6f, 0x6e, 0x44, 0x65, 0x74, 0x65, 0x63, 0x74,
  0x6f, 0x72, 0x5f, 0x31, 0x2f, 0x67, 0x61, 0x70, 0x5f, 0x31, 0x2f, 0x4d, 0x65, 0x61, 0x6e, 0x00,
  0x02, 0x00, 0x00, 0x00, 0x01, 0x00, 0x00, 0x00, 0x20, 0x00, 0x00, 0x00, 0x8a, 0xf0, 0xff, 0xff,
  0x00, 0x00, 0x00, 0x01, 0x18, 0x00, 0x00, 0x00, 0x28, 0x00, 0x00, 0x00, 0x48, 0x00, 0x00, 0x00,
  0x10, 0x00, 0x00, 0x00, 0x00, 0x00, 0x00, 0x09, 0xd0, 0x00, 0x00, 0x00, 0x04, 0x00, 0x00, 0x00,
  0xff, 0xff, 0xff, 0xff, 0x06, 0x00, 0x00, 0x00, 0x06, 0x00, 0x00, 0x00, 0x20, 0x00, 0x00, 0x00,
  0x74, 0xf0, 0xff, 0xff, 0x08, 0x00, 0x00, 0x00, 0x14, 0x00, 0x00, 0x00, 0x01, 0x00, 0x00, 0x00,
  0x80, 0xff, 0xff, 0xff, 0xff, 0xff, 0xff, 0xff, 0x00, 0x00, 0x00, 0x00, 0x01, 0x00, 0x00, 0x00,
  0x04, 0xe4, 0x17, 0x3d, 0x8e, 0x00, 0x00, 0x00, 0x50, 0x65, 0x72, 0x73, 0x6f, 0x6e, 0x44, 0x65,
  0x74, 0x65, 0x63, 0x74, 0x6f, 0x72, 0x5f, 0x31, 0x2f, 0x72, 0x65, 0x6c, 0x75, 0x34, 0x5f, 0x31,
  0x2f, 0x52, 0x65, 0x6c, 0x75, 0x3b, 0x50, 0x65, 0x72, 0x73, 0x6f, 0x6e, 0x44, 0x65, 0x74, 0x65,
  0x63, 0x74, 0x6f, 0x72, 0x5f, 0x31, 0x2f, 0x62, 0x6e, 0x34, 0x5f, 0x31, 0x2f, 0x62, 0x61, 0x74,
  0x63, 0x68, 0x6e, 0x6f, 0x72, 0x6d, 0x2f, 0x61, 0x64, 0x64, 0x5f, 0x31, 0x3b, 0x50, 0x65, 0x72,
  0x73, 0x6f, 0x6e, 0x44, 0x65, 0x74, 0x65, 0x63, 0x74, 0x6f, 0x72, 0x5f, 0x31, 0x2f, 0x63, 0x6f,
  0x6e, 0x76, 0x34, 0x5f, 0x31, 0x2f, 0x63, 0x6f, 0x6e, 0x76, 0x6f, 0x6c, 0x75, 0x74, 0x69, 0x6f,
  0x6e, 0x3b, 0x50, 0x65, 0x72, 0x73, 0x6f, 0x6e, 0x44, 0x65, 0x74, 0x65, 0x63, 0x74, 0x6f, 0x72,
  0x5f, 0x31, 0x2f, 0x62, 0x6e, 0x34, 0x5f, 0x31, 0x2f, 0x62, 0x61, 0x74, 0x63, 0x68, 0x6e, 0x6f,
  0x72, 0x6d, 0x2f, 0x73, 0x75, 0x62, 0x00, 0x00, 0x04, 0x00, 0x00, 0x00, 0x01, 0x00, 0x00, 0x00,
  0x06, 0x00, 0x00, 0x00, 0x06, 0x00, 0x00, 0x00, 0x20, 0x00, 0x00, 0x00, 0x8a, 0xf1, 0xff, 0xff,
  0x00, 0x00, 0x00, 0x01, 0x18, 0x00, 0x00, 0x00, 0x28, 0x00, 0x00, 0x00, 0x48, 0x00, 0x00, 0x00,
  0x0f, 0x00, 0x00, 0x00, 0x00, 0x00, 0x00, 0x09, 0xd0, 0x00, 0x00, 0x00, 0x04, 0x00, 0x00, 0x00,
  0xff, 0xff, 0xff, 0xff, 0x0c, 0x00, 0x00, 0x00, 0x0c, 0x00, 0x00, 0x00, 0x18, 0x00, 0x00, 0x00,
  0x74, 0xf1, 0xff, 0xff, 0x08, 0x00, 0x00, 0x00, 0x14, 0x00, 0x00, 0x00, 0x01, 0x00, 0x00, 0x00,
  0x80, 0xff, 0xff, 0xff, 0xff, 0xff, 0xff, 0xff, 0x00, 0x00, 0x00, 0x00, 0x01, 0x00, 0x00, 0x00,
  0xde, 0x54, 0xd3, 0x3c, 0x8e, 0x00, 0x00, 0x00, 0x50, 0x65, 0x72, 0x73, 0x6f, 0x6e, 0x44, 0x65,
  0x74, 0x65, 0x63, 0x74, 0x6f, 0x72, 0x5f, 0x31, 0x2f, 0x72, 0x65, 0x6c, 0x75, 0x33, 0x5f, 0x31,
  0x2f, 0x52, 0x65, 0x6c, 0x75, 0x3b, 0x50, 0x65, 0x72, 0x73, 0x6f, 0x6e, 0x44, 0x65, 0x74, 0x65,
  0x63, 0x74, 0x6f, 0x72, 0x5f, 0x31, 0x2f, 0x62, 0x6e, 0x33, 0x5f, 0x31, 0x2f, 0x62, 0x61, 0x74,
  0x63, 0x68, 0x6e, 0x6f, 0x72, 0x6d, 0x2f, 0x61, 0x64, 0x64, 0x5f, 0x31, 0x3b, 0x50, 0x65, 0x72,
  0x73, 0x6f, 0x6e, 0x44, 0x65, 0x74, 0x65, 0x63, 0x74, 0x6f, 0x72, 0x5f, 0x31, 0x2f, 0x63, 0x6f,
  0x6e, 0x76, 0x33, 0x5f, 0x31, 0x2f, 0x63, 0x6f, 0x6e, 0x76, 0x6f, 0x6c, 0x75, 0x74, 0x69, 0x6f,
  0x6e, 0x3b, 0x50, 0x65, 0x72, 0x73, 0x6f, 0x6e, 0x44, 0x65, 0x74, 0x65, 0x63, 0x74, 0x6f, 0x72,
  0x5f, 0x31, 0x2f, 0x62, 0x6e, 0x33, 0x5f, 0x31, 0x2f, 0x62, 0x61, 0x74, 0x63, 0x68, 0x6e, 0x6f,
  0x72, 0x6d, 0x2f, 0x73, 0x75, 0x62, 0x00, 0x00, 0x04, 0x00, 0x00, 0x00, 0x01, 0x00, 0x00, 0x00,
  0x0c, 0x00, 0x00, 0x00, 0x0c, 0x00, 0x00, 0x00, 0x18, 0x00, 0x00, 0x00, 0x8a, 0xf2, 0xff, 0xff,
  0x00, 0x00, 0x00, 0x01, 0x18, 0x00, 0x00, 0x00, 0x28, 0x00, 0x00, 0x00, 0x48, 0x00, 0x00, 0x00,
  0x0e, 0x00, 0x00, 0x00, 0x00, 0x00, 0x00, 0x09, 0xd0, 0x00, 0x00, 0x00, 0x04, 0x00, 0x00, 0x00,
  0xff, 0xff, 0xff, 0xff, 0x18, 0x00, 0x00, 0x00, 0x18, 0x00, 0x00, 0x00, 0x10, 0x00, 0x00, 0x00,
  0x74, 0xf2, 0xff, 0xff, 0x08, 0x00, 0x00, 0x00, 0x14, 0x00, 0x00, 0x00, 0x01, 0x00, 0x00, 0x00,
  0x80, 0xff, 0xff, 0xff, 0xff, 0xff, 0xff, 0xff, 0x00, 0x00, 0x00, 0x00, 0x01, 0x00, 0x00, 0x00,
  0xc7, 0x8a, 0x35, 0x3d, 0x8e, 0x00, 0x00, 0x00, 0x50, 0x65, 0x72, 0x73, 0x6f, 0x6e, 0x44, 0x65,
  0x74, 0x65, 0x63, 0x74, 0x6f, 0x72, 0x5f, 0x31, 0x2f, 0x72, 0x65, 0x6c, 0x75, 0x32, 0x5f, 0x31,
  0x2f, 0x52, 0x65, 0x6c, 0x75, 0x3b, 0x50, 0x65, 0x72, 0x73, 0x6f, 0x6e, 0x44, 0x65, 0x74, 0x65,
  0x63, 0x74, 0x6f, 0x72, 0x5f, 0x31, 0x2f, 0x62, 0x6e, 0x32, 0x5f, 0x31, 0x2f, 0x62, 0x61, 0x74,
  0x63, 0x68, 0x6e, 0x6f, 0x72, 0x6d, 0x2f, 0x61, 0x64, 0x64, 0x5f, 0x31, 0x3b, 0x50, 0x65, 0x72,
  0x73, 0x6f, 0x6e, 0x44, 0x65, 0x74, 0x65, 0x63, 0x74, 0x6f, 0x72, 0x5f, 0x31, 0x2f, 0x63, 0x6f,
  0x6e, 0x76, 0x32, 0x5f, 0x31, 0x2f, 0x63, 0x6f, 0x6e, 0x76, 0x6f, 0x6c, 0x75, 0x74, 0x69, 0x6f,
  0x6e, 0x3b, 0x50, 0x65, 0x72, 0x73, 0x6f, 0x6e, 0x44, 0x65, 0x74, 0x65, 0x63, 0x74, 0x6f, 0x72,
  0x5f, 0x31, 0x2f, 0x62, 0x6e, 0x32, 0x5f, 0x31, 0x2f, 0x62, 0x61, 0x74, 0x63, 0x68, 0x6e, 0x6f,
  0x72, 0x6d, 0x2f, 0x73, 0x75, 0x62, 0x00, 0x00, 0x04, 0x00, 0x00, 0x00, 0x01, 0x00, 0x00, 0x00,
  0x18, 0x00, 0x00, 0x00, 0x18, 0x00, 0x00, 0x00, 0x10, 0x00, 0x00, 0x00, 0x8a, 0xf3, 0xff, 0xff,
  0x00, 0x00, 0x00, 0x01, 0x18, 0x00, 0x00, 0x00, 0x28, 0x00, 0x00, 0x00, 0x48, 0x00, 0x00, 0x00,
  0x0d, 0x00, 0x00, 0x00, 0x00, 0x00, 0x00, 0x09, 0xd0, 0x00, 0x00, 0x00, 0x04, 0x00, 0x00, 0x00,
  0xff, 0xff, 0xff, 0xff, 0x30, 0x00, 0x00, 0x00, 0x30, 0x00, 0x00, 0x00, 0x08, 0x00, 0x00, 0x00,
  0x74, 0xf3, 0xff, 0xff, 0x08, 0x00, 0x00, 0x00, 0x14, 0x00, 0x00, 0x00, 0x01, 0x00, 0x00, 0x00,
  0x80, 0xff, 0xff, 0xff, 0xff, 0xff, 0xff, 0xff, 0x00, 0x00, 0x00, 0x00, 0x01, 0x00, 0x00, 0x00,
  0xdc, 0xc3, 0x3f, 0x3d, 0x8f, 0x00, 0x00, 0x00, 0x50, 0x65, 0x72, 0x73, 0x6f, 0x6e, 0x44, 0x65,
  0x74, 0x65, 0x63, 0x74, 0x6f, 0x72, 0x5f, 0x31, 0x2f, 0x72, 0x65, 0x6c, 0x75, 0x31, 0x5f, 0x31,
  0x2f, 0x52, 0x65, 0x6c, 0x75, 0x3b, 0x50, 0x65, 0x72, 0x73, 0x6f, 0x6e, 0x44, 0x65, 0x74, 0x65,
  0x63, 0x74, 0x6f, 0x72, 0x5f, 0x31, 0x2f, 0x62, 0x6e, 0x31, 0x5f, 0x31, 0x2f, 0x62, 0x61, 0x74,
  0x63, 0x68, 0x6e, 0x6f, 0x72, 0x6d, 0x2f, 0x61, 0x64, 0x64, 0x5f, 0x31, 0x3b, 0x50, 0x65, 0x72,
  0x73, 0x6f, 0x6e, 0x44, 0x65, 0x74, 0x65, 0x63, 0x74, 0x6f, 0x72, 0x5f, 0x31, 0x2f, 0x63, 0x6f,
  0x6e, 0x76, 0x31, 0x5f, 0x31, 0x2f, 0x63, 0x6f, 0x6e, 0x76, 0x6f, 0x6c, 0x75, 0x74, 0x69, 0x6f,
  0x6e, 0x3b, 0x50, 0x65, 0x72, 0x73, 0x6f, 0x6e, 0x44, 0x65, 0x74, 0x65, 0x63, 0x74, 0x6f, 0x72,
  0x5f, 0x31, 0x2f, 0x62, 0x6e, 0x31, 0x5f, 0x31, 0x2f, 0x62, 0x61, 0x74, 0x63, 0x68, 0x6e, 0x6f,
  0x72, 0x6d, 0x2f, 0x73, 0x75, 0x62, 0x31, 0x00, 0x04, 0x00, 0x00, 0x00, 0x01, 0x00, 0x00, 0x00,
  0x30, 0x00, 0x00, 0x00, 0x30, 0x00, 0x00, 0x00, 0x08, 0x00, 0x00, 0x00, 0xe2, 0xf4, 0xff, 0xff,
  0x00, 0x00, 0x00, 0x01, 0x14, 0x00, 0x00, 0x00, 0x88, 0x00, 0x00, 0x00, 0x0c, 0x00, 0x00, 0x00,
  0x00, 0x00, 0x00, 0x09, 0x94, 0x00, 0x00, 0x00, 0x5c, 0xf4, 0xff, 0xff, 0x08, 0x00, 0x00, 0x00,
  0x4c, 0x00, 0x00, 0x00, 0x08, 0x00, 0x00, 0x00, 0x00, 0x00, 0x00, 0x00, 0x00, 0x00, 0x00, 0x00,
  0x00, 0x00, 0x00, 0x00, 0x00, 0x00, 0x00, 0x00, 0x00, 0x00, 0x00, 0x00, 0x00, 0x00, 0x00, 0x00,
  0x00, 0x00, 0x00, 0x00, 0x00, 0x00, 0x00, 0x00, 0x00, 0x00, 0x00, 0x00, 0x00, 0x00, 0x00, 0x00,
  0x00, 0x00, 0x00, 0x00, 0x00, 0x00, 0x00, 0x00, 0x00, 0x00, 0x00, 0x00, 0x00, 0x00, 0x00, 0x00,
  0x00, 0x00, 0x00, 0x00, 0x00, 0x00, 0x00, 0x00, 0x00, 0x00, 0x00, 0x00, 0x08, 0x00, 0x00, 0x00,
  0xb3, 0xb4, 0x0f, 0x3d, 0x2d, 0xac, 0x21, 0x3d, 0x0b, 0x5a, 0x3f, 0x3d, 0xda, 0xe0, 0x07, 0x3d,
  0x2c, 0x72, 0x96, 0x3c, 0x85, 0x5d, 0x93, 0x3c, 0x88, 0x79, 0x86, 0x3c, 0x4f, 0xfd, 0x21, 0x3d,
  0x12, 0x00, 0x00, 0x00, 0x74, 0x66, 0x6c, 0x2e, 0x70, 0x73, 0x65, 0x75, 0x64, 0x6f, 0x5f, 0x71,
  0x63, 0x6f, 0x6e, 0x73, 0x74, 0x39, 0x00, 0x00, 0x04, 0x00, 0x00, 0x00, 0x08, 0x00, 0x00, 0x00,
  0x03, 0x00, 0x00, 0x00, 0x03, 0x00, 0x00, 0x00, 0x01, 0x00, 0x00, 0x00, 0xa2, 0xf5, 0xff, 0xff,
  0x00, 0x00, 0x00, 0x01, 0x14, 0x00, 0x00, 0x00, 0x84, 0x00, 0x00, 0x00, 0x0b, 0x00, 0x00, 0x00,
  0x00, 0x00, 0x00, 0x02, 0x90, 0x00, 0x00, 0x00, 0x1c, 0xf5, 0xff, 0xff, 0x08, 0x00, 0x00, 0x00,
  0x48, 0x00, 0x00, 0x00, 0x08, 0x00, 0x00, 0x00, 0x00, 0x00, 0x00, 0x00, 0x00, 0x00, 0x00, 0x00,
  0x00, 0x00, 0x00, 0x00, 0x00, 0x00, 0x00, 0x00, 0x00, 0x00, 0x00, 0x00, 0x00, 0x00, 0x00, 0x00,
  0x00, 0x00, 0x00, 0x00, 0x00, 0x00, 0x00, 0x00, 0x00, 0x00, 0x00, 0x00, 0x00, 0x00, 0x00, 0x00,
  0x00, 0x00, 0x00, 0x00, 0x00, 0x00, 0x00, 0x00, 0x00, 0x00, 0x00, 0x00, 0x00, 0x00, 0x00, 0x00,
  0x00, 0x00, 0x00, 0x00, 0x00, 0x00, 0x00, 0x00, 0x08, 0x00, 0x00, 0x00, 0xf9, 0x44, 0x10, 0x39,
  0x7c, 0x4e, 0x22, 0x39, 0x26, 0x1a, 0x40, 0x39, 0x44, 0x69, 0x08, 0x39, 0x36, 0x09, 0x97, 0x38,
  0x77, 0xf1, 0x93, 0x38, 0x89, 0x00, 0x87, 0x38, 0xf0, 0x9f, 0x22, 0x39, 0x12, 0x00, 0x00, 0x00,
  0x74, 0x66, 0x6c, 0x2e, 0x70, 0x73, 0x65, 0x75, 0x64, 0x6f, 0x5f, 0x71, 0x63, 0x6f, 0x6e, 0x73,
  0x74, 0x38, 0x00, 0x00, 0x01, 0x00, 0x00, 0x00, 0x08, 0x00, 0x00, 0x00, 0x52, 0xf6, 0xff, 0xff,
  0x00, 0x00, 0x00, 0x01, 0x14, 0x00, 0x00, 0x00, 0xe8, 0x00, 0x00, 0x00, 0x0a, 0x00, 0x00, 0x00,
  0x00, 0x00, 0x00, 0x09, 0xf4, 0x00, 0x00, 0x00, 0xcc, 0xf5, 0xff, 0xff, 0x08, 0x00, 0x00, 0x00,
  0x8c, 0x00, 0x00, 0x00, 0x10, 0x00, 0x00, 0x00, 0x00, 0x00, 0x00, 0x00, 0x00, 0x00, 0x00, 0x00,
  0x00, 0x00, 0x00, 0x00, 0x00, 0x00, 0x00, 0x00, 0x00, 0x00, 0x00, 0x00, 0x00, 0x00, 0x00, 0x00,
  0x00, 0x00, 0x00, 0x00, 0x00, 0x00, 0x00, 0x00, 0x00, 0x00, 0x00, 0x00, 0x00, 0x00, 0x00, 0x00,
  0x00, 0x00, 0x00, 0x00, 0x00, 0x00, 0x00, 0x00, 0x00, 0x00, 0x00, 0x00, 0x00, 0x00, 0x00, 0x00,
  0x00, 0x00, 0x00, 0x00, 0x00, 0x00, 0x00, 0x00, 0x00, 0x00, 0x00, 0x00, 0x00, 0x00, 0x00, 0x00,
  0x00, 0x00, 0x00, 0x00, 0x00, 0x00, 0x00, 0x00, 0x00, 0x00, 0x00, 0x00, 0x00, 0x00, 0x00, 0x00,
  0x00, 0x00, 0x00, 0x00, 0x00, 0x00, 0x00, 0x00, 0x00, 0x00, 0x00, 0x00, 0x00, 0x00, 0x00, 0x00,
  0x00, 0x00, 0x00, 0x00, 0x00, 0x00, 0x00, 0x00, 0x00, 0x00, 0x00, 0x00, 0x00, 0x00, 0x00, 0x00,
  0x00, 0x00, 0x00, 0x00, 0x00, 0x00, 0x00, 0x00, 0x00, 0x00, 0x00, 0x00, 0x10, 0x00, 0x00, 0x00,
  0xa4, 0x9e, 0x3b, 0x3b, 0x8c, 0x24, 0x68, 0x3b, 0xd6, 0xb3, 0x76, 0x3b, 0x4b, 0x63, 0x83, 0x3b,
  0xe7, 0xd0, 0x8c, 0x3b, 0xc9, 0x41, 0x9e, 0x3b, 0xef, 0x2b, 0xce, 0x3b, 0x18, 0x3b, 0x4e, 0x3b,
  0xf0, 0x2a, 0x7c, 0x3b, 0x6b, 0x74, 0x35, 0x3b, 0xbb, 0x37, 0x80, 0x3b, 0x08, 0x64, 0x42, 0x3b,
  0x36, 0xb2, 0x97, 0x3b, 0xb4, 0x8a, 0x54, 0x3b, 0x7d, 0xfa, 0x7e, 0x3b, 0xec, 0xc0, 0x83, 0x3b,
  0x12, 0x00, 0x00, 0x00, 0x74, 0x66, 0x6c, 0x2e, 0x70, 0x73, 0x65, 0x75, 0x64, 0x6f, 0x5f, 0x71,
  0x63, 0x6f, 0x6e, 0x73, 0x74, 0x37, 0x00, 0x00, 0x04, 0x00, 0x00, 0x00, 0x10, 0x00, 0x00, 0x00,
  0x03, 0x00, 0x00, 0x00, 0x03, 0x00, 0x00, 0x00, 0x08, 0x00, 0x00, 0x00, 0x72, 0xf7, 0xff, 0xff,
  0x00, 0x00, 0x00, 0x01, 0x14, 0x00, 0x00, 0x00, 0xe4, 0x00, 0x00, 0x00, 0x09, 0x00, 0x00, 0x00,
  0x00, 0x00, 0x00, 0x02, 0xf0, 0x00, 0x00, 0x00, 0xec, 0xf6, 0xff, 0xff, 0x08, 0x00, 0x00, 0x00,
  0x88, 0x00, 0x00, 0x00, 0x10, 0x00, 0x00, 0x00, 0x00, 0x00, 0x00, 0x00, 0x00, 0x00, 0x00, 0x00,
  0x00, 0x00, 0x00, 0x00, 0x00, 0x00, 0x00, 0x00, 0x00, 0x00, 0x00, 0x00, 0x00, 0x00, 0x00, 0x00,
  0x00, 0x00, 0x00, 0x00, 0x00, 0x00, 0x00, 0x00, 0x00, 0x00, 0x00, 0x00, 0x00, 0x00, 0x00, 0x00,
  0x00, 0x00, 0x00, 0x00, 0x00, 0x00, 0x00, 0x00, 0x00, 0x00, 0x00, 0x00, 0x00, 0x00, 0x00, 0x00,
  0x00, 0x00, 0x00, 0x00, 0x00, 0x00, 0x00, 0x00, 0x00, 0x00, 0x00, 0x00, 0x00, 0x00, 0x00, 0x00,
  0x00, 0x00, 0x00, 0x00, 0x00, 0x00, 0x00, 0x00, 0x00, 0x00, 0x00, 0x00, 0x00, 0x00, 0x00, 0x00,
  0x00, 0x00, 0x00, 0x00, 0x00, 0x00, 0x00, 0x00, 0x00, 0x00, 0x00, 0x00, 0x00, 0x00, 0x00, 0x00,
  0x00, 0x00, 0x00, 0x00, 0x00, 0x00, 0x00, 0x00, 0x00, 0x00, 0x00, 0x00, 0x00, 0x00, 0x00, 0x00,
  0x00, 0x00, 0x00, 0x00, 0x00, 0x00, 0x00, 0x00, 0x10, 0x00, 0x00, 0x00, 0xe7, 0x8a, 0x0c, 0x39,
  0xe0, 0xe4, 0x2d, 0x39, 0xec, 0xcc, 0x38, 0x39, 0x35, 0xd7, 0x44, 0x39, 0x31, 0xf7, 0x52, 0x39,
  0x52, 0x18, 0x6d, 0x39, 0x84, 0x70, 0x9a, 0x39, 0xdf, 0x7b, 0x1a, 0x39, 0xf6, 0xe4, 0x3c, 0x39,
  0xaf, 0xec, 0x07, 0x39, 0x5a, 0x17, 0x40, 0x39, 0x5b, 0x9d, 0x11, 0x39, 0x0b, 0x44, 0x63, 0x39,
  0x19, 0x36, 0x1f, 0x39, 0xf7, 0xff, 0x3e, 0x39, 0x7b, 0x63, 0x45, 0x39, 0x12, 0x00, 0x00, 0x00,
  0x74, 0x66, 0x6c, 0x2e, 0x70, 0x73, 0x65, 0x75, 0x64, 0x6f, 0x5f, 0x71, 0x63, 0x6f, 0x6e, 0x73,
  0x74, 0x36, 0x00, 0x00, 0x01, 0x00, 0x00, 0x00, 0x10, 0x00, 0x00, 0x00, 0x82, 0xf8, 0xff, 0xff,
  0x00, 0x00, 0x00, 0x01, 0x14, 0x00, 0x00, 0x00, 0x48, 0x01, 0x00, 0x00, 0x08, 0x00, 0x00, 0x00,
  0x00, 0x00, 0x00, 0x09, 0x54, 0x01, 0x00, 0x00, 0xfc, 0xf7, 0xff, 0xff, 0x08, 0x00, 0x00, 0x00,
  0xcc, 0x00, 0x00, 0x00, 0x18, 0x00, 0x00, 0x00, 0x00, 0x00, 0x00, 0x00, 0x00, 0x00, 0x00, 0x00,
  0x00, 0x00, 0x00, 0x00, 0x00, 0x00, 0x00, 0x00, 0x00, 0x00, 0x00, 0x00, 0x00, 0x00, 0x00, 0x00,
  0x00, 0x00, 0x00, 0x00, 0x00, 0x00, 0x00, 0x00, 0x00, 0x00, 0x00, 0x00, 0x00, 0x00, 0x00, 0x00,
  0x00, 0x00, 0x00, 0x00, 0x00, 0x00, 0x00, 0x00, 0x00, 0x00, 0x00, 0x00, 0x00, 0x00, 0x00, 0x00,
  0x00, 0x00, 0x00, 0x00, 0x00, 0x00, 0x00, 0x00, 0x00, 0x00, 0x00, 0x00, 0x00, 0x00, 0x00, 0x00,
  0x00, 0x00, 0x00, 0x00, 0x00, 0x00, 0x00, 0x00, 0x00, 0x00, 0x00, 0x00, 0x00, 0x00, 0x00, 0x00,
  0x00, 0x00, 0x00, 0x00, 0x00, 0x00, 0x00, 0x00, 0x00, 0x00, 0x00, 0x00, 0x00, 0x00, 0x00, 0x00,
  0x00, 0x00, 0x00, 0x00, 0x00, 0x00, 0x00, 0x00, 0x00, 0x00, 0x00, 0x00, 0x00, 0x00, 0x00, 0x00,
  0x00, 0x00, 0x00, 0x00, 0x00, 0x00, 0x00, 0x00, 0x00, 0x00, 0x00, 0x00, 0x00, 0x00, 0x00, 0x00,
  0x00, 0x00, 0x00, 0x00, 0x00, 0x00, 0x00, 0x00, 0x00, 0x00, 0x00, 0x00, 0x00, 0x00, 0x00, 0x00,
  0x00, 0x00, 0x00, 0x00, 0x00, 0x00, 0x00, 0x00, 0x00, 0x00, 0x00, 0x00, 0x00, 0x00, 0x00, 0x00,
  0x00, 0x00, 0x00, 0x00, 0x00, 0x00, 0x00, 0x00, 0x00, 0x00, 0x00, 0x00, 0x00, 0x00, 0x00, 0x00,
  0x00, 0x00, 0x00, 0x00, 0x00, 0x00, 0x00, 0x00, 0x00, 0x00, 0x00, 0x00, 0x18, 0x00, 0x00, 0x00,
  0xf4, 0x30, 0x2f, 0x3b, 0xdb, 0x3b, 0x28, 0x3b, 0x95, 0xee, 0x86, 0x3b, 0x5b, 0x5b, 0x72, 0x3b,
  0x12, 0xe2, 0x54, 0x3b, 0x31, 0x93, 0x5b, 0x3b, 0x20, 0x75, 0x25, 0x3b, 0x94, 0xeb, 0x52, 0x3b,
  0x4e, 0x5d, 0x80, 0x3b, 0xdb, 0x2b, 0x47, 0x3b, 0x49, 0xa3, 0x61, 0x3b, 0x33, 0x0c, 0x45, 0x3b,
  0x25, 0xac, 0x5c, 0x3b, 0x5f, 0x18, 0x4f, 0x3b, 0x43, 0xba, 0x69, 0x3b, 0xc3, 0x21, 0x41, 0x3b,
  0xe2, 0xc4, 0x32, 0x3b, 0x97, 0x2c, 0x4c, 0x3b, 0xe5, 0x68, 0x15, 0x3b, 0xa2, 0x78, 0x7c, 0x3b,
  0x6b, 0xb7, 0x37, 0x3b, 0x58, 0xd6, 0x8c, 0x3b, 0x6f, 0x2a, 0x1d, 0x3b, 0xc2, 0xd4, 0x89, 0x3b,
  0x12, 0x00, 0x00, 0x00, 0x74, 0x66, 0x6c, 0x2e, 0x70, 0x73, 0x65, 0x75, 0x64, 0x6f, 0x5f, 0x71,
  0x63, 0x6f, 0x6e, 0x73, 0x74, 0x35, 0x00, 0x00, 0x04, 0x00, 0x00, 0x00, 0x18, 0x00, 0x00, 0x00,
  0x03, 0x00, 0x00, 0x00, 0x03, 0x00, 0x00, 0x00, 0x10, 0x00, 0x00, 0x00, 0x02, 0xfa, 0xff, 0xff,
  0x00, 0x00, 0x00, 0x01, 0x14, 0x00, 0x00, 0x00, 0x44, 0x01, 0x00, 0x00, 0x07, 0x00, 0x00, 0x00,
  0x00, 0x00, 0x00, 0x02, 0x50, 0x01, 0x00, 0x00, 0x7c, 0xf9, 0xff, 0xff, 0x08, 0x00, 0x00, 0x00,
  0xc8, 0x00, 0x00, 0x00, 0x18, 0x00, 0x00, 0x00, 0x00, 0x00, 0x00, 0x00, 0x00, 0x00, 0x00, 0x00,
  0x00, 0x00, 0x00, 0x00, 0x00, 0x00, 0x00, 0x00, 0x00, 0x00, 0x00, 0x00, 0x00, 0x00, 0x00, 0x00,
  0x00, 0x00, 0x00, 0x00, 0x00, 0x00, 0x00, 0x00, 0x00, 0x00, 0x00, 0x00, 0x00, 0x00, 0x00, 0x00,
  0x00, 0x00, 0x00, 0x00, 0x00, 0x00, 0x00, 0x00, 0x00, 0x00, 0x00, 0x00, 0x00, 0x00, 0x00, 0x00,
  0x00, 0x00, 0x00, 0x00, 0x00, 0x00, 0x00, 0x00, 0x00, 0x00, 0x00, 0x00, 0x00, 0x00, 0x00, 0x00,
  0x00, 0x00, 0x00, 0x00, 0x00, 0x00, 0x00, 0x00, 0x00, 0x00, 0x00, 0x00, 0x00, 0x00, 0x00, 0x00,
  0x00, 0x00, 0x00, 0x00, 0x00, 0x00, 0x00, 0x00, 0x00, 0x00, 0x00, 0x00, 0x00, 0x00, 0x00, 0x00,
  0x00, 0x00, 0x00, 0x00, 0x00, 0x00, 0x00, 0x00, 0x00, 0x00, 0x00, 0x00, 0x00, 0x00, 0x00, 0x00,
  0x00, 0x00, 0x00, 0x00, 0x00, 0x00, 0x00, 0x00, 0x00, 0x00, 0x00, 0x00, 0x00, 0x00, 0x00, 0x00,
  0x00, 0x00, 0x00, 0x00, 0x00, 0x00, 0x00, 0x00, 0x00, 0x00, 0x00, 0x00, 0x00, 0x00, 0x00, 0x00,
  0x00, 0x00, 0x00, 0x00, 0x00, 0x00, 0x00, 0x00, 0x00, 0x00, 0x00, 0x00, 0x00, 0x00, 0x00, 0x00,
  0x00, 0x00, 0x00, 0x00, 0x00, 0x00, 0x00, 0x00, 0x00, 0x00, 0x00, 0x00, 0x00, 0x00, 0x00, 0x00,
