// Auto-generated TFLite model header
// Model: stage_b_int8.tflite
// Size: 26152 bytes (25.54 KB)

#ifndef STAGE_B_MODEL_H
#define STAGE_B_MODEL_H

#include <Arduino.h>

alignas(8) const unsigned char stage_b_model[] = {
  0x1c, 0x00, 0x00, 0x00, 0x54, 0x46, 0x4c, 0x33, 0x14, 0x00, 0x20, 0x00, 0x1c, 0x00, 0x18, 0x00,
  0x14, 0x00, 0x10, 0x00, 0x0c, 0x00, 0x00, 0x00, 0x08, 0x00, 0x04, 0x00, 0x14, 0x00, 0x00, 0x00,
  0x1c, 0x00, 0x00, 0x00, 0x90, 0x00, 0x00, 0x00, 0xe8, 0x00, 0x00, 0x00, 0x5c, 0x31, 0x00, 0x00,
  0x6c, 0x31, 0x00, 0x00, 0x80, 0x65, 0x00, 0x00, 0x03, 0x00, 0x00, 0x00, 0x01, 0x00, 0x00, 0x00,
  0x10, 0x00, 0x00, 0x00, 0x00, 0x00, 0x0a, 0x00, 0x10, 0x00, 0x0c, 0x00, 0x08, 0x00, 0x04, 0x00,
  0x0a, 0x00, 0x00, 0x00, 0x0c, 0x00, 0x00, 0x00, 0x1c, 0x00, 0x00, 0x00, 0x3c, 0x00, 0x00, 0x00,
  0x0f, 0x00, 0x00, 0x00, 0x73, 0x65, 0x72, 0x76, 0x69, 0x6e, 0x67, 0x5f, 0x64, 0x65, 0x66, 0x61,
  0x75, 0x6c, 0x74, 0x00, 0x01, 0x00, 0x00, 0x00, 0x04, 0x00, 0x00, 0x00, 0x98, 0xff, 0xff, 0xff,
  0x1e, 0x00, 0x00, 0x00, 0x04, 0x00, 0x00, 0x00, 0x08, 0x00, 0x00, 0x00, 0x6f, 0x75, 0x74, 0x70,
  0x75, 0x74, 0x5f, 0x30, 0x00, 0x00, 0x00, 0x00, 0x01, 0x00, 0x00, 0x00, 0x04, 0x00, 0x00, 0x00,
  0x7e, 0xce, 0xff, 0xff, 0x04, 0x00, 0x00, 0x00, 0x05, 0x00, 0x00, 0x00, 0x69, 0x6e, 0x70, 0x75,
  0x74, 0x00, 0x00, 0x00, 0x02, 0x00, 0x00, 0x00, 0x34, 0x00, 0x00, 0x00, 0x04, 0x00, 0x00, 0x00,
  0xdc, 0xff, 0xff, 0xff, 0x21, 0x00, 0x00, 0x00, 0x04, 0x00, 0x00, 0x00, 0x13, 0x00, 0x00, 0x00,
  0x43, 0x4f, 0x4e, 0x56, 0x45, 0x52, 0x53, 0x49, 0x4f, 0x4e, 0x5f, 0x4d, 0x45, 0x54, 0x41, 0x44,
  0x41, 0x54, 0x41, 0x00, 0x08, 0x00, 0x0c, 0x00, 0x08, 0x00, 0x04, 0x00, 0x08, 0x00, 0x00, 0x00,
  0x20, 0x00, 0x00, 0x00, 0x04, 0x00, 0x00, 0x00, 0x13, 0x00, 0x00, 0x00, 0x6d, 0x69, 0x6e, 0x5f,
  0x72, 0x75, 0x6e, 0x74, 0x69, 0x6d, 0x65, 0x5f, 0x76, 0x65, 0x72, 0x73, 0x69, 0x6f, 0x6e, 0x00,
  0x22, 0x00, 0x00, 0x00, 0x70, 0x30, 0x00, 0x00, 0x68, 0x30, 0x00, 0x00, 0x50, 0x30, 0x00, 0x00,
  0x2c, 0x30, 0x00, 0x00, 0xdc, 0x2e, 0x00, 0x00, 0xcc, 0x2d, 0x00, 0x00, 0xbc, 0x1d, 0x00, 0x00,
  0xac, 0x1c, 0x00, 0x00, 0x9c, 0x10, 0x00, 0x00, 0xcc, 0x0f, 0x00, 0x00, 0x0c, 0x0e, 0x00, 0x00,
  0x3c, 0x0d, 0x00, 0x00, 0x2c, 0x07, 0x00, 0x00, 0x9c, 0x06, 0x00, 0x00, 0x6c, 0x05, 0x00, 0x00,
  0xdc, 0x04, 0x00, 0x00, 0xcc, 0x02, 0x00, 0x00, 0x7c, 0x02, 0x00, 0x00, 0xdc, 0x01, 0x00, 0x00,
  0x8c, 0x01, 0x00, 0x00, 0xec, 0x00, 0x00, 0x00, 0xe4, 0x00, 0x00, 0x00, 0xdc, 0x00, 0x00, 0x00,
  0xd4, 0x00, 0x00, 0x00, 0xcc, 0x00, 0x00, 0x00, 0xc4, 0x00, 0x00, 0x00, 0xbc, 0x00, 0x00, 0x00,
  0xb4, 0x00, 0x00, 0x00, 0xac, 0x00, 0x00, 0x00, 0xa4, 0x00, 0x00, 0x00, 0x9c, 0x00, 0x00, 0x00,
  0x94, 0x00, 0x00, 0x00, 0x74, 0x00, 0x00, 0x00, 0x04, 0x00, 0x00, 0x00, 0x7a, 0xcf, 0xff, 0xff,
  0x04, 0x00, 0x00, 0x00, 0x60, 0x00, 0x00, 0x00, 0x0c, 0x00, 0x00, 0x00, 0x08, 0x00, 0x0e, 0x00,
  0x08, 0x00, 0x04, 0x00, 0x08, 0x00, 0x00, 0x00, 0x10, 0x00, 0x00, 0x00, 0x28, 0x00, 0x00, 0x00,
  0x00, 0x00, 0x06, 0x00, 0x08, 0x00, 0x04, 0x00, 0x06, 0x00, 0x00, 0x00, 0x04, 0x00, 0x00, 0x00,
  0x01, 0x00, 0x00, 0x00, 0xeb, 0x03, 0x00, 0x00, 0x0c, 0x00, 0x18, 0x00, 0x14, 0x00, 0x10, 0x00,
  0x0c, 0x00, 0x04, 0x00, 0x0c, 0x00, 0x00, 0x00, 0x60, 0x14, 0xbf, 0xe1, 0x98, 0xf7, 0x0b, 0x0f,
  0x02, 0x00, 0x00, 0x00, 0x02, 0x00, 0x00, 0x00, 0x04, 0x00, 0x00, 0x00, 0x06, 0x00, 0x00, 0x00,
  0x32, 0x2e, 0x32, 0x30, 0x2e, 0x30, 0x00, 0x00, 0xe6, 0xcf, 0xff, 0xff, 0x04, 0x00, 0x00, 0x00,
  0x10, 0x00, 0x00, 0x00, 0x31, 0x2e, 0x31, 0x34, 0x2e, 0x30, 0x00, 0x00, 0x00, 0x00, 0x00, 0x00,
  0x00, 0x00, 0x00, 0x00, 0x40, 0x9d, 0xff, 0xff, 0x44, 0x9d, 0xff, 0xff, 0x48, 0x9d, 0xff, 0xff,
  0x4c, 0x9d, 0xff, 0xff, 0x50, 0x9d, 0xff, 0xff, 0x54, 0x9d, 0xff, 0xff, 0x58, 0x9d, 0xff, 0xff,
  0x5c, 0x9d, 0xff, 0xff, 0x60, 0x9d, 0xff, 0xff, 0x64, 0x9d, 0xff, 0xff, 0x68, 0x9d, 0xff, 0xff,
  0x2e, 0xd0, 0xff, 0xff, 0x04, 0x00, 0x00, 0x00, 0x90, 0x00, 0x00, 0x00, 0x09, 0xf6, 0x34, 0xc8,
  0x81, 0xd2, 0xff, 0x0c, 0x2a, 0x4d, 0x1f, 0xa3, 0x7b, 0xea, 0x81, 0x57, 0x0c, 0x92, 0x33, 0xcc,
  0xab, 0x30, 0x81, 0xce, 0xfa, 0x9e, 0xec, 0x1c, 0xf0, 0xb4, 0x47, 0x24, 0xa3, 0x81, 0xb2, 0xff,
  0x97, 0xc7, 0x81, 0x10, 0x11, 0x0f, 0x73, 0x02, 0x54, 0xd7, 0x31, 0x01, 0x4e, 0x02, 0xf5, 0x7f,
  0x07, 0x37, 0x78, 0x7f, 0x07, 0x5d, 0xd9, 0x17, 0x59, 0x01, 0xfa, 0xd7, 0xda, 0xfb, 0xe9, 0x01,
  0x0b, 0x52, 0x7f, 0x44, 0x38, 0x32, 0x50, 0x0a, 0x3c, 0x7d, 0x1a, 0x81, 0x25, 0x7f, 0x14, 0xdd,
  0x22, 0x63, 0xd1, 0x56, 0xff, 0xd1, 0x0d, 0xf3, 0xad, 0x7f, 0x5c, 0x2e, 0x21, 0x7a, 0x2a, 0xf4,
  0x5d, 0x7f, 0xe3, 0xef, 0x1b, 0xc1, 0xd4, 0xc1, 0x34, 0xa3, 0xe9, 0xc8, 0x3d, 0x06, 0x23, 0x7f,
  0xbd, 0x7f, 0xfc, 0x43, 0x3a, 0x19, 0xee, 0xd6, 0xdc, 0x15, 0xc8, 0xaa, 0xee, 0x81, 0x96, 0xef,
  0xd2, 0xd8, 0x51, 0xaa, 0xe1, 0x1e, 0xde, 0x03, 0x60, 0x1f, 0x35, 0x7f, 0xca, 0xd0, 0xff, 0xff,
  0x04, 0x00, 0x00, 0x00, 0x40, 0x00, 0x00, 0x00, 0xa6, 0x38, 0x00, 0x00, 0x7f, 0x01, 0x00, 0x00,
  0x30, 0x9f, 0x00, 0x00, 0xbe, 0x80, 0x00, 0x00, 0x87, 0x0c, 0x00, 0x00, 0x5f, 0x86, 0xff, 0xff,
  0xf4, 0x3f, 0xff, 0xff, 0x98, 0xb7, 0xff, 0xff, 0x53, 0x64, 0xff, 0xff, 0x0c, 0x8c, 0xff, 0xff,
  0xe1, 0x48, 0xff, 0xff, 0x41, 0x02, 0x00, 0x00, 0x26, 0xeb, 0xff, 0xff, 0x49, 0xa3, 0xff, 0xff,
  0xba, 0xcd, 0x00, 0x00, 0xa2, 0xa3, 0xff, 0xff, 0x16, 0xd1, 0xff, 0xff, 0x04, 0x00, 0x00, 0x00,
  0x90, 0x00, 0x00, 0x00, 0x2f, 0x22, 0x15, 0x52, 0x51, 0x08, 0xef, 0x2b, 0xb8, 0x81, 0x81, 0x18,
  0xa5, 0x7f, 0xa5, 0x40, 0x93, 0x0a, 0x36, 0xe7, 0x40, 0x13, 0x5e, 0x07, 0xea, 0xd0, 0xe8, 0x71,
  0xd9, 0xa0, 0xfc, 0xbc, 0x81, 0xf6, 0xe0, 0x81, 0x60, 0x6f, 0x49, 0x4c, 0xb6, 0xd9, 0x30, 0x65,
  0xe4, 0x14, 0xa0, 0xe0, 0x33, 0x1d, 0x2c, 0x5c, 0x7f, 0xc2, 0x95, 0x49, 0xe5, 0x0a, 0x41, 0x11,
  0x7f, 0x97, 0xe7, 0x0f, 0xaa, 0x2c, 0x7f, 0x2b, 0x57, 0xd1, 0x11, 0x5d, 0x40, 0x2b, 0xd6, 0x38,
  0xdd, 0xbb, 0xfb, 0xa5, 0x26, 0x1f, 0x3c, 0xd6, 0x29, 0xfc, 0x7f, 0xea, 0x7f, 0x0f, 0xf3, 0x15,
  0x47, 0x0e, 0xf5, 0x18, 0x15, 0x40, 0x1f, 0x4e, 0x3b, 0x46, 0xe6, 0x81, 0x4a, 0xbd, 0x68, 0x81,
  0x23, 0xb0, 0xf3, 0xbd, 0xc1, 0x4a, 0x9d, 0x14, 0x0b, 0xd7, 0x2a, 0x99, 0x44, 0xd8, 0xd8, 0xb7,
  0x9d, 0x05, 0x69, 0xa4, 0x9c, 0x7f, 0x03, 0x07, 0x28, 0x81, 0xcf, 0xaa, 0x78, 0x58, 0x34, 0xbf,
  0x09, 0xd0, 0x7f, 0x7f, 0xb2, 0xd1, 0xff, 0xff, 0x04, 0x00, 0x00, 0x00, 0x40, 0x00, 0x00, 0x00,
  0x37, 0x0a, 0x00, 0x00, 0x49, 0xff, 0xff, 0xff, 0x7d, 0xf6, 0xff, 0xff, 0x10, 0xfa, 0xff, 0xff,
  0x2b, 0xfe, 0xff, 0xff, 0x72, 0x02, 0x00, 0x00, 0x1b, 0xf8, 0xff, 0xff, 0x14, 0x02, 0x00, 0x00,
  0xce, 0xf2, 0xff, 0xff, 0x9a, 0x08, 0x00, 0x00, 0xd0, 0xff, 0xff, 0xff, 0xbc, 0xfc, 0xff, 0xff,
  0xee, 0xfe, 0xff, 0xff, 0xa6, 0x0a, 0x00, 0x00, 0x7c, 0x05, 0x00, 0x00, 0xdd, 0x02, 0x00, 0x00,
  0xfe, 0xd1, 0xff, 0xff, 0x04, 0x00, 0x00, 0x00, 0x00, 0x02, 0x00, 0x00, 0x40, 0x0b, 0x7f, 0x2e,
  0xf6, 0xa4, 0xb4, 0x01, 0xb4, 0x22, 0xf6, 0xad, 0x2a, 0xe7, 0x38, 0x57, 0xf0, 0x9a, 0x21, 0x81,
  0xb6, 0x2e, 0xc8, 0x04, 0xc7, 0xe1, 0xfb, 0x09, 0x01, 0xd8, 0xf3, 0x35, 0x2c, 0x96, 0x81, 0xa3,
  0xe0, 0xd8, 0x44, 0x13, 0xe4, 0xd7, 0xc3, 0xad, 0xff, 0xf2, 0x54, 0x0f, 0x44, 0xa7, 0x81, 0xa0,
  0x06, 0xe7, 0xd2, 0xf6, 0x87, 0x3e, 0xcc, 0x36, 0x07, 0x15, 0x4e, 0x3a, 0x2e, 0x0d, 0xc0, 0x81,
  0xf3, 0xd9, 0xdc, 0x9c, 0x2d, 0xf2, 0xd6, 0xb1, 0xfa, 0xc8, 0x43, 0xd3, 0x7f, 0x0f, 0x6f, 0xa8,
  0x34, 0x23, 0x65, 0xcb, 0x92, 0xac, 0xe0, 0x59, 0xa1, 0x22, 0x27, 0xfd, 0x38, 0x2c, 0x1f, 0xff,
  0xfe, 0xba, 0x42, 0xc4, 0xe9, 0x81, 0xf1, 0x2d, 0x22, 0x8e, 0x41, 0x1f, 0x2a, 0x0b, 0x7f, 0x43,
  0xfb, 0xb8, 0x3c, 0x30, 0xce, 0xbf, 0x0d, 0xac, 0x74, 0x0e, 0xb6, 0xdc, 0xb7, 0x10, 0xfe, 0x40,
  0xdb, 0x3c, 0xcf, 0x81, 0xf0, 0x1b, 0x18, 0x67, 0x0f, 0xa1, 0xe3, 0x5a, 0xd2, 0x15, 0x1e, 0x47,
  0x7f, 0x03, 0xbc, 0x47, 0x0d, 0xab, 0x25, 0x11, 0x10, 0x0a, 0x50, 0x27, 0x81, 0x87, 0x0d, 0xf2,
  0x39, 0x3b, 0xc4, 0x28, 0x05, 0x20, 0x13, 0xf4, 0xec, 0xd3, 0x61, 0xac, 0xce, 0xc2, 0x23, 0xab,
  0x3b, 0x03, 0x81, 0x99, 0x37, 0xff, 0x15, 0x5b, 0xb6, 0xd7, 0x96, 0x0f, 0xb5, 0x57, 0x7f, 0xae,
  0xe1, 0x20, 0x0e, 0x03, 0xa7, 0x25, 0x75, 0x03, 0xc6, 0x0f, 0x22, 0xb7, 0xcd, 0x2c, 0x5a, 0x08,
  0x81, 0x31, 0x99, 0x52, 0x75, 0x43, 0x53, 0x6f, 0x35, 0x2f, 0xf2, 0x5b, 0xe4, 0x38, 0x4f, 0x3e,
  0xd0, 0x7f, 0x0e, 0xdd, 0x46, 0xb2, 0x0a, 0x48, 0xfb, 0xe7, 0xbb, 0xc7, 0x07, 0x49, 0x81, 0xc9,
  0x42, 0xd7, 0x29, 0xd4, 0xe4, 0xf3, 0xb0, 0x3a, 0x97, 0x96, 0x0b, 0x1d, 0x28, 0xc7, 0x7f, 0x23,
  0xce, 0xe1, 0xc8, 0x93, 0x46, 0xcd, 0xbe, 0x3e, 0xc6, 0x6a, 0x2f, 0x0d, 0x58, 0xd6, 0x8d, 0x81,
  0xd2, 0x2e, 0x30, 0x75, 0xf0, 0x4f, 0x33, 0x20, 0x17, 0xab, 0xb7, 0x03, 0x1d, 0x04, 0x44, 0x7f,
  0x4d, 0x01, 0xf7, 0x08, 0xa5, 0xf3, 0xe3, 0x57, 0xff, 0x14, 0x24, 0x09, 0xec, 0xe6, 0x30, 0x81,
  0x29, 0xda, 0x2b, 0x9d, 0x08, 0x7e, 0x17, 0x8e, 0x23, 0x8c, 0xf2, 0xf0, 0x52, 0x4f, 0xf8, 0xde,
  0x36, 0x3c, 0x9a, 0x4d, 0x81, 0x29, 0xc8, 0xfb, 0x08, 0x59, 0x4f, 0xbe, 0x59, 0x60, 0x45, 0x68,
  0xcd, 0xbf, 0x19, 0xf4, 0x55, 0x9a, 0x37, 0x13, 0x28, 0x81, 0xef, 0x05, 0x2c, 0x50, 0xd2, 0x41,
  0x1d, 0x45, 0x2a, 0x81, 0xce, 0x01, 0x02, 0x4b, 0xd9, 0xe3, 0xd4, 0x02, 0xc0, 0xe7, 0x0c, 0xed,
  0xd1, 0x30, 0xdd, 0x0e, 0x20, 0xd4, 0x30, 0x05, 0xdb, 0xc7, 0x7f, 0x0d, 0xe1, 0xc7, 0x45, 0xd0,
  0x4f, 0x81, 0xfd, 0xc3, 0x22, 0xe6, 0xf8, 0x38, 0xff, 0xf4, 0x4a, 0xf7, 0xeb, 0x19, 0xe3, 0x2a,
  0xbf, 0xbf, 0x32, 0x0a, 0xe8, 0xe1, 0xaa, 0x81, 0xc2, 0xee, 0xc9, 0xb5, 0x00, 0xfd, 0x02, 0xed,
  0x7f, 0xc0, 0xd5, 0xfd, 0x47, 0xc6, 0xb7, 0xee, 0x25, 0x50, 0xe8, 0xf4, 0x2e, 0xb4, 0x20, 0x1b,
  0x7f, 0x1c, 0x16, 0xf0, 0xfc, 0xf3, 0xe0, 0x59, 0xd7, 0x5a, 0xdd, 0xdf, 0xd1, 0xf8, 0xcf, 0x0d,
  0x81, 0x20, 0x06, 0x4e, 0xc5, 0xe4, 0xa7, 0x31, 0x21, 0xdf, 0x45, 0xff, 0xc4, 0x95, 0xe2, 0xfd,
  0xc0, 0x42, 0x5d, 0xb0, 0x9b, 0x52, 0x15, 0x3a, 0xe5, 0x42, 0x81, 0xe0, 0x3d, 0x7f, 0x1e, 0x44,
  0xae, 0xdb, 0x38, 0x24, 0xe9, 0x9f, 0xa4, 0xdd, 0x05, 0xeb, 0x0d, 0x4c, 0x8b, 0x81, 0xec, 0x93,
  0x43, 0xdf, 0xbb, 0x19, 0x15, 0xfd, 0x26, 0x4b, 0x19, 0xdd, 0xf5, 0x0e, 0x0a, 0xd4, 0xff, 0xff,
  0x04, 0x00, 0x00, 0x00, 0x80, 0x00, 0x00, 0x00, 0x06, 0xfd, 0xff, 0xff, 0xcb, 0x0c, 0x00, 0x00,
  0x87, 0x09, 0x00, 0x00, 0x28, 0x03, 0x00, 0x00, 0x20, 0x0f, 0x00, 0x00, 0xd0, 0xfb, 0xff, 0xff,
  0x45, 0x01, 0x00, 0x00, 0x45, 0xfd, 0xff, 0xff, 0xcf, 0x03, 0x00, 0x00, 0xbb, 0xfb, 0xff, 0xff,
  0xe3, 0x05, 0x00, 0x00, 0x86, 0x0f, 0x00, 0x00, 0x2b, 0xfd, 0xff, 0xff, 0xf1, 0xf5, 0xff, 0xff,
  0x3a, 0xff, 0xff, 0xff, 0xcf, 0x03, 0x00, 0x00, 0x23, 0xfc, 0xff, 0xff, 0x0a, 0x02, 0x00, 0x00,
  0xf8, 0xf8, 0xff, 0xff, 0x1b, 0x0b, 0x00, 0x00, 0x67, 0xfb, 0xff, 0xff, 0x58, 0xff, 0xff, 0xff,
  0x3a, 0xfd, 0xff, 0xff, 0x17, 0x00, 0x00, 0x00, 0x19, 0xfd, 0xff, 0xff, 0xe8, 0x09, 0x00, 0x00,
  0x51, 0x02, 0x00, 0x00, 0x0d, 0xfa, 0xff, 0xff, 0x77, 0x05, 0x00, 0x00, 0x82, 0x07, 0x00, 0x00,
  0x11, 0xfe, 0xff, 0xff, 0x1f, 0x0a, 0x00, 0x00, 0x96, 0xd4, 0xff, 0xff, 0x04, 0x00, 0x00, 0x00,
  0x20, 0x01, 0x00, 0x00, 0x81, 0xca, 0x62, 0x21, 0x09, 0xe0, 0x5e, 0x93, 0x9a, 0x37, 0x7c, 0x7f,
  0x81, 0xde, 0x15, 0xf4, 0xbb, 0x32, 0xe6, 0x4f, 0x29, 0x40, 0xe4, 0x20, 0x2a, 0xf9, 0xf2, 0x65,
  0x82, 0xcd, 0x2f, 0x34, 0x5c, 0x4b, 0x7f, 0xc5, 0xb2, 0x0f, 0x22, 0xc0, 0xc9, 0x17, 0x7f, 0x23,
  0x89, 0x20, 0x6a, 0xfd, 0xef, 0x1a, 0x55, 0x27, 0x7f, 0x56, 0xd1, 0x34, 0x44, 0x2d, 0x98, 0x64,
  0xba, 0xf9, 0x23, 0x1b, 0x3a, 0xf0, 0x7a, 0xc7, 0x1c, 0x89, 0x7f, 0xf0, 0xf1, 0x2a, 0x3d, 0x7d,
  0xb2, 0x81, 0xe9, 0x17, 0xe4, 0xdb, 0x44, 0x77, 0xec, 0x06, 0xd2, 0x05, 0x8a, 0x24, 0xce, 0x68,
  0xdf, 0x0e, 0x50, 0x1f, 0xcb, 0x81, 0x08, 0xaf, 0xfc, 0x10, 0x2c, 0x07, 0x81, 0x11, 0x6c, 0xb6,
  0xcd, 0x1c, 0x00, 0x20, 0x4f, 0x7f, 0xd9, 0x32, 0xa6, 0x1b, 0x95, 0x29, 0x5a, 0xe8, 0xe8, 0xf2,
  0x81, 0x91, 0x05, 0x53, 0xdd, 0x6c, 0x0a, 0xfa, 0x28, 0x4b, 0xd8, 0x81, 0xb4, 0x29, 0x65, 0x97,
  0xaa, 0x1a, 0x61, 0xf1, 0x43, 0xf7, 0x45, 0x18, 0x33, 0x4a, 0xec, 0x3e, 0x1e, 0x01, 0x8b, 0xc0,
  0xb6, 0xde, 0x5d, 0x6c, 0xfb, 0x10, 0x3d, 0x7f, 0x3a, 0x7f, 0x32, 0xc3, 0xfd, 0x33, 0x6e, 0xa5,
  0xbd, 0x40, 0x23, 0xd7, 0x4a, 0xf7, 0x68, 0x7f, 0x4e, 0x7f, 0x23, 0x05, 0x81, 0x20, 0x81, 0x4c,
  0xfc, 0x19, 0x36, 0x1b, 0x4c, 0x4e, 0x0c, 0x3a, 0x26, 0xbe, 0x03, 0x51, 0xa9, 0xa4, 0xe1, 0x21,
  0x09, 0xc8, 0x81, 0x12, 0x7a, 0x76, 0x08, 0x9d, 0x45, 0xde, 0x2c, 0x81, 0x41, 0x20, 0x27, 0xbf,
  0x8b, 0xdc, 0x82, 0x42, 0x30, 0x81, 0xd2, 0xf3, 0x6b, 0x97, 0xf1, 0x39, 0x9f, 0xa6, 0xd7, 0x1f,
  0x33, 0xc3, 0xe5, 0xa5, 0x7f, 0x68, 0x81, 0x1f, 0x04, 0xb2, 0x7f, 0x0d, 0xd9, 0x81, 0xe8, 0xc5,
  0xd0, 0x81, 0xc9, 0x7f, 0xee, 0xee, 0xf8, 0x18, 0x7f, 0x88, 0xde, 0xf1, 0xeb, 0x81, 0xd1, 0x06,
  0x3e, 0xe0, 0x29, 0x81, 0x10, 0x18, 0x02, 0x1a, 0x36, 0xb7, 0x1b, 0xf8, 0xbb, 0x39, 0x31, 0x81,
  0xfc, 0xda, 0x81, 0x40, 0xc2, 0xd5, 0xff, 0xff, 0x04, 0x00, 0x00, 0x00, 0x80, 0x00, 0x00, 0x00,
  0x57, 0xfe, 0xff, 0xff, 0xa9, 0x00, 0x00, 0x00, 0x45, 0xf3, 0xff, 0xff, 0xd1, 0xfd, 0xff, 0xff,
  0xe4, 0xf3, 0xff, 0xff, 0x0c, 0xff, 0xff, 0xff, 0xc4, 0xf6, 0xff, 0xff, 0x6c, 0x06, 0x00, 0x00,
  0xb1, 0x17, 0x00, 0x00, 0xc0, 0xff, 0xff, 0xff, 0x03, 0xf3, 0xff, 0xff, 0xe3, 0xfb, 0xff, 0xff,
  0x74, 0x09, 0x00, 0x00, 0xf0, 0xff, 0xff, 0xff, 0x58, 0xf9, 0xff, 0xff, 0x01, 0x05, 0x00, 0x00,
  0x5e, 0xfc, 0xff, 0xff, 0xe8, 0xf3, 0xff, 0xff, 0x83, 0xfa, 0xff, 0xff, 0xa3, 0xf0, 0xff, 0xff,
  0x40, 0xf4, 0xff, 0xff, 0xf4, 0xf7, 0xff, 0xff, 0x6a, 0xff, 0xff, 0xff, 0xda, 0xff, 0xff, 0xff,
  0xf2, 0xff, 0xff, 0xff, 0xe6, 0xfe, 0xff, 0xff, 0x8d, 0x0b, 0x00, 0x00, 0xe3, 0xfd, 0xff, 0xff,
  0x2c, 0x1a, 0x00, 0x00, 0x9d, 0x09, 0x00, 0x00, 0xeb, 0x00, 0x00, 0x00, 0xaf, 0xf1, 0xff, 0xff,
  0x4e, 0xd6, 0xff, 0xff, 0x04, 0x00, 0x00, 0x00, 0x00, 0x06, 0x00, 0x00, 0x81, 0x2b, 0xee, 0x2e,
  0x29, 0x9f, 0xda, 0x0b, 0x38, 0xb8, 0xab, 0x07, 0x93, 0x24, 0xb6, 0x20, 0xb4, 0xa1, 0x39, 0x10,
  0x35, 0x11, 0xaa, 0x03, 0x9b, 0x04, 0xd8, 0xf7, 0x70, 0xf1, 0x23, 0x0c, 0x2c, 0x1f, 0xed, 0xde,
  0x1d, 0xf1, 0xd5, 0xf2, 0x03, 0xe3, 0x25, 0xcc, 0xb1, 0x1c, 0x42, 0x0b, 0x02, 0xb9, 0x24, 0x16,
  0x9b, 0x1a, 0xc2, 0x2d, 0xf3, 0x00, 0xe6, 0xcf, 0x63, 0x2b, 0x20, 0x81, 0x40, 0xd3, 0x34, 0xee,
  0x1e, 0x73, 0x35, 0x58, 0xd9, 0x6c, 0xf7, 0x1c, 0x67, 0xf3, 0xbe, 0x98, 0xfd, 0xcf, 0x5e, 0x28,
  0x26, 0x66, 0xc2, 0x7f, 0xeb, 0x17, 0x8c, 0xcf, 0x24, 0x48, 0x39, 0x6c, 0xc8, 0xcf, 0xec, 0x03,
  0x08, 0xb0, 0xe5, 0x12, 0xe4, 0x13, 0xbe, 0xf4, 0x81, 0x05, 0x24, 0xe9, 0xe9, 0xdf, 0x15, 0xfa,
  0xd4, 0xb2, 0xf0, 0x34, 0x0f, 0x13, 0x10, 0xf0, 0x07, 0xab, 0x5d, 0x18, 0x0d, 0x46, 0xbe, 0x13,
  0xbc, 0xfd, 0xc7, 0x10, 0xca, 0x88, 0x41, 0xe7, 0x0f, 0xc3, 0x00, 0x81, 0x33, 0x37, 0x54, 0xda,
  0x1d, 0xf6, 0x3a, 0x39, 0xf4, 0x97, 0x1f, 0xbf, 0x02, 0x57, 0x41, 0x44, 0x28, 0xe4, 0x1f, 0x5a,
  0xb1, 0x0d, 0xf1, 0x31, 0xd7, 0x81, 0x29, 0x2c, 0xd4, 0xd8, 0x28, 0x9b, 0x18, 0x1d, 0x48, 0x16,
  0x37, 0x19, 0x26, 0xcf, 0xe2, 0x24, 0x18, 0xfd, 0xf3, 0x0c, 0xce, 0xcf, 0x0e, 0xc7, 0x50, 0x30,
  0xb6, 0xea, 0x42, 0x2d, 0x08, 0x0d, 0xe2, 0xfc, 0x19, 0xe1, 0xda, 0xea, 0xfc, 0x0d, 0xd7, 0xe7,
  0x1f, 0xd6, 0x07, 0xdb, 0x05, 0x51, 0x67, 0xef, 0x01, 0xbe, 0x16, 0x81, 0xd4, 0x1a, 0x45, 0x81,
  0x42, 0x30, 0x09, 0xab, 0xf7, 0x11, 0x56, 0xcc, 0x2e, 0x0c, 0xcd, 0x54, 0x5e, 0xdf, 0x68, 0x30,
  0x11, 0xc0, 0xd7, 0x5b, 0x01, 0x1a, 0x3f, 0xd5, 0xd2, 0xc0, 0xea, 0xc6, 0x1d, 0x03, 0xc9, 0x15,
  0x2f, 0x26, 0x04, 0xff, 0x4a, 0x64, 0x21, 0x20, 0x07, 0xfd, 0xef, 0x05, 0xd1, 0xa9, 0xd3, 0x16,
  0x1d, 0xf4, 0x93, 0x81, 0x14, 0x08, 0x8c, 0xe5, 0x13, 0xcb, 0x40, 0xff, 0x1d, 0xfe, 0x44, 0xe8,
  0x40, 0x68, 0x29, 0x0d, 0x6d, 0x1b, 0x10, 0x25, 0xed, 0xf5, 0xea, 0x56, 0x8d, 0x11, 0xea, 0xe5,
  0x27, 0xc7, 0x2e, 0xfa, 0x79, 0xe4, 0x46, 0xab, 0x81, 0xd2, 0x24, 0x12, 0xea, 0x1a, 0x53, 0xb7,
  0x0b, 0x5f, 0x04, 0x1d, 0xbe, 0x0e, 0xef, 0xdd, 0xf9, 0xf5, 0x3d, 0x13, 0xd1, 0xe3, 0x58, 0xde,
  0x50, 0x05, 0xb2, 0x7f, 0x25, 0x35, 0x9c, 0x9b, 0xa9, 0xba, 0x5b, 0x10, 0x22, 0xb0, 0xd7, 0x5d,
  0x52, 0xa8, 0xf6, 0xe2, 0x1d, 0x52, 0xeb, 0x9b, 0x91, 0xe6, 0x0b, 0xad, 0xf5, 0xa8, 0x01, 0xf1,
  0x06, 0xf9, 0x4e, 0x18, 0x26, 0xe6, 0x81, 0x53, 0x15, 0x3b, 0x0c, 0x9a, 0xac, 0xab, 0xe9, 0x0e,
  0x3f, 0xaf, 0xf1, 0x14, 0x1f, 0x7f, 0x04, 0x28, 0xd6, 0xed, 0x24, 0xea, 0x36, 0x04, 0xf9, 0xfb,
  0xfb, 0xed, 0xaa, 0xf9, 0x07, 0xb4, 0x04, 0x41, 0xd6, 0x01, 0x11, 0xdc, 0x13, 0x0f, 0xee, 0x07,
  0xde, 0xfa, 0xf6, 0x4b, 0xd0, 0xd4, 0xb8, 0x1d, 0x81, 0x5f, 0x38, 0x29, 0xce, 0x0a, 0x2d, 0xe4,
  0xce, 0xd9, 0xba, 0x27, 0xf7, 0xf4, 0xd5, 0xe9, 0x2d, 0xd7, 0x55, 0xec, 0xe7, 0x04, 0x29, 0xad,
  0x1a, 0xbc, 0x3c, 0x6d, 0xc5, 0xea, 0x81, 0xd9, 0x47, 0x7e, 0xd5, 0xfe, 0xd4, 0xd7, 0x1c, 0x2e,
  0x6f, 0xbc, 0x18, 0x52, 0x48, 0x11, 0xda, 0x47, 0x15, 0x17, 0xf5, 0xd0, 0xe2, 0xd3, 0x46, 0x3d,
  0xa7, 0x11, 0x6d, 0x14, 0x8e, 0x78, 0x72, 0x2d, 0x5d, 0x52, 0x41, 0x1e, 0x45, 0x14, 0x3d, 0x2a,
  0x7f, 0x11, 0xf0, 0xc9, 0x16, 0xdc, 0xeb, 0x79, 0xf5, 0x0a, 0xec, 0x2d, 0xf9, 0xac, 0xe2, 0x3e,
  0x0f, 0xf0, 0x2b, 0xef, 0xed, 0xa5, 0x96, 0x24, 0xe6, 0x29, 0x86, 0xca, 0xc7, 0x34, 0x6a, 0x81,
  0x22, 0xe0, 0xf8, 0xfa, 0x30, 0xdb, 0x12, 0x29, 0x37, 0x64, 0x19, 0xba, 0xcf, 0xed, 0xef, 0xf1,
  0x07, 0xa4, 0x25, 0xfe, 0x50, 0xd9, 0x2a, 0xed, 0xec, 0xc6, 0x37, 0x91, 0x0f, 0xde, 0x66, 0x3a,
  0x81, 0xbe, 0xff, 0x0e, 0x65, 0x4c, 0x3b, 0xb9, 0x32, 0xb9, 0x27, 0x31, 0x9e, 0x31, 0xde, 0xea,
  0x0b, 0xda, 0xde, 0x9e, 0xd4, 0x2d, 0xde, 0xe0, 0x88, 0x50, 0x03, 0x25, 0xcf, 0x23, 0x77, 0x40,
  0x7f, 0x02, 0x09, 0x4b, 0xd5, 0x28, 0x3a, 0xe3, 0x20, 0x84, 0xb6, 0x21, 0xff, 0x20, 0xe9, 0xf0,
  0x35, 0x40, 0x09, 0x4d, 0x45, 0x3a, 0x23, 0x4e, 0x45, 0xfe, 0xd7, 0xb6, 0xc6, 0xf7, 0xbe, 0x12,
  0x3e, 0xb5, 0xa9, 0x81, 0x12, 0x09, 0xca, 0x2b, 0x14, 0xf6, 0xc3, 0xa0, 0xab, 0x45, 0x81, 0xe7,
  0x0a, 0xf1, 0xc5, 0xd9, 0x1a, 0xb4, 0xb3, 0xbf, 0xbb, 0x18, 0x5f, 0x0a, 0xc4, 0x26, 0x4d, 0x2a,
  0xbc, 0xba, 0xae, 0xe2, 0x07, 0x20, 0xeb, 0x8c, 0xfe, 0x4a, 0xaf, 0xd8, 0x19, 0xb4, 0x03, 0x50,
  0xf2, 0xbd, 0x05, 0x0b, 0xfe, 0x87, 0xd8, 0xec, 0xd9, 0x2e, 0x4e, 0x3c, 0x12, 0x19, 0xde, 0xb5,
  0x39, 0x6a, 0x52, 0xd7, 0x19, 0xd2, 0xd6, 0x7f, 0xc0, 0xbd, 0x02, 0xef, 0x16, 0xb9, 0xdf, 0x35,
  0xef, 0x0f, 0xb5, 0x2f, 0xe3, 0xe9, 0x25, 0x7f, 0x17, 0x33, 0x39, 0xfa, 0xee, 0xe7, 0xd0, 0xdb,
  0x01, 0xe8, 0xe7, 0x2b, 0x1c, 0xf0, 0xae, 0xf2, 0xe3, 0x22, 0x52, 0x0d, 0x14, 0x24, 0x89, 0x32,
  0x2e, 0xb6, 0x9e, 0x01, 0xf2, 0xe2, 0x28, 0x0d, 0xb9, 0xbf, 0x97, 0xeb, 0xff, 0x07, 0xde, 0xbd,
  0x02, 0x37, 0x0c, 0x02, 0xd6, 0x00, 0xea, 0x33, 0x61, 0x2b, 0x7f, 0xf3, 0x81, 0xeb, 0xc5, 0x1d,
  0x25, 0x03, 0x4e, 0x10, 0x5b, 0x0e, 0xe7, 0xff, 0xb2, 0x55, 0x25, 0xe2, 0x1c, 0x06, 0xd7, 0x69,
  0xe2, 0x1e, 0x1d, 0x1c, 0x30, 0xec, 0x9f, 0xd1, 0x55, 0x1b, 0x59, 0x25, 0xfc, 0x19, 0x92, 0xe2,
  0x5d, 0x5c, 0x34, 0xd3, 0x7f, 0xe0, 0x0f, 0x3c, 0xf7, 0x40, 0x25, 0x2e, 0x23, 0xe8, 0x1d, 0xcb,
  0x3a, 0x1d, 0x47, 0x15, 0x0a, 0x04, 0xfb, 0xe7, 0xc9, 0xbc, 0x7a, 0x02, 0xe3, 0xbb, 0x2b, 0x27,
  0xda, 0x09, 0xc7, 0xe3, 0x81, 0x82, 0x4b, 0x2f, 0xe9, 0x3a, 0x10, 0xe0, 0xf5, 0x40, 0xbb, 0x95,
  0x1d, 0xd9, 0x02, 0x14, 0xf9, 0xd0, 0x84, 0x00, 0xc8, 0x00, 0xfe, 0x11, 0x24, 0x2d, 0x08, 0x08,
  0xb3, 0x1b, 0xf3, 0x7f, 0xfb, 0x0c, 0xa8, 0x21, 0x02, 0xc8, 0x1d, 0x12, 0x28, 0xc2, 0x07, 0xdd,
  0xdc, 0xfc, 0x36, 0x2f, 0x3b, 0x36, 0x1b, 0x0e, 0x2a, 0xd2, 0xc9, 0x06, 0xdf, 0x3f, 0xee, 0xe5,
  0xb2, 0x18, 0xec, 0xfa, 0xaf, 0x29, 0x18, 0xe2, 0xf9, 0x17, 0xc9, 0x0d, 0x46, 0xac, 0xfb, 0xfd,
  0xfb, 0x16, 0x2f, 0xea, 0x50, 0xa9, 0x18, 0xeb, 0xf6, 0x34, 0xb8, 0x7f, 0xcc, 0x25, 0x47, 0x2b,
  0x11, 0x18, 0xee, 0xdc, 0x3b, 0xe4, 0xb2, 0x08, 0xdf, 0x40, 0x3f, 0x1b, 0x2e, 0x02, 0x10, 0x3a,
  0x65, 0xd0, 0xd0, 0x62, 0x06, 0x18, 0x81, 0x02, 0xa0, 0x0f, 0xe8, 0x3e, 0xfe, 0xdc, 0x81, 0xb6,
  0xdd, 0xef, 0xe6, 0x0d, 0x0a, 0x0d, 0x06, 0xf5, 0xfa, 0x5a, 0xb1, 0x06, 0xb7, 0x09, 0x3f, 0x44,
  0xb3, 0x3e, 0x20, 0x19, 0xc6, 0x0f, 0x12, 0xb0, 0x61, 0xb1, 0xe9, 0xf5, 0xb9, 0xb5, 0x44, 0xf9,
  0x19, 0x3b, 0xee, 0x10, 0x7f, 0x17, 0x3b, 0x21, 0xdc, 0xe3, 0x2c, 0xdc, 0xf6, 0xce, 0x0c, 0xbf,
  0x16, 0x12, 0xd0, 0x00, 0xef, 0xbe, 0xca, 0x49, 0x34, 0xf1, 0x0e, 0x4d, 0xaf, 0x13, 0x32, 0x14,
  0xca, 0x36, 0xef, 0xde, 0xdd, 0xfe, 0xe3, 0x29, 0xde, 0x00, 0xb8, 0x81, 0x29, 0xf9, 0xd6, 0x1d,
  0x4d, 0xc8, 0xec, 0x26, 0xf9, 0xee, 0x0f, 0xf9, 0x9b, 0x0a, 0xe4, 0x52, 0xdf, 0x24, 0x38, 0xc6,
  0x2c, 0xe4, 0x94, 0xef, 0xfb, 0x07, 0x15, 0xfa, 0x9e, 0x00, 0x54, 0xda, 0x8d, 0xcf, 0x52, 0x02,
  0xe3, 0x29, 0xb9, 0xfb, 0x43, 0xf4, 0xa7, 0xd6, 0xf7, 0xdb, 0xf5, 0x7f, 0xa4, 0x12, 0x2a, 0x32,
  0xef, 0xdf, 0x26, 0xbf, 0xc8, 0x81, 0xf0, 0x0e, 0xf9, 0x22, 0x02, 0x19, 0x12, 0xbd, 0xfd, 0xf7,
  0x0f, 0xe4, 0xf8, 0x40, 0x17, 0x01, 0x9f, 0x1a, 0x1a, 0xdf, 0xda, 0x2a, 0x5a, 0x9c, 0x30, 0x13,
  0xe5, 0x3e, 0xda, 0xcb, 0x20, 0xd8, 0xce, 0x21, 0xc8, 0x1e, 0xff, 0x2e, 0xb4, 0x03, 0xbd, 0x3a,
  0xee, 0xf5, 0xb5, 0x34, 0xd0, 0x30, 0xa9, 0xd3, 0xb7, 0xb7, 0xb5, 0x81, 0x0f, 0xee, 0x13, 0x36,
  0x01, 0x17, 0x14, 0x7b, 0xbd, 0x25, 0xf1, 0x29, 0x81, 0x9a, 0x07, 0xe7, 0xa7, 0xec, 0x06, 0xa5,
  0x0c, 0xeb, 0xf8, 0x04, 0x51, 0xd6, 0xff, 0xdf, 0xa7, 0xdc, 0xfb, 0xf4, 0x06, 0x39, 0xe4, 0x5a,
  0x81, 0xbb, 0x42, 0x05, 0xca, 0x48, 0xb6, 0xee, 0x08, 0x5c, 0x30, 0x5f, 0xea, 0xe7, 0x3c, 0xf7,
  0x1f, 0xea, 0xe3, 0x25, 0x30, 0x25, 0x19, 0x1f, 0x77, 0x37, 0x54, 0xb4, 0x14, 0xef, 0x81, 0x41,
  0x4b, 0xe2, 0xdc, 0x10, 0xe1, 0x0b, 0xf6, 0x9a, 0xa3, 0x27, 0xf6, 0x3f, 0x8c, 0x1b, 0xfb, 0xef,
  0x21, 0x9c, 0x0c, 0x0a, 0xdf, 0x18, 0xf0, 0x34, 0x35, 0xdc, 0x53, 0x17, 0xa0, 0xba, 0x90, 0xe0,
  0x46, 0xb5, 0xec, 0xb6, 0xde, 0x22, 0xc8, 0xfd, 0xfc, 0x2a, 0xe6, 0x36, 0x81, 0xfd, 0xc0, 0x81,
  0xef, 0xfd, 0x99, 0xfd, 0x1d, 0xec, 0xba, 0x62, 0x34, 0xe5, 0xeb, 0x1f, 0xde, 0xff, 0x9f, 0x2f,
  0x30, 0xd0, 0xd0, 0xd6, 0xfc, 0x0c, 0x04, 0xea, 0x07, 0xb9, 0x1b, 0x02, 0x9d, 0xd6, 0xed, 0xd5,
  0x1e, 0x1f, 0xfa, 0xf6, 0xd6, 0xd3, 0x17, 0xa9, 0x7f, 0x00, 0xbe, 0x73, 0x0b, 0x02, 0x4d, 0xe7,
  0xab, 0xfc, 0xc2, 0x64, 0x62, 0x7f, 0x16, 0x49, 0x68, 0x2e, 0x28, 0x23, 0xfb, 0x11, 0xe2, 0xe6,
  0x12, 0xa9, 0x21, 0x11, 0xe4, 0x3f, 0xeb, 0x5b, 0xe9, 0x37, 0x16, 0xcf, 0xc3, 0x1f, 0xcc, 0x0f,
  0xf4, 0x32, 0xd3, 0xbe, 0xd3, 0x30, 0x4d, 0x36, 0xc1, 0xc5, 0xe5, 0x26, 0xe8, 0x24, 0xe9, 0x9d,
  0x3c, 0x1a, 0x78, 0xeb, 0xc7, 0x3b, 0x81, 0xd3, 0x64, 0xe7, 0x0e, 0x75, 0x17, 0xfe, 0xe2, 0xff,
  0x49, 0xff, 0xc3, 0x81, 0x34, 0xcf, 0xda, 0x1c, 0x20, 0x16, 0x2a, 0xbe, 0xe5, 0x25, 0x1c, 0x1b,
  0x43, 0xf4, 0x00, 0x32, 0xf4, 0x1d, 0xe5, 0xc3, 0xd1, 0xf5, 0x44, 0x81, 0xb0, 0xf0, 0xd9, 0x1d,
  0xd6, 0x7f, 0x1b, 0x28, 0xfa, 0xdc, 0xee, 0x44, 0x30, 0xf6, 0xaa, 0xeb, 0x08, 0x07, 0xb5, 0x3a,
  0xe6, 0xaf, 0x30, 0x33, 0xb6, 0xd4, 0xa6, 0x11, 0x0f, 0xc0, 0x36, 0xee, 0xcc, 0xe2, 0x63, 0xe0,
  0x7f, 0xc7, 0x53, 0xf4, 0x06, 0x00, 0xdb, 0x68, 0x18, 0xf8, 0x15, 0x38, 0x46, 0x1b, 0x7c, 0x4b,
  0xdc, 0x56, 0x06, 0x00, 0x20, 0xee, 0xce, 0x38, 0x47, 0x40, 0xf4, 0xff, 0x0a, 0x17, 0x79, 0xdd,
  0xb6, 0xc8, 0x20, 0x3c, 0xfd, 0x06, 0xf0, 0xf3, 0x01, 0xc5, 0x15, 0x44, 0x3e, 0xc8, 0xd2, 0x09,
  0xdc, 0x28, 0x0c, 0xe4, 0x1a, 0x03, 0x23, 0x22, 0xbb, 0x7f, 0xc6, 0xa5, 0x32, 0x26, 0x3c, 0x31,
  0x04, 0xc4, 0xdb, 0x0b, 0x66, 0x81, 0x31, 0x0f, 0x5f, 0x38, 0xec, 0x31, 0xc9, 0xba, 0x90, 0x26,
  0x2d, 0x08, 0x4a, 0xf0, 0x3d, 0xe0, 0x12, 0xfe, 0x2b, 0x24, 0xf9, 0x6f, 0x5a, 0xdc, 0xff, 0xff,
  0x04, 0x00, 0x00, 0x00, 0xc0, 0x00, 0x00, 0x00, 0x77, 0x04, 0x00, 0x00, 0x77, 0x02, 0x00, 0x00,
  0xba, 0xdf, 0xff, 0xff, 0xce, 0x09, 0x00, 0x00, 0xb9, 0xf9, 0xff, 0xff, 0x9b, 0xfe, 0xff, 0xff,
  0x2c, 0x02, 0x00, 0x00, 0x07, 0xf4, 0xff, 0xff, 0x80, 0xf9, 0xff, 0xff, 0xb9, 0xf4, 0xff, 0xff,
  0xbf, 0xfb, 0xff, 0xff, 0xb7, 0x0b, 0x00, 0x00, 0x87, 0xfc, 0xff, 0xff, 0x91, 0x04, 0x00, 0x00,
  0x42, 0xf9, 0xff, 0xff, 0xb1, 0xdc, 0xff, 0xff, 0xed, 0x0d, 0x00, 0x00, 0x9c, 0xf7, 0xff, 0xff,
  0xd2, 0x05, 0x00, 0x00, 0xbd, 0xfa, 0xff, 0xff, 0x83, 0x1f, 0x00, 0x00, 0x13, 0x01, 0x00, 0x00,
  0x0e, 0x02, 0x00, 0x00, 0x2b, 0x04, 0x00, 0x00, 0x42, 0xf4, 0xff, 0xff, 0x50, 0xec, 0xff, 0xff,
  0x95, 0x0e, 0x00, 0x00, 0x43, 0xf9, 0xff, 0xff, 0x1d, 0x01, 0x00, 0x00, 0xdb, 0xfa, 0xff, 0xff,
  0x2d, 0x05, 0x00, 0x00, 0x01, 0xec, 0xff, 0xff, 0xd6, 0x12, 0x00, 0x00, 0x8b, 0x05, 0x00, 0x00,
  0x85, 0x05, 0x00, 0x00, 0x49, 0x18, 0x00, 0x00, 0x82, 0x13, 0x00, 0x00, 0xd5, 0xf2, 0xff, 0xff,
  0x20, 0x09, 0x00, 0x00, 0x7a, 0x16, 0x00, 0x00, 0x4f, 0x01, 0x00, 0x00, 0xf6, 0xeb, 0xff, 0xff,
  0x5a, 0xff, 0xff, 0xff, 0xd9, 0x08, 0x00, 0x00, 0xbe, 0x02, 0x00, 0x00, 0xd2, 0xdd, 0xff, 0xff,
  0x57, 0xff, 0xff, 0xff, 0xd2, 0xec, 0xff, 0xff, 0x26, 0xdd, 0xff, 0xff, 0x04, 0x00, 0x00, 0x00,
  0xb0, 0x01, 0x00, 0x00, 0x03, 0x38, 0x65, 0x3b, 0xee, 0x42, 0x88, 0x12, 0x81, 0x50, 0x40, 0xcf,
  0xda, 0xa1, 0x8f, 0x2f, 0xc0, 0xc3, 0xb6, 0x09, 0xa8, 0x95, 0xf2, 0x99, 0xc5, 0x01, 0x43, 0x06,
  0xb5, 0x46, 0xb4, 0x49, 0xd4, 0xe1, 0x20, 0xce, 0x2c, 0x5a, 0x12, 0x81, 0x24, 0xd5, 0x69, 0xb5,
  0x28, 0x81, 0x29, 0xfb, 0xf8, 0x34, 0xee, 0x53, 0xab, 0x81, 0xd0, 0x29, 0xdc, 0x7f, 0x81, 0x7c,
  0xc4, 0x81, 0x8a, 0xf1, 0x7f, 0x47, 0xf4, 0xf9, 0x81, 0x81, 0xfe, 0x81, 0xfe, 0xbc, 0x5f, 0xd5,
  0xe7, 0x5c, 0x35, 0xc7, 0xce, 0x81, 0x6f, 0xb7, 0x5d, 0x2e, 0x2a, 0x99, 0x19, 0x2c, 0xf0, 0xda,
  0x35, 0xc0, 0x38, 0xe7, 0xf8, 0x29, 0x17, 0x68, 0xb0, 0x16, 0xe6, 0x1a, 0x66, 0x39, 0x05, 0x04,
  0x38, 0x18, 0x81, 0x0e, 0xa2, 0xf0, 0xa6, 0xa4, 0xfe, 0x01, 0x15, 0x9c, 0x16, 0xc0, 0x54, 0xd8,
  0x9c, 0x41, 0x0e, 0x81, 0xb5, 0x99, 0x3c, 0xd9, 0x7a, 0x3a, 0x3d, 0xed, 0xfc, 0xf2, 0x47, 0x97,
  0xd1, 0x95, 0x42, 0xfb, 0x7f, 0xfb, 0x5f, 0x4b, 0x56, 0x18, 0xb2, 0xe7, 0x5b, 0x65, 0x2a, 0x7f,
  0xc6, 0xbe, 0x32, 0x28, 0xea, 0x18, 0x81, 0xfc, 0xcc, 0xb8, 0xa8, 0x03, 0x08, 0xd3, 0x54, 0xec,
  0xe2, 0x12, 0x7f, 0x35, 0x51, 0x63, 0x61, 0x3b, 0x43, 0x2f, 0xe5, 0x42, 0x7f, 0x63, 0x7f, 0xc3,
  0x67, 0x73, 0x28, 0xce, 0x6f, 0xe9, 0x1d, 0x6c, 0x10, 0x42, 0xac, 0xaf, 0x3d, 0x79, 0xcb, 0xf3,
  0xfd, 0xbb, 0xf0, 0x1c, 0x33, 0x72, 0x30, 0x7f, 0xbb, 0x10, 0xec, 0x2d, 0x32, 0xf5, 0x7f, 0x99,
  0xe4, 0x15, 0x30, 0x5b, 0x5d, 0xfc, 0x7f, 0x46, 0x64, 0x93, 0xf0, 0x22, 0x62, 0x23, 0x48, 0x94,
  0x7f, 0x29, 0x13, 0x81, 0x69, 0xdd, 0x29, 0x7f, 0x7f, 0xd3, 0xdb, 0x94, 0x06, 0x3b, 0x03, 0x62,
  0x63, 0xeb, 0xb7, 0x1c, 0x4e, 0xca, 0x05, 0x51, 0xd7, 0xd8, 0x81, 0x21, 0x25, 0xfb, 0x43, 0xae,
  0x81, 0xcd, 0x5f, 0xc8, 0x7a, 0x54, 0x4f, 0x6f, 0x7f, 0xf6, 0x81, 0x2d, 0x44, 0x43, 0x56, 0xc6,
  0x56, 0x24, 0x22, 0xc4, 0xb0, 0xf2, 0x6b, 0x46, 0x4c, 0x07, 0xdd, 0xe3, 0x76, 0x37, 0xae, 0xe7,
  0x54, 0xe3, 0xf9, 0x7f, 0xff, 0x59, 0xee, 0xb5, 0x1f, 0xe3, 0xc0, 0x40, 0x81, 0x81, 0x35, 0xcf,
  0xb1, 0xcd, 0x7c, 0x71, 0xe3, 0xa2, 0xf8, 0xd1, 0x01, 0x82, 0x57, 0xb1, 0x5d, 0x7f, 0x34, 0x81,
  0x7c, 0x71, 0x87, 0xd8, 0xf1, 0xe8, 0x3f, 0x96, 0x51, 0xb7, 0x96, 0x81, 0x56, 0x28, 0x2c, 0xff,
  0x76, 0xa1, 0x11, 0x25, 0x5c, 0x7f, 0x2b, 0x73, 0xcf, 0x96, 0xa2, 0x37, 0xd6, 0x42, 0x23, 0x81,
  0xd4, 0xb9, 0xe2, 0x4d, 0x81, 0x9e, 0xfc, 0x81, 0x07, 0x27, 0x03, 0xd0, 0x54, 0x4a, 0x43, 0xd2,
  0x50, 0x75, 0x81, 0xc7, 0x0a, 0x81, 0x7f, 0x5b, 0x61, 0x16, 0x81, 0xc0, 0x67, 0x17, 0x22, 0xd1,
  0x7f, 0xf3, 0x30, 0x65, 0x0e, 0x20, 0xe3, 0x27, 0xf7, 0xba, 0x97, 0x4a, 0x1f, 0x29, 0x3c, 0xde,
  0xc2, 0x81, 0x04, 0x43, 0xbb, 0x91, 0xf5, 0x01, 0xe3, 0x81, 0x57, 0xf9, 0x4b, 0x5c, 0x28, 0xf8,
  0xf8, 0xf8, 0x91, 0xbc, 0xe2, 0xde, 0xff, 0xff, 0x04, 0x00, 0x00, 0x00, 0xc0, 0x00, 0x00, 0x00,
  0x98, 0xf6, 0xff, 0xff, 0xb6, 0xff, 0xff, 0xff, 0x5f, 0xf1, 0xff, 0xff, 0xfb, 0xf1, 0xff, 0xff,
  0x78, 0xfc, 0xff, 0xff, 0x13, 0x00, 0x00, 0x00, 0x58, 0x15, 0x00, 0x00, 0xe9, 0x08, 0x00, 0x00,
  0x8e, 0xfd, 0xff, 0xff, 0x1f, 0xee, 0xff, 0xff, 0x79, 0xff, 0xff, 0xff, 0x30, 0xf9, 0xff, 0xff,
  0xd5, 0xfd, 0xff, 0xff, 0x50, 0x0c, 0x00, 0x00, 0xea, 0x0b, 0x00, 0x00, 0x98, 0xf9, 0xff, 0xff,
  0xb1, 0xf7, 0xff, 0xff, 0x87, 0xf7, 0xff, 0xff, 0x75, 0x06, 0x00, 0x00, 0x96, 0xfc, 0xff, 0xff,
  0x47, 0x0d, 0x00, 0x00, 0x13, 0x09, 0x00, 0x00, 0x52, 0x0a, 0x00, 0x00, 0xf1, 0x02, 0x00, 0x00,
  0x97, 0xff, 0xff, 0xff, 0x77, 0x02, 0x00, 0x00, 0x60, 0xfa, 0xff, 0xff, 0x70, 0x0f, 0x00, 0x00,
  0xb0, 0x11, 0x00, 0x00, 0xd6, 0xfc, 0xff, 0xff, 0x49, 0xf4, 0xff, 0xff, 0x2b, 0xfc, 0xff, 0xff,
  0x76, 0xfe, 0xff, 0xff, 0x32, 0x05, 0x00, 0x00, 0x54, 0xfa, 0xff, 0xff, 0xf2, 0xfe, 0xff, 0xff,
  0x96, 0xef, 0xff, 0xff, 0xd4, 0xff, 0xff, 0xff, 0x94, 0xf7, 0xff, 0xff, 0xd1, 0x02, 0x00, 0x00,
  0xae, 0xf3, 0xff, 0xff, 0x35, 0xf7, 0xff, 0xff, 0x76, 0xeb, 0xff, 0xff, 0xfe, 0x10, 0x00, 0x00,
  0x75, 0xfb, 0xff, 0xff, 0x11, 0xfd, 0xff, 0xff, 0xf2, 0xfd, 0xff, 0xff, 0x09, 0x0c, 0x00, 0x00,
  0xae, 0xdf, 0xff, 0xff, 0x04, 0x00, 0x00, 0x00, 0x00, 0x0c, 0x00, 0x00, 0x5f, 0x29, 0xe5, 0x57,
  0xe5, 0xf1, 0xfb, 0xfb, 0xda, 0xd1, 0x50, 0xfd, 0xc9, 0x81, 0xed, 0xd7, 0x00, 0x2f, 0x51, 0xb8,
  0x10, 0x17, 0x35, 0x50, 0xbc, 0xfa, 0xa9, 0xa9, 0x12, 0x21, 0x34, 0x02, 0x0d, 0xf3, 0x48, 0x42,
  0x20, 0xd8, 0x4a, 0x1d, 0xf1, 0x3c, 0x0e, 0xbe, 0xdd, 0xd8, 0x66, 0x98, 0x29, 0x39, 0xea, 0x04,
  0xe6, 0x40, 0xec, 0xfb, 0x01, 0xf0, 0x53, 0xf9, 0x9f, 0xdb, 0x0a, 0x24, 0xe4, 0xc1, 0xcc, 0x10,
  0x14, 0xd8, 0x49, 0x23, 0xc0, 0xd8, 0x17, 0x47, 0x5b, 0xf6, 0xdc, 0x81, 0x5b, 0xb9, 0x42, 0x04,
  0x18, 0xfd, 0xdc, 0x19, 0x38, 0x26, 0x52, 0x3a, 0x01, 0xe8, 0x79, 0x05, 0x26, 0x3a, 0xc2, 0xe3,
  0xcc, 0x15, 0x37, 0x81, 0xe2, 0x50, 0x07, 0xf4, 0x2f, 0x3e, 0xc3, 0x34, 0xfc, 0x05, 0xd6, 0xc3,
  0x51, 0xb7, 0xad, 0x3c, 0xc1, 0x3c, 0x6f, 0x07, 0x32, 0xe9, 0x2f, 0xbf, 0xc4, 0xd0, 0xff, 0xa7,
  0x0f, 0xbc, 0xd6, 0xca, 0xbc, 0xd2, 0xc9, 0x47, 0x26, 0xfe, 0xd0, 0x2d, 0x1d, 0x1f, 0xdc, 0xf0,
  0xc2, 0x07, 0x45, 0x81, 0xf4, 0x4a, 0x12, 0x1a, 0x3b, 0x04, 0xb5, 0x05, 0xf3, 0x13, 0xdd, 0xc0,
  0x56, 0xd9, 0xe3, 0x26, 0xbc, 0x3b, 0x54, 0xf5, 0x07, 0x01, 0x1b, 0xbd, 0xd0, 0xda, 0xec, 0xb9,
  0x27, 0xb8, 0xeb, 0xf5, 0xb6, 0xca, 0xcd, 0x39, 0x24, 0xee, 0xc9, 0xf9, 0xf8, 0x09, 0xcd, 0xfe,
  0xd1, 0x0b, 0x33, 0xcf, 0xe4, 0x51, 0x03, 0x0b, 0x4c, 0xed, 0xe9, 0x11, 0x1a, 0x2f, 0x0d, 0xde,
  0x62, 0x3f, 0xf3, 0x2e, 0xd3, 0x21, 0x11, 0x0c, 0xe6, 0x14, 0x13, 0xfd, 0xf9, 0x2b, 0xf2, 0xe2,
  0x27, 0xdc, 0x35, 0x14, 0xa3, 0xd6, 0xc5, 0x00, 0x3d, 0xed, 0x81, 0xfb, 0xc9, 0x10, 0x0b, 0xd4,
  0xe8, 0xdc, 0xc8, 0x31, 0x50, 0xf2, 0xc5, 0x1f, 0x0f, 0x27, 0x12, 0xd8, 0xc4, 0xee, 0xc4, 0x2c,
  0xde, 0xff, 0x9b, 0xd9, 0x14, 0x5f, 0x20, 0x46, 0xb2, 0x9d, 0xd5, 0xf6, 0xa0, 0xe9, 0x28, 0xeb,
  0xca, 0xe6, 0xd9, 0x81, 0x68, 0xf5, 0xb3, 0xda, 0xcd, 0x4b, 0xf9, 0x2f, 0x2b, 0x48, 0xcb, 0xe8,
  0xc7, 0x2d, 0x43, 0x82, 0xe8, 0x39, 0x06, 0xfb, 0xef, 0x2b, 0xb4, 0x2e, 0xf2, 0xf5, 0xc0, 0xff,
  0x4c, 0x81, 0xc8, 0x46, 0xb9, 0x19, 0x6a, 0x46, 0x12, 0xd6, 0x30, 0xc6, 0xd8, 0xaf, 0xff, 0xb2,
  0x14, 0xa1, 0xe9, 0xce, 0xb8, 0xe6, 0xe0, 0x65, 0x3f, 0xf0, 0xf4, 0x25, 0x7c, 0x7e, 0x1b, 0x63,
  0x97, 0x46, 0xd7, 0xe2, 0xf1, 0xcd, 0x56, 0xe0, 0x88, 0x8d, 0xb9, 0x4b, 0xe2, 0xd1, 0x24, 0xee,
  0xed, 0xf6, 0x68, 0x7f, 0x8e, 0x01, 0x36, 0xe4, 0x42, 0x14, 0xf7, 0xb2, 0x42, 0xb2, 0x67, 0x06,
  0x33, 0xe4, 0x35, 0xef, 0x17, 0x15, 0xdc, 0xe8, 0xb0, 0xee, 0x68, 0xf2, 0x7f, 0x45, 0x13, 0x44,
  0xcd, 0x19, 0xe5, 0x21, 0xee, 0xd2, 0x4d, 0xfb, 0xbb, 0xb7, 0xc1, 0x22, 0xe0, 0xee, 0x21, 0xb6,
  0xe2, 0xed, 0x1e, 0x38, 0xa8, 0xf4, 0xee, 0x06, 0x26, 0x01, 0x0e, 0xc8, 0x39, 0xa5, 0x67, 0x0c,
  0x2c, 0xf0, 0x35, 0x16, 0x29, 0x20, 0xda, 0xda, 0xba, 0xf1, 0x75, 0xd6, 0x02, 0x0b, 0xee, 0x09,
  0xdd, 0xf4, 0x4a, 0xbc, 0xf4, 0x51, 0x03, 0x1d, 0x36, 0x0e, 0xdd, 0xe0, 0x1b, 0x1e, 0x00, 0xd7,
  0x4d, 0x11, 0xe5, 0x49, 0xce, 0x1d, 0x12, 0x03, 0x16, 0x11, 0x12, 0x13, 0xde, 0x19, 0xf4, 0xe0,
  0x23, 0xc8, 0x37, 0xfd, 0x81, 0xcf, 0xfd, 0x17, 0x2a, 0xe3, 0x90, 0x03, 0xaa, 0x0c, 0xe1, 0xb1,
  0x2a, 0xb3, 0xb2, 0x79, 0x4e, 0xe4, 0xb2, 0xf6, 0x31, 0x3a, 0x2e, 0x97, 0xdf, 0xf7, 0xa9, 0x68,
  0xef, 0x43, 0x81, 0xa1, 0x48, 0x63, 0x33, 0x68, 0x84, 0x86, 0xa8, 0x39, 0x85, 0x22, 0xff, 0xe5,
  0xc4, 0xfa, 0xbf, 0x82, 0x5e, 0xba, 0xcf, 0xcd, 0xc1, 0x66, 0x00, 0x34, 0xa7, 0xca, 0xc3, 0xe8,
  0x58, 0xd0, 0x9f, 0x7b, 0x2f, 0xd3, 0xc7, 0x97, 0xff, 0x56, 0x4e, 0x96, 0x19, 0xd3, 0xb6, 0x0e,
  0x02, 0x45, 0xc3, 0xb7, 0xff, 0xbc, 0xe5, 0x20, 0xa9, 0x25, 0xaf, 0x05, 0x1c, 0x46, 0x06, 0x1b,
  0xc2, 0xe5, 0x98, 0x15, 0x12, 0x18, 0x37, 0xd2, 0xed, 0x13, 0x7f, 0xf3, 0xc5, 0xdf, 0xb9, 0xd8,
  0x5a, 0xef, 0x15, 0x2f, 0xf0, 0xf9, 0xe6, 0xbf, 0x51, 0x30, 0x47, 0xa7, 0x1b, 0x31, 0xde, 0x53,
  0x0b, 0x46, 0xc7, 0xf5, 0x42, 0xda, 0xfe, 0x27, 0xcd, 0x0b, 0xc7, 0x62, 0x2b, 0x57, 0xb6, 0x0f,
  0xd7, 0x98, 0x31, 0x74, 0xe9, 0x81, 0xe6, 0x21, 0x31, 0x26, 0xa0, 0xab, 0x11, 0x0e, 0xd7, 0xed,
  0xd3, 0xf3, 0x4e, 0x81, 0x10, 0x52, 0x0b, 0x1b, 0x5e, 0x23, 0xb4, 0x03, 0x0b, 0x25, 0xf5, 0xbf,
  0x60, 0xe7, 0xd1, 0x29, 0xcd, 0x34, 0x4a, 0xee, 0x0e, 0xf6, 0x24, 0xbc, 0xb1, 0x00, 0xfb, 0xb0,
  0x0c, 0xe3, 0xfb, 0xf8, 0xc7, 0xc5, 0xb6, 0x26, 0x16, 0xdc, 0xac, 0x06, 0xe8, 0x2a, 0x11, 0xee,
  0xd9, 0xbf, 0xaa, 0x3d, 0x46, 0xef, 0xb0, 0xe9, 0xf0, 0x09, 0x26, 0xef, 0xd4, 0xe5, 0xdb, 0xfe,
  0xcd, 0xe4, 0xd4, 0xd7, 0xfb, 0x67, 0xfc, 0x2e, 0xd6, 0xd2, 0x13, 0x08, 0xde, 0xec, 0x40, 0x04,
  0xd0, 0x2e, 0xc5, 0xbe, 0x7f, 0x0e, 0xab, 0xd2, 0xc3, 0x1f, 0x31, 0x23, 0x58, 0x2b, 0xfd, 0x74,
  0xcd, 0xfc, 0xe4, 0x1a, 0x03, 0xd9, 0x1e, 0xe5, 0xb9, 0x81, 0xd4, 0x03, 0x07, 0x2a, 0x59, 0xa5,
  0x03, 0x23, 0x2d, 0x63, 0xc4, 0x09, 0xa9, 0xa9, 0xeb, 0xfd, 0x32, 0xe7, 0xfe, 0xda, 0x60, 0x39,
  0x26, 0xf2, 0x25, 0xf3, 0x2a, 0x49, 0xbd, 0x9c, 0xbb, 0xd3, 0x65, 0xb4, 0xea, 0xfd, 0xe2, 0x00,
  0xff, 0x07, 0x34, 0xfc, 0xf5, 0x16, 0x00, 0xea, 0x36, 0xf9, 0x13, 0xf2, 0x16, 0x1e, 0xfd, 0x1d,
  0x2e, 0x2b, 0x12, 0x05, 0xef, 0x05, 0xf4, 0x04, 0xe6, 0x09, 0xe9, 0x4b, 0x2d, 0x44, 0xda, 0x0f,
  0x14, 0xc2, 0x3d, 0x31, 0xd1, 0xa4, 0xd9, 0x18, 0x2d, 0x14, 0x81, 0xbb, 0xd0, 0xf7, 0xd2, 0xda,
  0x3a, 0xf2, 0x19, 0x25, 0xf3, 0x19, 0xeb, 0xda, 0x51, 0x3d, 0x2c, 0xc8, 0x28, 0x22, 0xdf, 0x5e,
  0x31, 0x39, 0xde, 0xfb, 0x40, 0x00, 0x0f, 0x15, 0xce, 0xe0, 0xd4, 0x3b, 0x1e, 0x35, 0xba, 0xf8,
  0xee, 0xbc, 0x2f, 0x4e, 0xf3, 0xb1, 0xc6, 0x11, 0x22, 0x2e, 0x81, 0xe4, 0x24, 0x71, 0x1c, 0xdf,
  0xc4, 0x6b, 0xdc, 0xd8, 0x35, 0xe1, 0x54, 0x0d, 0x84, 0x15, 0xc2, 0x23, 0xba, 0x84, 0xc8, 0x2d,
  0xe3, 0xae, 0xc6, 0x2a, 0xc9, 0xdc, 0x5a, 0x3d, 0x5e, 0xba, 0x13, 0x89, 0x4b, 0x81, 0x5b, 0xb6,
  0xf1, 0x11, 0xec, 0xf2, 0x2a, 0xd4, 0x3c, 0x2b, 0x05, 0x00, 0x63, 0x2f, 0x3d, 0x01, 0x01, 0x55,
  0xe8, 0xfc, 0xe2, 0x24, 0xf9, 0xe4, 0x29, 0xe5, 0xf2, 0x81, 0xde, 0xc5, 0x12, 0x40, 0x59, 0xb3,
  0x16, 0x2f, 0x1a, 0x4a, 0xfc, 0x02, 0xa1, 0xc4, 0xfd, 0x07, 0x1e, 0x15, 0xf7, 0xe6, 0x34, 0x31,
  0x29, 0x00, 0x07, 0xee, 0x21, 0x38, 0xc2, 0xd7, 0xd2, 0xdb, 0x48, 0xb4, 0x24, 0x16, 0xbd, 0xfd,
  0xce, 0xf1, 0x56, 0x81, 0xf1, 0x4a, 0x13, 0x18, 0x4d, 0xf8, 0xc7, 0x01, 0x11, 0x38, 0x02, 0x9d,
  0x65, 0x13, 0xe5, 0x3e, 0xd0, 0x2f, 0x2f, 0xe1, 0x27, 0x2a, 0x2d, 0xf3, 0xd8, 0x0e, 0xfa, 0xd4,
  0x1e, 0xda, 0x1a, 0xfa, 0xa2, 0xcf, 0xd6, 0x1e, 0x1e, 0xc9, 0xa6, 0xe0, 0x30, 0x18, 0xd5, 0x59,
  0xfc, 0xdf, 0xde, 0x2d, 0xe2, 0xe5, 0x1a, 0xf1, 0xd4, 0x81, 0xe6, 0x13, 0x03, 0x1a, 0x38, 0xce,
  0xea, 0x1f, 0x32, 0x2f, 0xd1, 0x03, 0xcb, 0xdd, 0xe8, 0x09, 0x16, 0x14, 0x0c, 0xf5, 0x32, 0x2e,
  0x14, 0xf8, 0x22, 0x25, 0xfc, 0x18, 0xfb, 0xca, 0xe5, 0xd9, 0x5c, 0xba, 0x23, 0x02, 0xde, 0x59,
  0x01, 0xd1, 0xd7, 0x4c, 0xdc, 0xee, 0x19, 0xfc, 0xe5, 0x85, 0x01, 0xfd, 0x08, 0x30, 0x45, 0xe4,
  0xe6, 0x31, 0x14, 0x3b, 0xe7, 0xf4, 0xab, 0xc9, 0xd4, 0xff, 0x18, 0x35, 0xf6, 0x25, 0x2e, 0x43,
  0x0c, 0x05, 0x2a, 0x06, 0xee, 0x0a, 0x01, 0xb0, 0xe1, 0xd0, 0x7f, 0x86, 0xab, 0xcb, 0x8e, 0xbb,
  0x52, 0xce, 0x00, 0x3f, 0x0e, 0x0f, 0xb6, 0x93, 0x38, 0x40, 0x61, 0xb8, 0x27, 0x43, 0xc3, 0x7f,
  0x44, 0x75, 0xb7, 0xf1, 0x69, 0xf6, 0x09, 0x24, 0x89, 0xe1, 0xb1, 0x7f, 0xf4, 0x7d, 0xa3, 0xef,
  0xcc, 0xaf, 0xfe, 0x30, 0xeb, 0x96, 0xd3, 0xea, 0x05, 0x49, 0xb9, 0xb1, 0xca, 0x10, 0x0f, 0xd6,
  0xf8, 0xd6, 0xda, 0x0e, 0x4c, 0x03, 0xb8, 0x1f, 0x18, 0x12, 0x06, 0xc3, 0xcb, 0xef, 0xb8, 0x36,
  0xdf, 0x0c, 0xa9, 0xd3, 0x0a, 0x54, 0x3a, 0x44, 0xc2, 0x94, 0xca, 0xf6, 0x89, 0x05, 0x15, 0xcc,
  0xc9, 0x00, 0xf2, 0x81, 0x5b, 0xf9, 0xbd, 0xed, 0xd4, 0x4b, 0xef, 0x13, 0xf5, 0x5e, 0xdb, 0xba,
  0x1a, 0x08, 0x40, 0xca, 0x1f, 0x31, 0x3f, 0xfa, 0xd0, 0x50, 0xca, 0x39, 0xa6, 0xa0, 0x88, 0x39,
  0x0f, 0x9d, 0xb5, 0xec, 0xf6, 0x04, 0x69, 0x68, 0x7a, 0x83, 0xfd, 0xa5, 0xe4, 0x81, 0x3e, 0x81,
  0xbe, 0x40, 0xda, 0xa4, 0x52, 0xe4, 0xc6, 0x5e, 0x35, 0x1f, 0x34, 0x2c, 0xeb, 0x3a, 0xfb, 0xef,
  0xe2, 0xd2, 0xd3, 0x10, 0x28, 0xef, 0xc4, 0x00, 0xbf, 0xfb, 0x07, 0x30, 0xcd, 0xbd, 0xc5, 0xeb,
  0xcf, 0xc7, 0xfc, 0xe1, 0xdc, 0x73, 0x06, 0x43, 0xfc, 0xe6, 0x11, 0xcd, 0xe0, 0xda, 0x55, 0xee,
  0xd9, 0x29, 0xef, 0x99, 0x7f, 0x25, 0xcb, 0xf1, 0xd4, 0x23, 0x22, 0x14, 0x5c, 0x56, 0xee, 0x62,
  0xeb, 0xe1, 0xd7, 0x0b, 0xe7, 0xca, 0x34, 0xe7, 0xa8, 0xaf, 0xe2, 0xf1, 0xda, 0x07, 0x3e, 0xbc,
  0xeb, 0x18, 0x3e, 0x3e, 0xb8, 0xfa, 0xd8, 0xef, 0x12, 0x2a, 0x09, 0xd6, 0x3e, 0xc2, 0x6a, 0x25,
  0x21, 0xdb, 0x15, 0x08, 0x1e, 0x58, 0xc0, 0xe0, 0xb1, 0xf8, 0x7f, 0xb0, 0x17, 0xe5, 0xc1, 0x23,
  0x02, 0xf3, 0xd4, 0x3e, 0xcb, 0xf9, 0xfb, 0xc7, 0xf7, 0xb1, 0x14, 0xcf, 0x05, 0x45, 0x31, 0xfa,
  0x3a, 0x5b, 0xe1, 0x48, 0x00, 0xee, 0x97, 0xe7, 0xa4, 0x16, 0xf7, 0x7f, 0xea, 0x63, 0x14, 0x36,
  0xfb, 0x0f, 0x27, 0xe6, 0xfd, 0x03, 0xdb, 0xc2, 0xf0, 0xe1, 0x54, 0xa2, 0xb9, 0xd6, 0x94, 0x0c,
  0x4e, 0xab, 0x81, 0x76, 0x1c, 0xdd, 0xb6, 0x8b, 0x06, 0x2b, 0x26, 0xd4, 0x18, 0x0b, 0xd1, 0xfb,
  0xfd, 0x47, 0xb2, 0xc2, 0x1e, 0xfe, 0xcc, 0x18, 0x9f, 0x2d, 0xbf, 0x3b, 0xfa, 0x34, 0x17, 0x21,
  0xc6, 0xf1, 0x98, 0x06, 0x35, 0x0c, 0x26, 0xdc, 0xc4, 0xfd, 0x6d, 0xf8, 0xcc, 0x11, 0x05, 0xd2,
  0xdf, 0xcf, 0xbc, 0x2b, 0x53, 0xf2, 0xbd, 0x1f, 0x04, 0x25, 0x0d, 0x03, 0xc2, 0xf5, 0xd2, 0x1a,
  0xd3, 0xe7, 0xad, 0xe4, 0x0f, 0x65, 0x12, 0x44, 0xcf, 0xb5, 0xf2, 0xf3, 0xb2, 0xee, 0x34, 0x06,
  0xcc, 0xf7, 0xcf, 0x81, 0x73, 0xee, 0xa2, 0xdb, 0xd6, 0x3b, 0xff, 0x38, 0x27, 0x41, 0xec, 0xdc,
  0xd4, 0x43, 0x43, 0xb1, 0x17, 0x17, 0x2c, 0x04, 0xe0, 0x05, 0xb6, 0x22, 0xed, 0xc7, 0xb0, 0x08,
  0x35, 0xd9, 0xf7, 0x28, 0xef, 0xf6, 0x7f, 0x18, 0x56, 0xa0, 0x09, 0xb0, 0x05, 0xab, 0x0d, 0xa3,
  0xe0, 0x15, 0x00, 0xf8, 0x04, 0xd4, 0x10, 0x46, 0x25, 0xfe, 0x2f, 0xfd, 0x38, 0x14, 0x12, 0x2d,
  0xd4, 0x14, 0x39, 0xea, 0xe5, 0xf5, 0x38, 0x1e, 0xe8, 0x81, 0xde, 0xb6, 0xf7, 0x13, 0x14, 0xd0,
  0x11, 0x22, 0x39, 0x37, 0xba, 0xe9, 0xeb, 0xe5, 0x1a, 0x29, 0xfc, 0x29, 0x20, 0x35, 0x07, 0x12,
  0x3b, 0x9d, 0x69, 0x2d, 0xc4, 0xde, 0xee, 0x0d, 0x2a, 0xcc, 0x17, 0x95, 0x81, 0xaf, 0xfc, 0xdf,
  0xba, 0xd7, 0xea, 0xd4, 0x35, 0x21, 0xe5, 0x2c, 0x15, 0x36, 0x16, 0xd5, 0xf8, 0x65, 0x05, 0x12,
  0x0a, 0x39, 0xa6, 0x5a, 0x68, 0x6c, 0xf6, 0xf7, 0xb8, 0xb2, 0x1d, 0x21, 0xa7, 0xff, 0xe8, 0xf1,
  0xff, 0xe5, 0xf6, 0xbf, 0x34, 0xca, 0x95, 0x98, 0xf7, 0x3f, 0xcf, 0xe3, 0x98, 0xd9, 0xe8, 0xbd,
  0x4a, 0xcb, 0xd1, 0x5c, 0x3c, 0xf0, 0xa5, 0xca, 0x31, 0x28, 0x29, 0xac, 0x21, 0x11, 0xa8, 0x62,
  0x11, 0x77, 0xa0, 0xa4, 0x69, 0x29, 0x27, 0x45, 0x81, 0x9f, 0xa7, 0x4c, 0x94, 0x47, 0xde, 0xdf,
  0xc7, 0xe8, 0xc5, 0xca, 0x28, 0xba, 0xdd, 0xe7, 0xe2, 0x43, 0xd8, 0xe8, 0x36, 0x4f, 0x29, 0x13,
  0xba, 0x43, 0xda, 0x18, 0x17, 0xef, 0x39, 0xed, 0x9f, 0xf4, 0xe0, 0x2a, 0xe6, 0xa2, 0xed, 0x13,
  0xeb, 0xe8, 0xfd, 0x24, 0xc8, 0xdb, 0x45, 0x22, 0x4f, 0xd5, 0x07, 0x95, 0x4a, 0x81, 0x5d, 0xe2,
  0xf5, 0x1d, 0xde, 0x1d, 0x36, 0xe7, 0x05, 0x00, 0xf6, 0x00, 0x78, 0x31, 0x25, 0x1f, 0xdc, 0x04,
  0xc4, 0xf5, 0x4a, 0x81, 0x04, 0x3d, 0x0c, 0x07, 0x35, 0xec, 0xc0, 0xf8, 0x01, 0x26, 0xf1, 0xad,
  0x62, 0xfd, 0xec, 0x2f, 0xbd, 0x35, 0x3b, 0xf0, 0x14, 0x24, 0x13, 0xea, 0xbc, 0x07, 0xe8, 0xc8,
  0x27, 0xb8, 0x02, 0xec, 0xa0, 0xcc, 0xed, 0x2d, 0x1c, 0xd7, 0xc6, 0xe0, 0xd3, 0xc6, 0xe3, 0xf3,
  0x14, 0xe6, 0xe6, 0x27, 0xe6, 0xfc, 0xcf, 0xd7, 0x2e, 0x0d, 0x27, 0xc2, 0x0f, 0x2d, 0x04, 0x26,
  0x25, 0x53, 0xe1, 0x0e, 0x3b, 0x1a, 0xce, 0x00, 0xb0, 0x03, 0xef, 0x7f, 0xdc, 0x55, 0xe8, 0x05,
  0xe6, 0xed, 0xeb, 0x05, 0x11, 0xde, 0xba, 0xc4, 0xec, 0xfd, 0x16, 0xe5, 0x2f, 0x1c, 0xea, 0x08,
  0xbf, 0x14, 0x3b, 0x81, 0x09, 0x3b, 0x0b, 0x04, 0x1d, 0xee, 0xb8, 0xf4, 0x03, 0x21, 0x00, 0xc0,
  0x4b, 0xe1, 0xec, 0x24, 0xb5, 0x30, 0x45, 0xf0, 0x22, 0x21, 0x18, 0xdc, 0xd7, 0xfb, 0xe5, 0xcb,
  0x2e, 0xbd, 0x0b, 0xff, 0xac, 0xcb, 0xf3, 0x31, 0x17, 0xd9, 0xc9, 0x01, 0xc7, 0xfc, 0xd8, 0x13,
  0x2b, 0xe0, 0xce, 0x3d, 0xf0, 0xcf, 0xd7, 0xbd, 0xfe, 0xf8, 0x42, 0xba, 0x13, 0xdc, 0xd9, 0xf4,
  0xd1, 0x49, 0xdc, 0xd7, 0xf6, 0x95, 0xd0, 0x2e, 0xbc, 0x3d, 0xcc, 0x52, 0x42, 0x58, 0xf1, 0x15,
  0xe1, 0xc7, 0xeb, 0x5e, 0xea, 0xc2, 0x4f, 0x13, 0x1a, 0xdb, 0x7f, 0x92, 0x90, 0xba, 0xa6, 0xc7,
  0x57, 0xaa, 0xc6, 0x7e, 0x26, 0xf3, 0xbb, 0xb1, 0x3a, 0x51, 0x3c, 0xaf, 0x1f, 0x23, 0xae, 0x7f,
  0x10, 0x61, 0xa8, 0xaa, 0x67, 0x38, 0x15, 0x3b, 0x8a, 0xb7, 0xa9, 0x6a, 0xd7, 0x5a, 0xbc, 0xe6,
  0xce, 0xcb, 0xbf, 0xed, 0x0f, 0xba, 0xc8, 0xde, 0xe6, 0x48, 0xf7, 0xf7, 0xee, 0x47, 0xed, 0xd2,
  0xde, 0x15, 0xf4, 0xd3, 0x28, 0x0f, 0xfa, 0x19, 0xcd, 0x18, 0xe0, 0x3e, 0xc0, 0xbf, 0xa1, 0xfe,
  0xe5, 0xd0, 0xbb, 0xdb, 0xec, 0x4d, 0x3e, 0x4d, 0x24, 0xb5, 0xf4, 0xa4, 0xd3, 0x81, 0x43, 0xb7,
  0xe4, 0x2e, 0xda, 0xb2, 0x63, 0xed, 0xdd, 0xe9, 0xf2, 0x28, 0x23, 0x2b, 0xc1, 0x16, 0xfe, 0xce,
  0x02, 0xd2, 0xcf, 0x26, 0x62, 0xfd, 0xc9, 0x0a, 0x1d, 0x2b, 0x0e, 0xbb, 0xd4, 0xe3, 0xaf, 0x37,
  0xe1, 0x14, 0x88, 0xb4, 0x17, 0x55, 0x3b, 0x55, 0xb7, 0x90, 0xc0, 0xf2, 0x81, 0xf4, 0x1a, 0xd5,
  0xbd, 0xf5, 0xe0, 0x82, 0x67, 0xde, 0xca, 0xe2, 0xca, 0x62, 0x01, 0x1b, 0xfe, 0x5d, 0xe6, 0xce,
  0xf8, 0x0e, 0x22, 0xb4, 0x06, 0x2d, 0x2b, 0xec, 0xe8, 0x47, 0xdd, 0x1d, 0xbc, 0xbc, 0x95, 0x2c,
  0x1d, 0x88, 0xb6, 0x06, 0xf4, 0x0d, 0x6a, 0x66, 0x54, 0x99, 0x04, 0xa7, 0xd0, 0x81, 0x2b, 0x85,
  0xcc, 0x23, 0xdd, 0xab, 0x42, 0xfa, 0xdf, 0x55, 0x2d, 0x26, 0x20, 0x3a, 0xe5, 0x4f, 0x0e, 0xad,
  0x00, 0xf9, 0x0c, 0xf2, 0x29, 0x24, 0x0c, 0x04, 0xcd, 0x2c, 0xf0, 0x16, 0xb6, 0xb6, 0x97, 0x13,
  0xe2, 0xc1, 0xad, 0xd0, 0x04, 0x29, 0x44, 0x5c, 0x45, 0x9e, 0xe7, 0x92, 0xf3, 0x81, 0x46, 0xcf,
  0xe2, 0x34, 0xca, 0xbe, 0x63, 0xf0, 0xe0, 0x0b, 0x1a, 0x1e, 0x38, 0x3a, 0xac, 0x14, 0xe7, 0xbc,
  0x26, 0xac, 0xb2, 0x6b, 0x5c, 0xe8, 0xba, 0xf2, 0x19, 0x33, 0x32, 0xca, 0xde, 0xf3, 0xb0, 0x54,
  0xfa, 0x3f, 0x89, 0xa4, 0x40, 0x63, 0x2e, 0x63, 0x81, 0x8c, 0xb4, 0x33, 0x93, 0x15, 0x0b, 0xe2,
  0xc6, 0xf5, 0xbb, 0x83, 0x61, 0xc8, 0xc9, 0xcf, 0xc9, 0x62, 0xf7, 0x31, 0x2f, 0xf0, 0x0e, 0x45,
  0xfd, 0xf1, 0xf1, 0x24, 0xdf, 0xfa, 0x13, 0xed, 0xf6, 0xbd, 0x1d, 0xe6, 0x15, 0x2d, 0x39, 0xc5,
  0x27, 0x52, 0x48, 0x7f, 0xff, 0xfb, 0x98, 0xcf, 0x11, 0x06, 0xff, 0x23, 0xe6, 0xf1, 0x2f, 0x56,
  0x14, 0x0d, 0x05, 0xd9, 0x09, 0x06, 0xed, 0xc5, 0xd7, 0xdc, 0x3a, 0xb2, 0xc1, 0x27, 0xd6, 0xda,
  0x02, 0xb8, 0xa0, 0x67, 0x56, 0xe0, 0x94, 0xe5, 0x0d, 0x40, 0x3d, 0xdc, 0xc6, 0xf7, 0xb4, 0x2e,
  0xed, 0x0b, 0x81, 0xc0, 0x20, 0x7e, 0x05, 0x52, 0x9a, 0xaa, 0xd5, 0x27, 0xb6, 0x00, 0x2f, 0xef,
  0xbe, 0xf1, 0x9e, 0x96, 0x7e, 0xf5, 0xac, 0xc6, 0xb9, 0x52, 0x39, 0x23, 0xcd, 0x0f, 0x0c, 0xd4,
  0xea, 0xde, 0xcf, 0x2d, 0x52, 0xf5, 0xcd, 0x19, 0x10, 0x12, 0x11, 0xcc, 0xd0, 0xf3, 0xc3, 0x2b,
  0xe2, 0x12, 0xac, 0xd2, 0x12, 0x58, 0x2d, 0x40, 0xb0, 0xa0, 0xd8, 0xfe, 0xa0, 0xfc, 0x1b, 0xe2,
  0xcc, 0xef, 0xe7, 0x81, 0x5f, 0xf4, 0xb4, 0xda, 0xcb, 0x47, 0xec, 0x20, 0xc3, 0x29, 0xf6, 0xbf,
  0x16, 0xcf, 0xae, 0x42, 0x63, 0xe5, 0xb7, 0x06, 0x11, 0x38, 0x2a, 0xd9, 0xd4, 0xc8, 0xad, 0x37,
  0xe5, 0x20, 0x96, 0xb6, 0x1f, 0x5b, 0x21, 0x43, 0xd2, 0xb1, 0xdb, 0x01, 0xc8, 0xf7, 0x1d, 0xfd,
  0xbf, 0x08, 0xb7, 0x81, 0x6f, 0xd3, 0xcc, 0xd9, 0xc5, 0x48, 0x17, 0x37, 0x32, 0x1c, 0xe9, 0x30,
  0xde, 0x2e, 0x3a, 0xdd, 0xd5, 0xee, 0x38, 0x10, 0xe6, 0x84, 0xf7, 0xff, 0x0b, 0x2c, 0x13, 0xdc,
  0xfa, 0x35, 0x12, 0x32, 0xa3, 0xc8, 0xe1, 0x03, 0x18, 0x3c, 0xfb, 0x39, 0x5d, 0x66, 0xdf, 0xf5,
  0x2e, 0x9e, 0x7f, 0x73, 0xc3, 0xbe, 0xfe, 0x25, 0x53, 0xac, 0x0f, 0x82, 0x3c, 0x04, 0xe7, 0x60,
  0xef, 0xe1, 0xd0, 0x4f, 0xe6, 0xe1, 0x23, 0xfc, 0xde, 0x81, 0xd2, 0xd9, 0x01, 0x40, 0x5b, 0xbb,
  0xf5, 0x34, 0x25, 0x4b, 0xf0, 0x02, 0x9c, 0xc0, 0xde, 0xf8, 0x1b, 0x2e, 0x04, 0xea, 0x3f, 0x3a,
  0x1e, 0x0f, 0x01, 0xfc, 0x11, 0x2f, 0xc4, 0xbc, 0xc9, 0xe3, 0x60, 0x98, 0x17, 0x18, 0xd7, 0xd2,
  0xde, 0x12, 0x61, 0x81, 0xf7, 0x4b, 0x05, 0xea, 0x45, 0x4e, 0xc3, 0x26, 0xf8, 0xfb, 0xd5, 0xb6,
  0x4c, 0x9a, 0xc9, 0x26, 0xe0, 0x2b, 0x72, 0x0b, 0x2e, 0xcf, 0x3e, 0xa0, 0xc3, 0xaa, 0x14, 0xab,
  0x00, 0xe3, 0xde, 0xea, 0xe3, 0xda, 0xa3, 0x3f, 0x20, 0xf7, 0xdd, 0x0e, 0x18, 0x25, 0xcc, 0xcf,
  0xf4, 0x1a, 0x47, 0x81, 0xe3, 0x5a, 0x02, 0x01, 0x3f, 0x20, 0xb9, 0x1b, 0xf9, 0x09, 0xd7, 0xea,
  0x71, 0xb6, 0xdc, 0x1d, 0xdb, 0x2a, 0x78, 0x0e, 0x27, 0xdc, 0x3c, 0xb8, 0xbc, 0xde, 0x07, 0x9f,
  0x07, 0xc8, 0xec, 0xcb, 0xcd, 0xd7, 0xa4, 0x63, 0x22, 0xe9, 0xc3, 0x06, 0x04, 0x5e, 0x11, 0xf9,
  0xbb, 0x76, 0x16, 0xaf, 0x0a, 0xf0, 0x5e, 0xed, 0x96, 0x04, 0xe6, 0x32, 0xce, 0x9a, 0xbf, 0x3e,
  0x15, 0xe9, 0x13, 0x24, 0xaf, 0xec, 0x3c, 0x37, 0x7f, 0xb2, 0x03, 0xac, 0x4f, 0x89, 0x31, 0xb1,
  0x0f, 0x17, 0xd5, 0xee, 0x34, 0x00, 0x36, 0x19, 0x17, 0x04, 0x61, 0x0e, 0xfd, 0x1e, 0xc4, 0x01,
  0x0a, 0x19, 0x14, 0x35, 0xa3, 0xfb, 0x27, 0x08, 0x16, 0xaa, 0x49, 0xc2, 0xf9, 0x30, 0xf6, 0x0b,
  0x13, 0x54, 0x0b, 0x29, 0xe3, 0xc3, 0xb0, 0x14, 0xf7, 0x20, 0xe3, 0x7f, 0x48, 0x6d, 0x1a, 0x40,
  0x1e, 0xb5, 0x6d, 0x41, 0xe4, 0xd7, 0xeb, 0xe4, 0x11, 0xd6, 0x17, 0xa1, 0x1f, 0x1d, 0x10, 0x07,
  0xa9, 0x24, 0x54, 0xa7, 0xf2, 0x41, 0x12, 0x1f, 0xd4, 0xe9, 0xbc, 0xfb, 0x09, 0x08, 0x05, 0xd1,
  0x48, 0x29, 0xfb, 0x1c, 0xa7, 0x21, 0x54, 0xed, 0x46, 0xfd, 0x31, 0xd6, 0x05, 0x10, 0xf6, 0xc2,
  0x4c, 0xbe, 0x21, 0x23, 0x81, 0xae, 0x0a, 0x0d, 0x36, 0xc7, 0xd9, 0xf8, 0x12, 0x21, 0x21, 0xe9,
  0xa7, 0x35, 0x34, 0xb2, 0x27, 0x0f, 0x16, 0xf7, 0xc6, 0xe0, 0xba, 0x29, 0xce, 0xd9, 0xbf, 0xf8,
  0xf2, 0x86, 0xfa, 0x15, 0xd7, 0x2b, 0x73, 0x37, 0xfb, 0x81, 0xfb, 0x89, 0xb3, 0x86, 0x51, 0xb4,
  0xe8, 0x18, 0x12, 0xd9, 0x48, 0x15, 0xd5, 0x24, 0xd7, 0x04, 0xfc, 0x06, 0xf3, 0x10, 0xdd, 0x15,
  0xf6, 0x18, 0x5e, 0xe1, 0xff, 0x41, 0x09, 0x15, 0x30, 0x07, 0xea, 0xee, 0x18, 0x17, 0xfe, 0x14,
  0x4f, 0x2a, 0xf8, 0xfa, 0xcd, 0x18, 0x0a, 0xf8, 0xf6, 0x17, 0x02, 0x1b, 0x16, 0x45, 0xcb, 0xeb,
  0x21, 0xb8, 0x4d, 0x1b, 0xaf, 0xae, 0xbd, 0x32, 0x3e, 0x16, 0x81, 0xb3, 0x59, 0x61, 0x39, 0x2a,
  0xc5, 0x05, 0xdb, 0x21, 0xeb, 0xe3, 0xe7, 0xf7, 0x9c, 0xed, 0xf4, 0x5e, 0xc8, 0xd9, 0x25, 0xb2,
  0xc6, 0xf9, 0x1e, 0x46, 0xc4, 0x22, 0x19, 0x29, 0x4f, 0x46, 0x0c, 0x89, 0x0c, 0x81, 0x56, 0x49,
  0x09, 0xdb, 0xea, 0xe3, 0x7a, 0x2c, 0xa7, 0xd8, 0xd1, 0x08, 0x4d, 0x11, 0xc0, 0x0e, 0x08, 0xcc,
  0xed, 0xca, 0xc9, 0x3b, 0x45, 0xed, 0xbc, 0x23, 0x18, 0x2b, 0x13, 0xda, 0xca, 0xf2, 0xc5, 0x33,
  0xe2, 0x05, 0xa7, 0xd9, 0x19, 0x5f, 0x24, 0x44, 0xb1, 0xa9, 0xdc, 0x03, 0xa9, 0xf7, 0x1e, 0xf0,
  0xca, 0xeb, 0xd4, 0x81, 0x6d, 0xf1, 0xa1, 0xd1, 0xd5, 0x46, 0xfa, 0x30, 0xdc, 0xe5, 0xc4, 0xe5,
  0x6a, 0xfc, 0x04, 0x26, 0x01, 0xdd, 0xe0, 0xc4, 0x3c, 0x18, 0x51, 0x85, 0x0b, 0x1c, 0xd4, 0x2b,
  0x00, 0x4d, 0xc2, 0xdb, 0x30, 0xaa, 0xea, 0x34, 0xe0, 0x40, 0xcc, 0x7c, 0x4a, 0x66, 0xb6, 0x0d,
  0xd5, 0x9c, 0x1a, 0x6a, 0xda, 0x81, 0x27, 0x29, 0x26, 0x0c, 0xeb, 0x8a, 0xf5, 0x42, 0xff, 0xea,
  0xc9, 0xed, 0xd0, 0x0f, 0x33, 0xfe, 0xc7, 0x0c, 0xb7, 0xff, 0xfb, 0x41, 0xb0, 0xc9, 0xbd, 0xe9,
  0xcf, 0xb3, 0xdf, 0xec, 0xd4, 0x78, 0x14, 0x4f, 0xff, 0xca, 0x0f, 0xb0, 0xd4, 0xa8, 0x57, 0x01,
  0xe6, 0x20, 0xed, 0x9f, 0x7f, 0x1a, 0xb6, 0xe4, 0xd7, 0x24, 0x1b, 0x3e, 0x12, 0xd2, 0xc3, 0x09,
  0x1d, 0xee, 0xbe, 0x08, 0xf0, 0xce, 0xf4, 0xd9, 0xd0, 0x05, 0x39, 0xf1, 0xeb, 0xf1, 0x17, 0xf0,
  0xfd, 0x26, 0x1e, 0xfd, 0xe1, 0xc6, 0xe6, 0x1d, 0x33, 0x64, 0xea, 0xff, 0x14, 0x09, 0x19, 0x40,
  0xf4, 0xb0, 0xb1, 0x16, 0xfc, 0x26, 0x24, 0x28, 0xfb, 0x08, 0x7f, 0xcb, 0xba, 0xeb, 0xff, 0xff,
  0x04, 0x00, 0x00, 0x00, 0x00, 0x01, 0x00, 0x00, 0x98, 0xfe, 0xff, 0xff, 0x88, 0xf2, 0xff, 0xff,
  0x4e, 0xfa, 0xff, 0xff, 0x74, 0xff, 0xff, 0xff, 0x60, 0xfa, 0xff, 0xff, 0xc7, 0x01, 0x00, 0x00,
  0x53, 0xfb, 0xff, 0xff, 0xc8, 0xfa, 0xff, 0xff, 0x99, 0xfc, 0xff, 0xff, 0xd9, 0xf9, 0xff, 0xff,
  0x1a, 0xff, 0xff, 0xff, 0x72, 0x02, 0x00, 0x00, 0x39, 0xfb, 0xff, 0xff, 0x00, 0xfd, 0xff, 0xff,
  0x95, 0x00, 0x00, 0x00, 0xd0, 0xff, 0xff, 0xff, 0x67, 0xfc, 0xff, 0xff, 0x9d, 0xf8, 0xff, 0xff,
  0xab, 0xf9, 0xff, 0xff, 0x8c, 0xfd, 0xff, 0xff, 0xa7, 0xfb, 0xff, 0xff, 0x72, 0x00, 0x00, 0x00,
  0xcf, 0x01, 0x00, 0x00, 0x39, 0xfd, 0xff, 0xff, 0x93, 0x02, 0x00, 0x00, 0x7e, 0xf3, 0xff, 0xff,
  0xbd, 0xfe, 0xff, 0xff, 0xc7, 0xfc, 0xff, 0xff, 0x35, 0x00, 0x00, 0x00, 0xfb, 0x03, 0x00, 0x00,
  0xd2, 0x00, 0x00, 0x00, 0xec, 0xf8, 0xff, 0xff, 0xdf, 0xfe, 0xff, 0xff, 0x06, 0xff, 0xff, 0xff,
  0xb9, 0x00, 0x00, 0x00, 0x41, 0xf7, 0xff, 0xff, 0x88, 0xfe, 0xff, 0xff, 0x55, 0xff, 0xff, 0xff,
  0x51, 0xfe, 0xff, 0xff, 0xa1, 0x03, 0x00, 0x00, 0x38, 0xff, 0xff, 0xff, 0x45, 0xff, 0xff, 0xff,
  0x64, 0x02, 0x00, 0x00, 0xf4, 0xf6, 0xff, 0xff, 0x93, 0xf8, 0xff, 0xff, 0xdb, 0xfe, 0xff, 0xff,
  0x6f, 0xfa, 0xff, 0xff, 0x91, 0x00, 0x00, 0x00, 0x42, 0x02, 0x00, 0x00, 0x85, 0xff, 0xff, 0xff,
  0xf3, 0xfb, 0xff, 0xff, 0xac, 0x00, 0x00, 0x00, 0x80, 0xfa, 0xff, 0xff, 0xfa, 0xf9, 0xff, 0xff,
  0x76, 0xf5, 0xff, 0xff, 0x2c, 0xf9, 0xff, 0xff, 0xb8, 0xf9, 0xff, 0xff, 0x49, 0x03, 0x00, 0x00,
  0xdc, 0xf9, 0xff, 0xff, 0x24, 0xf5, 0xff, 0xff, 0x48, 0x01, 0x00, 0x00, 0x47, 0xfd, 0xff, 0xff,
  0x60, 0xfe, 0xff, 0xff, 0x38, 0xfc, 0xff, 0xff, 0xc6, 0xec, 0xff, 0xff, 0x04, 0x00, 0x00, 0x00,
  0x00, 0x10, 0x00, 0x00, 0x0d, 0x04, 0xf4, 0xd3, 0xa0, 0xd9, 0xfd, 0x07, 0xf7, 0xc7, 0x75, 0x79,
  0x1a, 0xa6, 0x57, 0xf4, 0xdf, 0x0c, 0x5a, 0xbc, 0xa7, 0xd0, 0xc8, 0xf9, 0xfe, 0x21, 0x34, 0x0c,
  0xe0, 0xf1, 0xcb, 0xe1, 0xaf, 0xbd, 0x5a, 0xef, 0xa8, 0x33, 0xba, 0x12, 0x12, 0x51, 0xf8, 0x37,
  0x4c, 0x2f, 0xd7, 0x5e, 0xf0, 0x7f, 0x06, 0xf5, 0xf4, 0xcd, 0x47, 0x13, 0xb7, 0xec, 0xe2, 0x43,
  0x27, 0x2f, 0xd6, 0x00, 0x0a, 0x2e, 0x4b, 0xf1, 0xcf, 0xa1, 0xc6, 0xd7, 0xdd, 0xb5, 0xbb, 0x0a,
  0xaa, 0xb3, 0x23, 0xe6, 0x18, 0xd2, 0x33, 0x03, 0xb8, 0x06, 0x99, 0x30, 0xc5, 0x37, 0xda, 0xe1,
  0x2e, 0x4e, 0xf4, 0xe9, 0x27, 0xa6, 0xaf, 0xd0, 0xc8, 0xac, 0xd3, 0xc5, 0x1c, 0xeb, 0x22, 0x35,
  0x6f, 0xa7, 0x36, 0xd7, 0xf4, 0xeb, 0x3f, 0x7b, 0x20, 0xc4, 0x1b, 0xc8, 0xfd, 0x7f, 0xd9, 0xef,
  0x87, 0x38, 0xbc, 0x14, 0x6c, 0x38, 0x8f, 0x9f, 0xe1, 0xeb, 0xea, 0x1d, 0x33, 0x0d, 0xc2, 0x3a,
  0x30, 0xc3, 0xfa, 0xef, 0xe5, 0x01, 0xe6, 0xf5, 0xcd, 0x44, 0xf7, 0x37, 0x98, 0xb5, 0xfb, 0x7f,
  0x1d, 0x09, 0xe3, 0xb4, 0x07, 0x04, 0xbf, 0xf5, 0xb8, 0x5d, 0xec, 0x0f, 0xeb, 0xc5, 0xc0, 0x86,
  0xa9, 0xa5, 0x3a, 0xfb, 0xd5, 0xf5, 0x23, 0x33, 0x99, 0xb1, 0xf6, 0xfe, 0xfa, 0xe4, 0x09, 0x0b,
  0xee, 0x5c, 0xfc, 0x07, 0xd7, 0x8b, 0x6a, 0x67, 0x1a, 0x10, 0x17, 0xdf, 0xd0, 0x05, 0x19, 0xe8,
  0x0a, 0x64, 0xe9, 0xe1, 0x5f, 0x60, 0xab, 0xe8, 0x21, 0xc2, 0xcd, 0x39, 0x49, 0x06, 0xcb, 0xac,
  0xce, 0x00, 0x33, 0xa7, 0xe6, 0x67, 0x4c, 0x81, 0x1c, 0x0d, 0x38, 0xd7, 0x4e, 0xda, 0x15, 0x02,
  0xb8, 0x45, 0xf8, 0x20, 0x37, 0xe3, 0x3d, 0x07, 0x75, 0x2a, 0xc7, 0x33, 0x21, 0xd9, 0x43, 0xc8,
  0xf2, 0x03, 0xd9, 0xf6, 0xc4, 0xbe, 0xee, 0x0d, 0x18, 0x7f, 0xf8, 0xee, 0xff, 0x13, 0x46, 0x08,
  0x11, 0x05, 0xff, 0xc1, 0x12, 0x2f, 0x09, 0xf1, 0x16, 0xbd, 0xe6, 0x4a, 0x49, 0x09, 0x2d, 0xf6,
  0xfc, 0x08, 0x2e, 0xf7, 0xca, 0x4a, 0x6b, 0xd3, 0xe3, 0x2a, 0xfa, 0xf8, 0x43, 0x0b, 0x54, 0x1f,
  0x10, 0x4e, 0x21, 0x6a, 0x47, 0x1f, 0xf6, 0xdd, 0xfb, 0xfb, 0xe6, 0xd8, 0x0c, 0xde, 0xde, 0x29,
  0x47, 0xf4, 0x55, 0x15, 0x4a, 0xad, 0xb2, 0xde, 0x12, 0x23, 0xb5, 0xff, 0x08, 0x73, 0xd6, 0xf4,
  0x2f, 0x4a, 0x2d, 0x4b, 0x31, 0x2e, 0xa0, 0x68, 0x18, 0x0c, 0x5e, 0x4d, 0xfe, 0x90, 0x11, 0x35,
  0xf9, 0x30, 0xfc, 0x99, 0xec, 0x1e, 0xca, 0xc2, 0x44, 0x02, 0x1f, 0xfb, 0x4a, 0xa7, 0xf1, 0x81,
  0x8e, 0x07, 0x43, 0x17, 0xe3, 0x0d, 0x24, 0x7e, 0xb4, 0xeb, 0x94, 0x15, 0x30, 0x89, 0x19, 0x11,
  0x1f, 0x15, 0xf9, 0x13, 0x19, 0x29, 0xae, 0xf0, 0x22, 0xaf, 0xd4, 0x29, 0x3e, 0x0c, 0x9c, 0x40,
  0xd4, 0xba, 0x14, 0x44, 0x14, 0xea, 0xf3, 0x4c, 0xfa, 0x1d, 0x73, 0xcc, 0x81, 0x8f, 0x17, 0x56,
  0x46, 0x41, 0xd3, 0xdf, 0x29, 0xe6, 0xe0, 0x10, 0x24, 0x3b, 0xee, 0x25, 0x06, 0xdc, 0x99, 0x87,
  0xb6, 0xa3, 0x27, 0xd0, 0x90, 0xa6, 0xf6, 0x54, 0x8c, 0x95, 0xff, 0x5b, 0xdf, 0xb9, 0x32, 0x08,
  0xb2, 0x1f, 0xed, 0x1d, 0xe5, 0x04, 0xe9, 0xe9, 0x26, 0xc8, 0xe6, 0xfb, 0xd3, 0xea, 0xdd, 0xfd,
  0x4a, 0x21, 0xca, 0xe5, 0xf8, 0x7f, 0xe6, 0x08, 0x15, 0xf0, 0x47, 0x4b, 0xc5, 0x06, 0xd4, 0xcd,
  0x42, 0x19, 0xc0, 0xfb, 0x69, 0xd3, 0x39, 0xf6, 0x2d, 0x49, 0xfb, 0x2e, 0x18, 0xed, 0xd9, 0xed,
  0xfd, 0x27, 0xeb, 0x0e, 0xc5, 0xe4, 0x3a, 0xee, 0xff, 0xef, 0x15, 0x56, 0xf9, 0xfb, 0x36, 0xb0,
  0xc7, 0x09, 0xbc, 0x0b, 0xc9, 0xf5, 0x4c, 0x0a, 0x3b, 0xc8, 0x1f, 0x21, 0x20, 0xf1, 0xbc, 0x09,
  0x78, 0xbf, 0xbb, 0xc9, 0x15, 0x49, 0xf7, 0x98, 0x01, 0xab, 0x93, 0x3f, 0xd6, 0xf0, 0xe5, 0x1a,
  0xad, 0x81, 0xb6, 0x21, 0x12, 0xdf, 0xfa, 0x21, 0xd3, 0xaf, 0x1f, 0xf0, 0x1c, 0x01, 0xe2, 0x2d,
  0x33, 0xa3, 0x0a, 0xce, 0xe2, 0xdf, 0x2f, 0xb1, 0x0a, 0xde, 0x47, 0xfb, 0x67, 0x01, 0x5c, 0x45,
  0xd7, 0xf7, 0xf5, 0x3c, 0x53, 0x1a, 0x02, 0x3d, 0xed, 0x8d, 0x00, 0x26, 0x2b, 0x2a, 0xc6, 0x2e,
  0xea, 0xcc, 0xe5, 0x1c, 0x17, 0xf1, 0x2e, 0x48, 0x30, 0x32, 0x13, 0x14, 0x81, 0xc1, 0xa6, 0x4a,
  0x22, 0x0f, 0xb7, 0xf5, 0x61, 0xc8, 0xba, 0xe9, 0x1c, 0x02, 0x0a, 0x01, 0xd0, 0xb1, 0x8c, 0xb5,
  0xad, 0x8e, 0x4f, 0xbe, 0x81, 0x98, 0x57, 0x5b, 0xe3, 0xb2, 0x35, 0x28, 0x09, 0xdc, 0x37, 0x0a,
  0xa1, 0x07, 0xa8, 0x35, 0x39, 0xbb, 0x02, 0xe1, 0x59, 0xd0, 0xd1, 0xd7, 0x0e, 0xf1, 0x26, 0x1b,
  0x43, 0x20, 0xf9, 0x26, 0x59, 0x46, 0x93, 0x38, 0x54, 0x4a, 0x24, 0x7f, 0xcb, 0x85, 0xb6, 0xf5,
  0x44, 0x09, 0xda, 0x94, 0x63, 0x46, 0x25, 0x9e, 0xf8, 0x54, 0x2b, 0x59, 0x09, 0xab, 0xcf, 0x84,
  0x98, 0xc9, 0x31, 0x02, 0xe4, 0xfa, 0xf4, 0xff, 0xc0, 0xd0, 0xca, 0x46, 0x06, 0xc4, 0x51, 0x06,
  0x15, 0x39, 0xb7, 0xdb, 0xdf, 0x1f, 0x40, 0xfc, 0xe9, 0x63, 0x21, 0x08, 0xf0, 0x18, 0x48, 0xe8,
  0xda, 0xfa, 0x1e, 0xd6, 0xdf, 0xdc, 0xe0, 0xf3, 0x0b, 0xd3, 0x01, 0xe4, 0x74, 0x2c, 0x02, 0xde,
  0xff, 0x28, 0x33, 0x2a, 0xe8, 0x1d, 0x38, 0xe6, 0x16, 0x34, 0x03, 0xdc, 0x3e, 0x2b, 0x55, 0x1e,
  0x49, 0x75, 0xea, 0x65, 0x42, 0x76, 0xcd, 0xf2, 0x40, 0x0d, 0x13, 0xcd, 0xed, 0x26, 0xef, 0xfe,
  0x7f, 0xea, 0x44, 0xe6, 0xfb, 0x0f, 0xee, 0x03, 0xe3, 0x21, 0x1e, 0x08, 0x0b, 0x06, 0x0c, 0xea,
  0xb5, 0xfc, 0xff, 0xf1, 0xdb, 0xd0, 0xdb, 0x21, 0xe4, 0xee, 0x1b, 0xc7, 0x51, 0x37, 0x04, 0x26,
  0xe1, 0x0d, 0x13, 0x12, 0xd7, 0xfe, 0xd3, 0xe8, 0xde, 0xd3, 0x01, 0xf7, 0xe1, 0x7f, 0xfc, 0x2f,
  0x60, 0xfa, 0xe5, 0x45, 0x54, 0x08, 0xf6, 0x1e, 0x06, 0x17, 0x4b, 0xce, 0xe9, 0x52, 0xd2, 0x2f,
  0x3a, 0xce, 0x77, 0xf7, 0x60, 0x17, 0xf5, 0x06, 0x42, 0xda, 0x23, 0xf0, 0xdb, 0x33, 0xd6, 0xfe,
  0xda, 0x14, 0xd0, 0x49, 0x38, 0x2a, 0x06, 0x5d, 0x37, 0x0c, 0x38, 0xef, 0xc9, 0xed, 0xe1, 0xe9,
  0x35, 0xf7, 0xc2, 0x3a, 0x0f, 0xce, 0xea, 0x0e, 0x3c, 0x49, 0x4a, 0xfd, 0xde, 0xe6, 0xbe, 0xf9,
  0xce, 0xbb, 0xea, 0xf5, 0xe0, 0xbe, 0x22, 0x7f, 0xf2, 0xe9, 0xdf, 0x38, 0x2b, 0x20, 0x47, 0xc5,
  0xb4, 0xff, 0xd6, 0xe6, 0xc4, 0xda, 0x19, 0x0c, 0xe9, 0x5b, 0xfa, 0xc8, 0xe2, 0x14, 0x6b, 0x29,
  0x1d, 0xd0, 0x03, 0xdb, 0x24, 0x54, 0x13, 0xb7, 0xce, 0xcc, 0xfb, 0x60, 0x2a, 0x27, 0xe8, 0xd5,
  0xf3, 0x14, 0x0a, 0xf4, 0xce, 0xe6, 0x7f, 0xcc, 0xf2, 0x15, 0xfc, 0x08, 0x3a, 0x0f, 0x66, 0xef,
  0x04, 0x1d, 0xdb, 0xde, 0x18, 0x12, 0x02, 0xcb, 0x12, 0x24, 0xcf, 0xf9, 0xf3, 0xea, 0x30, 0xef,
  0x58, 0x10, 0x1a, 0x16, 0x5f, 0xf3, 0xb5, 0xe3, 0x0b, 0x15, 0xce, 0xdc, 0xf7, 0x08, 0x0b, 0x24,
  0x2f, 0xf7, 0x1d, 0x60, 0xf0, 0x0b, 0xbc, 0x0e, 0x1b, 0x2f, 0x19, 0xf8, 0xd2, 0xc2, 0xec, 0xfe,
  0x7f, 0x43, 0x40, 0xa9, 0xf3, 0x3c, 0xf6, 0xe6, 0xea, 0x50, 0xd4, 0x01, 0x16, 0xfa, 0xbd, 0x93,
  0xa3, 0x2a, 0x60, 0x4a, 0xc1, 0xdb, 0x04, 0x6b, 0xc4, 0xc2, 0xbc, 0x49, 0xd2, 0xe0, 0xf6, 0x56,
  0x2e, 0x23, 0x22, 0x26, 0x14, 0x15, 0x5b, 0x7f, 0xfb, 0xfe, 0x62, 0x27, 0x26, 0x56, 0xf4, 0xb9,
  0xeb, 0x67, 0xc0, 0xf7, 0x00, 0x18, 0x3e, 0xcc, 0x49, 0xce, 0xaf, 0xbf, 0x37, 0x5d, 0xcc, 0x0e,
  0x9e, 0x95, 0x1c, 0xf1, 0xfc, 0xd2, 0xd0, 0x10, 0x65, 0x9b, 0x21, 0xc3, 0xa3, 0x6a, 0x4f, 0x2d,
  0x50, 0xfb, 0xe4, 0xf4, 0x53, 0xca, 0xee, 0xda, 0x65, 0x52, 0xf4, 0xe8, 0x62, 0xf9, 0x28, 0x08,
  0x44, 0xda, 0xf0, 0x08, 0x06, 0x42, 0xfb, 0x9a, 0xa1, 0x39, 0xcf, 0x01, 0xf2, 0x81, 0x0f, 0x53,
  0x0c, 0xce, 0xf5, 0x07, 0xc7, 0xdf, 0x41, 0xdc, 0xad, 0x18, 0x11, 0x15, 0x1b, 0x1b, 0x1d, 0xed,
  0x12, 0x4b, 0x12, 0x10, 0xe9, 0xd4, 0x46, 0x11, 0xaa, 0x04, 0xd2, 0x2b, 0x0c, 0x07, 0x30, 0x10,
  0xf6, 0x07, 0xb9, 0x19, 0xfa, 0x4e, 0xd1, 0xe8, 0x08, 0xd8, 0x01, 0xf2, 0xa4, 0x3f, 0xa7, 0xf2,
  0x26, 0x1a, 0xf5, 0xd1, 0xd8, 0xd2, 0x54, 0x64, 0x0a, 0x23, 0x1c, 0x06, 0x0c, 0x46, 0x35, 0xf6,
  0xec, 0x7f, 0x1e, 0xef, 0x13, 0x22, 0xfe, 0xd6, 0x65, 0xd6, 0xe0, 0x22, 0x47, 0xf4, 0x14, 0xe6,
  0xf8, 0xdc, 0x2f, 0x1c, 0xe7, 0x4c, 0x10, 0x00, 0x5f, 0xe0, 0x21, 0xd7, 0x27, 0x04, 0x0c, 0x4f,
  0xdd, 0xf4, 0x08, 0xf7, 0x67, 0x30, 0xe6, 0xf5, 0x3d, 0x5c, 0xfc, 0xdb, 0xfc, 0x19, 0x0b, 0xe5,
  0x28, 0xea, 0x2c, 0xe2, 0x24, 0x2b, 0xef, 0xd8, 0xd5, 0xca, 0xc2, 0x4d, 0x43, 0xc9, 0x01, 0x26,
  0xba, 0xcb, 0x4a, 0x7f, 0xd8, 0xaa, 0x24, 0x68, 0x09, 0x45, 0x39, 0xbc, 0x03, 0xc3, 0x59, 0x25,
  0x21, 0x57, 0xf4, 0xf1, 0x13, 0xde, 0xb9, 0x56, 0xc5, 0x16, 0xf1, 0x34, 0x01, 0x4b, 0xed, 0xfd,
  0xf3, 0xe8, 0x1a, 0x21, 0xbb, 0x08, 0x01, 0x5a, 0xce, 0xe3, 0x3e, 0x34, 0xdc, 0xec, 0xd4, 0xe7,
  0x08, 0xbd, 0x41, 0x1e, 0x2b, 0x3f, 0x19, 0xef, 0xec, 0x2c, 0x2c, 0x1a, 0x3a, 0xd0, 0x0c, 0xe1,
  0xbc, 0xd1, 0x27, 0x14, 0xbc, 0xb6, 0x10, 0xf3, 0xd6, 0x33, 0xe0, 0xc5, 0x25, 0x41, 0x4e, 0x43,
  0xe2, 0x3a, 0x29, 0x1a, 0xe1, 0xe8, 0xd3, 0x54, 0xc8, 0x09, 0xfd, 0xe2, 0x0b, 0x5f, 0x1b, 0x46,
  0x41, 0x02, 0x18, 0x25, 0xfa, 0x56, 0xe7, 0xf6, 0xe6, 0x10, 0x32, 0xef, 0xeb, 0x08, 0xaf, 0x16,
  0x3b, 0xbe, 0x7f, 0xec, 0xd2, 0x23, 0x24, 0x3c, 0x01, 0xcc, 0x3f, 0x0e, 0xeb, 0x33, 0x1a, 0xa6,
  0x46, 0x31, 0xc2, 0xc7, 0x43, 0x56, 0xf6, 0x9a, 0x31, 0xc4, 0xac, 0x1e, 0xce, 0x4e, 0xa9, 0xf0,
  0xa5, 0x81, 0xbd, 0xf3, 0x36, 0xc8, 0xc2, 0x25, 0x47, 0xc1, 0xf8, 0xfb, 0xea, 0x23, 0xfe, 0x08,
  0x21, 0xc2, 0xe4, 0xba, 0xbf, 0xb2, 0x28, 0xbd, 0x02, 0x18, 0x21, 0x1a, 0x12, 0xf8, 0x0c, 0x06,
  0xb6, 0x28, 0xe4, 0x4c, 0x25, 0xd4, 0x37, 0xfb, 0xf6, 0xf7, 0x01, 0x27, 0xeb, 0x2b, 0xe4, 0xdb,
  0x8f, 0x76, 0xf2, 0x4d, 0xba, 0xa6, 0xfb, 0x66, 0x1a, 0x47, 0xf3, 0xdf, 0x04, 0xfb, 0xf9, 0x01,
  0x34, 0xfb, 0xfb, 0xd5, 0x11, 0x5b, 0xc4, 0xdd, 0x5a, 0x0f, 0x7f, 0xc3, 0xf7, 0x2a, 0x20, 0x10,
  0x00, 0xfa, 0x2f, 0x0c, 0x03, 0xf5, 0x07, 0x51, 0x38, 0x42, 0xf8, 0xcc, 0x2d, 0x0a, 0x30, 0x06,
  0x09, 0xc8, 0x2b, 0xe4, 0xc8, 0xfa, 0x36, 0x54, 0x34, 0x33, 0x55, 0xfc, 0xee, 0x06, 0x4f, 0xf4,
  0xe2, 0x7f, 0x0f, 0xdf, 0xfd, 0xf3, 0xdc, 0xc9, 0x49, 0xe0, 0xe2, 0x04, 0x26, 0x07, 0x13, 0xfc,
  0xde, 0xd4, 0x0e, 0x21, 0xfe, 0x21, 0x2f, 0x16, 0x60, 0x0f, 0x36, 0xe3, 0xd4, 0x04, 0x2f, 0x28,
  0x08, 0x58, 0xf5, 0x18, 0x53, 0x38, 0xef, 0xff, 0x6b, 0x51, 0x14, 0xe4, 0x1a, 0x17, 0x42, 0x1a,
  0x66, 0xbf, 0x03, 0xd4, 0x35, 0x32, 0x94, 0x8a, 0xcf, 0xf0, 0xcc, 0xfd, 0x05, 0xe3, 0x21, 0x4c,
  0x26, 0x8f, 0xde, 0x12, 0x17, 0x36, 0x0d, 0xc0, 0xb1, 0x02, 0xdd, 0x45, 0xc6, 0xe2, 0x1a, 0xfc,
  0xf9, 0x55, 0xf8, 0xfc, 0x1d, 0x04, 0x34, 0x2c, 0x95, 0x3f, 0xaf, 0x29, 0x7f, 0x2a, 0x14, 0xe2,
  0x34, 0x44, 0xc6, 0xf4, 0xbb, 0xdc, 0x48, 0xda, 0xb3, 0xa9, 0x21, 0x22, 0xc5, 0x02, 0xf1, 0x2e,
  0xc2, 0xf9, 0x18, 0x5f, 0xdd, 0x0c, 0x14, 0xf7, 0xee, 0x30, 0x52, 0xd5, 0xeb, 0xc6, 0x49, 0x0c,
  0x30, 0x31, 0xf4, 0xc6, 0x07, 0x07, 0xfd, 0xbf, 0x20, 0xd8, 0xd5, 0x01, 0x70, 0x4f, 0x12, 0xeb,
  0xe3, 0xf4, 0x3a, 0x4a, 0xfc, 0xf4, 0x50, 0xf2, 0x0e, 0x0a, 0x20, 0x05, 0x50, 0x50, 0x72, 0x6e,
  0x5e, 0x7f, 0xc9, 0x37, 0x20, 0x29, 0xd9, 0xd6, 0x03, 0x20, 0x05, 0x01, 0xdc, 0xeb, 0x37, 0xdb,
  0x03, 0x08, 0x08, 0x14, 0xd8, 0x41, 0xca, 0x02, 0x86, 0x0e, 0x1e, 0xe6, 0x06, 0x81, 0x37, 0x4c,
  0xfc, 0xd9, 0xde, 0xd6, 0xcd, 0x11, 0x05, 0xe8, 0x98, 0xf9, 0xf6, 0x28, 0x27, 0x78, 0x2d, 0x20,
  0xeb, 0x20, 0x02, 0x12, 0xff, 0xa9, 0x30, 0x1a, 0x8b, 0x10, 0xa7, 0x2e, 0x0e, 0x65, 0x21, 0x3a,
  0xfa, 0x34, 0xe2, 0xff, 0x14, 0x3a, 0xf9, 0xe7, 0xd5, 0x0d, 0x30, 0xdd, 0xbd, 0x16, 0xd7, 0xb1,
  0x06, 0x35, 0x24, 0x02, 0x01, 0x68, 0x34, 0x2d, 0x37, 0x9a, 0x0f, 0x66, 0x31, 0x19, 0x89, 0xc6,
  0x3f, 0xd6, 0x98, 0xc7, 0x19, 0x27, 0x40, 0xfe, 0xcb, 0x0b, 0xf9, 0xf8, 0xaf, 0xfc, 0xc0, 0x3d,
  0xcc, 0xd9, 0x98, 0x08, 0xfe, 0xbd, 0x9e, 0xff, 0x17, 0xc2, 0x44, 0xe4, 0xd0, 0xd9, 0xa3, 0x0e,
  0x08, 0xa6, 0x57, 0x95, 0x81, 0x9a, 0x47, 0x02, 0xea, 0xfe, 0x62, 0x50, 0x0b, 0xd4, 0x01, 0xfb,
  0x9e, 0x27, 0xf5, 0x7e, 0x6a, 0xdf, 0x44, 0x61, 0x30, 0x0c, 0x4d, 0xe3, 0x41, 0xf9, 0xea, 0xcd,
  0xbc, 0x4b, 0x01, 0x5b, 0x10, 0xbd, 0xf7, 0x6b, 0x7f, 0x61, 0x09, 0xb0, 0xee, 0x00, 0xdc, 0x1a,
  0x31, 0xfe, 0x22, 0x2c, 0x4a, 0x49, 0xbc, 0xed, 0x7c, 0x2f, 0x72, 0xd6, 0xe2, 0x17, 0x02, 0xe5,
  0xca, 0xd3, 0x2d, 0x0e, 0xf4, 0x04, 0x33, 0x31, 0x1d, 0xe2, 0xfa, 0x0b, 0x47, 0xe8, 0x0d, 0xdc,
  0xe4, 0x9f, 0xd3, 0xd9, 0xf5, 0x4a, 0x08, 0xc1, 0xb5, 0x13, 0x2f, 0x08, 0x1b, 0xa4, 0x1e, 0x2b,
  0xd3, 0x07, 0x30, 0x06, 0xcb, 0xbd, 0x7f, 0xcd, 0xeb, 0xf2, 0xf4, 0xd5, 0x02, 0x6e, 0x0f, 0xd7,
  0xf5, 0x34, 0x19, 0x28, 0xc2, 0xe3, 0xf6, 0x71, 0x0c, 0x06, 0xe0, 0x25, 0xee, 0x05, 0x05, 0x1b,
  0x58, 0x3c, 0xea, 0x07, 0x06, 0xf2, 0x0f, 0xd9, 0x34, 0x26, 0x63, 0xc2, 0x1f, 0x1d, 0x8c, 0xed,
  0x29, 0xe0, 0x4c, 0x06, 0x3b, 0x0b, 0x37, 0x07, 0xf5, 0x5d, 0x29, 0xf5, 0xfb, 0xfa, 0x1b, 0xc1,
  0x9b, 0xe6, 0x4e, 0x46, 0xae, 0x9b, 0x36, 0x14, 0xd4, 0xff, 0x2c, 0xa2, 0x0b, 0x43, 0x23, 0x2f,
  0xdc, 0xe9, 0x49, 0x24, 0xd2, 0xd1, 0x03, 0x33, 0xea, 0xd2, 0x1c, 0xa1, 0xf0, 0xf7, 0x22, 0x3a,
  0x49, 0xe5, 0x0d, 0x23, 0x5c, 0x0d, 0xcb, 0x3b, 0x14, 0xea, 0xf9, 0xad, 0xf3, 0x61, 0xb2, 0x40,
  0x55, 0xc0, 0x7f, 0x28, 0xcd, 0x7f, 0x8c, 0xa4, 0xbf, 0xc5, 0x07, 0x63, 0xd3, 0x02, 0xbf, 0x57,
  0x20, 0xa6, 0x21, 0x21, 0x07, 0xe7, 0xf9, 0x12, 0xa8, 0x21, 0xbd, 0xf7, 0x03, 0x57, 0xf9, 0x3b,
  0xc9, 0x14, 0xed, 0xf0, 0x0c, 0xe7, 0xde, 0x52, 0x9f, 0xca, 0x9b, 0x44, 0xfa, 0xc7, 0xfe, 0x14,
  0x23, 0x18, 0x00, 0xf5, 0xd6, 0xdf, 0x42, 0x08, 0xb9, 0x8b, 0xf9, 0x12, 0xec, 0x30, 0xfb, 0x30,
  0xd1, 0x35, 0x1f, 0x2a, 0x7d, 0x53, 0x3c, 0xcb, 0x51, 0xd5, 0x19, 0x7d, 0x61, 0xdd, 0x9d, 0xf1,
  0xa8, 0x01, 0xde, 0x7f, 0x23, 0xf4, 0xf9, 0x0e, 0x29, 0xd6, 0xe0, 0xbb, 0xaa, 0xed, 0x33, 0x74,
  0xdd, 0xbc, 0xc9, 0x40, 0x64, 0x01, 0x96, 0x72, 0x53, 0xae, 0x7f, 0xde, 0xaf, 0x74, 0x87, 0x11,
  0xc6, 0xa0, 0x36, 0xf1, 0x9b, 0xa8, 0x30, 0x7d, 0x30, 0xf4, 0x56, 0xce, 0x28, 0x4b, 0x35, 0x2f,
  0xe5, 0xef, 0xd3, 0x2e, 0xf2, 0x1c, 0xd9, 0x00, 0xde, 0x0e, 0xdd, 0x63, 0x3d, 0xd4, 0xe1, 0x03,
  0xba, 0xef, 0x0c, 0x59, 0xd6, 0xbc, 0x21, 0x1c, 0xfa, 0x7b, 0x70, 0xd2, 0xec, 0xef, 0x07, 0xfa,
  0x52, 0x11, 0x12, 0x10, 0x2d, 0xe4, 0xf6, 0x29, 0xef, 0x05, 0xfb, 0xf6, 0xd6, 0x37, 0xf7, 0x2d,
  0xfd, 0x07, 0xfe, 0x2d, 0xfa, 0x17, 0x3c, 0x7f, 0xe9, 0x03, 0xea, 0x11, 0x0c, 0xd7, 0xde, 0xec,
  0x1a, 0xce, 0x1f, 0xd8, 0xdc, 0x9c, 0xe9, 0xf3, 0xd8, 0x4d, 0xa1, 0xac, 0xf6, 0x02, 0xf2, 0xe4,
  0xfe, 0xf6, 0xec, 0xf4, 0x02, 0xa3, 0x95, 0xad, 0xa5, 0xeb, 0xd8, 0x2d, 0x97, 0x3f, 0x81, 0xcf,
  0x10, 0xc0, 0x19, 0x9d, 0x88, 0x4c, 0xf1, 0x54, 0x96, 0x36, 0x50, 0xf0, 0x36, 0x0b, 0xda, 0x3f,
  0x8b, 0x20, 0xeb, 0xd2, 0xab, 0xfd, 0x35, 0x23, 0xcd, 0xee, 0x3d, 0xe6, 0xd3, 0x92, 0xbe, 0xff,
  0xcb, 0xd9, 0xb9, 0x96, 0x5b, 0x10, 0x49, 0x61, 0xf0, 0xbb, 0x10, 0xd2, 0xa9, 0x53, 0xdc, 0x28,
  0x3d, 0x57, 0xa1, 0xd7, 0x44, 0x4f, 0xfe, 0xdb, 0x14, 0x71, 0x16, 0xfa, 0xf6, 0x0a, 0x95, 0xe1,
  0x44, 0x0d, 0xaa, 0x27, 0x35, 0x41, 0x42, 0xca, 0x65, 0x2d, 0x5d, 0xfc, 0x16, 0xbc, 0xd8, 0x19,
  0xdd, 0xde, 0xf9, 0xdb, 0xda, 0xb2, 0x56, 0x14, 0x42, 0x0a, 0xc9, 0x64, 0x34, 0x19, 0xfb, 0xda,
  0xbe, 0x5a, 0x81, 0xdc, 0x00, 0xe3, 0xc6, 0xee, 0xe6, 0x9c, 0xa8, 0x30, 0x4f, 0xdf, 0xad, 0x3c,
  0x1c, 0xc7, 0x06, 0x3b, 0x29, 0x07, 0x04, 0x0c, 0xfc, 0x60, 0x66, 0x0a, 0x81, 0x94, 0x0f, 0x2e,
  0x59, 0x3d, 0xdd, 0xed, 0x03, 0xc7, 0xd4, 0x27, 0x0b, 0x15, 0xff, 0x36, 0x04, 0xbb, 0x8d, 0xb0,
  0x99, 0x9b, 0x19, 0xc8, 0xc2, 0xee, 0x1d, 0x52, 0x8f, 0x9c, 0x17, 0x2a, 0xf6, 0xb4, 0x01, 0x41,
  0xb0, 0xf0, 0xf6, 0x32, 0xdf, 0xe7, 0xd6, 0xb3, 0xeb, 0xf5, 0xc6, 0xe1, 0xef, 0xc6, 0x0c, 0x53,
  0x48, 0xc1, 0x14, 0xe5, 0x01, 0x1a, 0xef, 0xcf, 0xc3, 0x05, 0xf5, 0x1f, 0x5b, 0xf6, 0x10, 0xca,
  0x22, 0x49, 0xf5, 0x24, 0xf5, 0xd5, 0x2a, 0x1d, 0xb4, 0x2b, 0xb7, 0x25, 0x7f, 0x26, 0x0a, 0xf5,
  0xf2, 0x5d, 0xbd, 0x19, 0x3b, 0x4b, 0x21, 0xef, 0xdf, 0xe1, 0x07, 0xff, 0xd6, 0x1a, 0xd5, 0xc0,
  0x40, 0x69, 0xe6, 0xc5, 0xf2, 0x64, 0x1d, 0x1a, 0xf0, 0x1a, 0x27, 0x62, 0x45, 0xb9, 0x0e, 0x14,
  0xd9, 0xde, 0x20, 0xd7, 0xbc, 0xcd, 0x50, 0xe2, 0xc3, 0xd4, 0xc9, 0xe2, 0x22, 0x66, 0x15, 0x34,
  0xbd, 0x24, 0x19, 0x52, 0x08, 0xae, 0xe5, 0x12, 0x27, 0xc2, 0x19, 0x02, 0xba, 0x76, 0x1c, 0x7f,
  0x4d, 0xfa, 0xc0, 0xec, 0x21, 0x32, 0x14, 0xbe, 0x42, 0xc6, 0x6a, 0xe2, 0xe8, 0x5f, 0xd8, 0x32,
  0xfb, 0xe6, 0x08, 0xf4, 0x29, 0x05, 0xa3, 0xab, 0xbd, 0xdf, 0xcc, 0x00, 0x3a, 0xbd, 0x06, 0xd3,
  0x1a, 0xc1, 0xdb, 0xf6, 0x1f, 0x06, 0x14, 0x08, 0xc8, 0xe9, 0x18, 0x12, 0xf2, 0x17, 0xe4, 0x07,
  0x1d, 0x44, 0x21, 0x10, 0x04, 0x06, 0x11, 0xed, 0xa1, 0xfb, 0xba, 0x69, 0x47, 0x17, 0xe8, 0xfd,
  0x03, 0x0b, 0x26, 0xd5, 0xec, 0x1d, 0x01, 0xd3, 0xd3, 0xad, 0x1a, 0x06, 0xc9, 0xe0, 0xf8, 0x22,
  0x26, 0x7f, 0x31, 0x23, 0x04, 0xea, 0x42, 0x23, 0x19, 0xd2, 0x32, 0x1e, 0xd5, 0x2d, 0xb8, 0xb3,
  0x17, 0x12, 0xb0, 0x00, 0x0a, 0x2f, 0x3e, 0xd8, 0x30, 0xec, 0xe4, 0x04, 0xd6, 0x55, 0xab, 0xcd,
  0xcd, 0x99, 0x86, 0x2a, 0x30, 0x00, 0xf9, 0x21, 0x2e, 0xcf, 0x35, 0x0a, 0xc1, 0xee, 0xdd, 0x0c,
  0xf2, 0xe5, 0xcd, 0x81, 0xc9, 0xcd, 0x34, 0xc9, 0x6f, 0x53, 0x08, 0xeb, 0x0c, 0xe9, 0x47, 0xe9,
  0xdf, 0x17, 0xb5, 0xc8, 0x62, 0xbf, 0x8a, 0x00, 0xf6, 0xa4, 0x20, 0x5f, 0x06, 0xff, 0xa5, 0x13,
  0xe5, 0xd8, 0xe3, 0x7f, 0xe6, 0xe2, 0x13, 0x78, 0xe2, 0x08, 0x28, 0xd6, 0xa8, 0xd1, 0xde, 0x74,
  0x11, 0x11, 0xba, 0x2a, 0x4d, 0xef, 0xbb, 0xef, 0xde, 0xd7, 0xbf, 0x23, 0xcb, 0xca, 0xbc, 0x1f,
  0xbc, 0xc2, 0x29, 0xd6, 0xac, 0xd8, 0x1b, 0x1e, 0xc7, 0xc3, 0xfd, 0x50, 0xdc, 0x04, 0x24, 0x3f,
  0xda, 0xe3, 0xf0, 0x29, 0x48, 0x28, 0xf9, 0x03, 0xde, 0x2f, 0xea, 0x41, 0x45, 0xe9, 0xd0, 0xf1,
  0xd1, 0xf5, 0x62, 0x2e, 0xe8, 0xcf, 0x1b, 0x53, 0xdb, 0x5e, 0x2d, 0xac, 0xfe, 0xe6, 0x2c, 0x79,
  0x19, 0x33, 0x1c, 0x24, 0x11, 0x28, 0xed, 0x4c, 0xd4, 0x2b, 0xe1, 0xd4, 0xaa, 0x1f, 0x0a, 0xdc,
  0x09, 0xfe, 0x28, 0x61, 0x0c, 0xeb, 0xda, 0x7f, 0xdd, 0xda, 0x1d, 0xc3, 0xec, 0xfb, 0xbd, 0x67,
  0x35, 0x9f, 0x60, 0xfc, 0xd2, 0xbe, 0x03, 0x23, 0x25, 0xf0, 0xb7, 0xa1, 0xbf, 0x41, 0x38, 0xe7,
  0x48, 0x24, 0x27, 0x18, 0x11, 0x4e, 0x9b, 0x04, 0x04, 0xd1, 0x08, 0x4b, 0xf4, 0x9b, 0xc9, 0xd8,
  0x30, 0xe1, 0x04, 0x96, 0x21, 0x7f, 0x07, 0x96, 0x33, 0x45, 0x08, 0xda, 0x5a, 0xae, 0x14, 0x81,
  0x98, 0x17, 0xff, 0x0a, 0x33, 0x20, 0xf1, 0x17, 0x01, 0xc2, 0x82, 0x66, 0x0a, 0x8f, 0x71, 0x02,
  0x4e, 0x46, 0xd1, 0x1b, 0x20, 0xef, 0x23, 0x13, 0x33, 0xa6, 0x0d, 0x15, 0xc6, 0x36, 0x19, 0xec,
  0x19, 0x3d, 0xa0, 0xda, 0x3f, 0x16, 0xeb, 0xd1, 0x23, 0x13, 0x33, 0x0b, 0xee, 0x0b, 0xb8, 0xde,
  0x36, 0xda, 0xa0, 0x10, 0x04, 0xd3, 0x02, 0xdf, 0x4c, 0xee, 0x41, 0x62, 0xd6, 0xeb, 0xcf, 0x09,
  0xef, 0xda, 0xf9, 0xd0, 0x97, 0xbf, 0x4c, 0xf0, 0x18, 0x20, 0xfa, 0x1d, 0x01, 0x02, 0x32, 0xc6,
  0x9b, 0x7f, 0xab, 0xbb, 0xc9, 0xde, 0x9b, 0x95, 0xef, 0x4f, 0x96, 0xbd, 0xde, 0xe9, 0x35, 0x60,
  0x7f, 0xbc, 0x06, 0xed, 0x46, 0x5b, 0xaa, 0x10, 0xcb, 0x17, 0x5a, 0x35, 0x1b, 0xae, 0x01, 0xda,
  0x31, 0x65, 0x0b, 0xcc, 0x2b, 0x16, 0x49, 0xca, 0xad, 0x49, 0x94, 0x20, 0x51, 0xdc, 0x5d, 0xe7,
  0xef, 0x60, 0x14, 0x14, 0x49, 0x2a, 0xf3, 0x3f, 0x92, 0xae, 0xc9, 0x5c, 0xa5, 0xbd, 0xea, 0xc8,
  0x18, 0x1c, 0xd5, 0x38, 0x30, 0xdf, 0x13, 0x28, 0x39, 0x81, 0x0d, 0x20, 0x11, 0x2a, 0xac, 0x09,
  0xfe, 0x46, 0xad, 0xe4, 0x50, 0xfc, 0x2f, 0xda, 0x25, 0x55, 0x13, 0x00, 0x85, 0x23, 0xc5, 0xd1,
  0x3f, 0xee, 0x9c, 0x44, 0x09, 0xbc, 0xcb, 0x1e, 0x3e, 0x07, 0xe4, 0x22, 0xd8, 0xcb, 0x84, 0xf6,
  0xf0, 0xc4, 0xec, 0x8e, 0x84, 0x83, 0x18, 0xe1, 0xf7, 0x35, 0x21, 0x24, 0x32, 0x0f, 0x4e, 0xd2,
  0x9d, 0x32, 0x8b, 0x16, 0x66, 0xf6, 0x3a, 0x64, 0xf6, 0xf6, 0x2b, 0xea, 0x7c, 0x4e, 0xb4, 0xa6,
  0x8b, 0x56, 0xfd, 0x2a, 0xf8, 0xa5, 0x43, 0x6b, 0x68, 0x76, 0x50, 0x90, 0xc8, 0xef, 0xf5, 0x2b,
  0x1f, 0xd6, 0x0d, 0x22, 0x49, 0x20, 0x90, 0x1c, 0x7c, 0xc6, 0x3f, 0xa7, 0x81, 0xf1, 0xd7, 0xe7,
  0x2f, 0xc7, 0x52, 0xe8, 0xf3, 0xfd, 0xdb, 0x54, 0xca, 0x30, 0x25, 0x07, 0x12, 0x26, 0xeb, 0x43,
  0xe3, 0x8c, 0x53, 0xe5, 0xef, 0x95, 0xdc, 0xc0, 0x48, 0x5b, 0xa2, 0xad, 0xe7, 0x46, 0x2b, 0x16,
  0x67, 0x0e, 0xfa, 0xbd, 0x1b, 0x47, 0x81, 0xe7, 0x2d, 0xac, 0xe9, 0x33, 0x1d, 0xa6, 0xd2, 0xf3,
  0x47, 0x15, 0x4a, 0x9f, 0xd4, 0x49, 0x38, 0xb3, 0xdd, 0x4a, 0xcb, 0xf5, 0x0b, 0xc9, 0x1b, 0xbb,
  0xbc, 0x0e, 0x3d, 0x26, 0x1f, 0x46, 0x07, 0xde, 0xc9, 0xe0, 0x93, 0x2e, 0xc5, 0x82, 0x03, 0xeb,
  0x46, 0x20, 0xe6, 0xff, 0x0c, 0xe1, 0x0c, 0x0a, 0xfc, 0x5b, 0xe3, 0x1d, 0xfc, 0xe2, 0x67, 0x34,
  0xef, 0xf3, 0x5b, 0x13, 0xdf, 0xf3, 0xe3, 0x1e, 0xf8, 0x1f, 0xe9, 0x18, 0x43, 0xf1, 0x49, 0x1a,
  0xf9, 0x36, 0x7f, 0x0b, 0xe2, 0x2b, 0x27, 0x1d, 0xfa, 0x46, 0xea, 0xe4, 0x2b, 0x04, 0x53, 0xe6,
  0x08, 0x5d, 0x03, 0x2b, 0x74, 0x4a, 0xcc, 0x11, 0xf5, 0xf3, 0xe7, 0x08, 0xd6, 0x0b, 0xee, 0xfb,
  0x5c, 0xe9, 0x38, 0xfc, 0xf0, 0xfb, 0xf3, 0xf0, 0x00, 0x5f, 0xe2, 0x16, 0x1f, 0x07, 0x41, 0x05,
  0xee, 0xe6, 0x54, 0x20, 0xde, 0x17, 0xe3, 0x3c, 0xfd, 0x0d, 0x2e, 0x28, 0x54, 0x10, 0x3f, 0xe4,
  0x50, 0x40, 0x72, 0xd2, 0xeb, 0x53, 0x0f, 0x04, 0xf3, 0x1f, 0xee, 0xf6, 0x06, 0xf9, 0x21, 0xe4,
  0x08, 0x35, 0x13, 0x7f, 0x5d, 0x51, 0xe0, 0x30, 0xe3, 0xe5, 0x0a, 0xda, 0xd4, 0x16, 0xfa, 0x03,
  0x52, 0xfc, 0x4e, 0x15, 0xe6, 0x42, 0xc6, 0xa7, 0xa5, 0xe6, 0xff, 0x04, 0x03, 0xd8, 0x4c, 0xf5,
  0x29, 0xaa, 0x07, 0xc1, 0xe6, 0x17, 0x43, 0xae, 0xa0, 0x28, 0xf4, 0x19, 0x14, 0x49, 0x1a, 0x07,
  0xf1, 0xeb, 0xe9, 0xff, 0xff, 0xaf, 0x0b, 0x46, 0x81, 0xe5, 0x9f, 0x0e, 0x23, 0x0b, 0xff, 0x3d,
  0x24, 0x13, 0x0a, 0x2e, 0xdf, 0x0c, 0xe3, 0xfd, 0xd0, 0xb2, 0x18, 0xf4, 0xf2, 0xf0, 0xd2, 0x18,
  0xf3, 0x4f, 0xef, 0x3a, 0xdf, 0xe0, 0x18, 0x7f, 0x63, 0xa6, 0xe7, 0x30, 0x08, 0x1c, 0xbc, 0xcf,
  0x41, 0x71, 0x9c, 0xdb, 0xd8, 0x10, 0xff, 0xc2, 0x3e, 0xeb, 0xea, 0x26, 0xef, 0x1c, 0xa8, 0xd9,
  0xca, 0xcc, 0xb3, 0x31, 0x25, 0xd0, 0x2e, 0x0c, 0xe9, 0xd4, 0x24, 0x03, 0xe7, 0x15, 0x10, 0x55,
  0x11, 0xd0, 0xdc, 0xa1, 0xbc, 0xb6, 0x43, 0xdd, 0x14, 0x7b, 0x31, 0x0b, 0x1f, 0x49, 0x03, 0xc7,
  0x89, 0xfe, 0xab, 0xb9, 0x07, 0xe7, 0x96, 0xb1, 0xdc, 0xd6, 0x98, 0x03, 0x16, 0xdf, 0x4e, 0x4e,
  0x29, 0xb1, 0x38, 0x0e, 0x2c, 0x02, 0x21, 0x71, 0xfa, 0x30, 0x28, 0x2c, 0xb8, 0xc7, 0xdb, 0x44,
  0x7d, 0x7f, 0x09, 0xbe, 0xf0, 0xd0, 0x0f, 0x0c, 0xa9, 0x44, 0xc0, 0x73, 0x7c, 0xd8, 0xf0, 0xc1,
  0xc8, 0xf4, 0x1a, 0x71, 0xc0, 0x1f, 0xf5, 0x3a, 0xa1, 0xb0, 0xe4, 0x29, 0xbd, 0xb3, 0x03, 0x0e,
  0xae, 0x24, 0x02, 0x48, 0xd9, 0xf1, 0xad, 0xa6, 0xba, 0x00, 0x18, 0xfa, 0x03, 0x81, 0xff, 0x4f,
  0x26, 0x9c, 0x3f, 0xca, 0xfb, 0x17, 0x32, 0xba, 0xb7, 0xd8, 0xe7, 0x56, 0x06, 0xe5, 0xfa, 0xde,
  0xfa, 0x1a, 0x37, 0x20, 0xd8, 0xb6, 0x35, 0x3c, 0x86, 0xfa, 0xce, 0x64, 0x71, 0x58, 0x23, 0x52,
  0x4b, 0xc6, 0xcf, 0x40, 0x5e, 0xc9, 0xe7, 0xc0, 0xed, 0xdb, 0xe6, 0x26, 0x9f, 0xf5, 0xcf, 0xdb,
  0x0d, 0x68, 0x28, 0xf2, 0x4b, 0xf2, 0x09, 0xdf, 0xc3, 0x7f, 0x03, 0x08, 0x52, 0xd7, 0x11, 0x34,
  0xe9, 0xc2, 0x33, 0x23, 0xb5, 0xa7, 0x51, 0x12, 0xb9, 0x3d, 0x31, 0xd3, 0x08, 0x40, 0x78, 0x21,
  0xd1, 0x2d, 0x41, 0x12, 0xd0, 0xf6, 0xf4, 0x02, 0xb9, 0xe4, 0xbc, 0x25, 0xdc, 0x77, 0x57, 0xf6,
  0x2d, 0x5d, 0xef, 0x36, 0x61, 0x21, 0xd9, 0xe1, 0x1a, 0xe7, 0x52, 0xab, 0xca, 0x4a, 0xe5, 0x48,
  0x33, 0xaa, 0x7c, 0xe2, 0xbd, 0xa6, 0xd2, 0xd6, 0xdd, 0xff, 0xf9, 0xa3, 0xa9, 0xf7, 0x74, 0x34,
  0x19, 0xf7, 0xee, 0xcd, 0x07, 0x28, 0xe6, 0xfe, 0x05, 0xfb, 0x09, 0x68, 0x49, 0xcc, 0x05, 0xb1,
  0xf5, 0x59, 0x18, 0xe6, 0xc9, 0x44, 0x5d, 0xa0, 0xe2, 0x5d, 0xcd, 0x3b, 0x7f, 0x08, 0x04, 0x0f,
  0x18, 0x52, 0x10, 0x58, 0x44, 0x37, 0xcf, 0xfa, 0xcf, 0x08, 0xcc, 0xf1, 0xb1, 0x0d, 0x1e, 0xe8,
  0x18, 0x55, 0x07, 0x06, 0xe0, 0xd7, 0xf3, 0x0d, 0x18, 0x7c, 0xee, 0x07, 0x09, 0xf7, 0x28, 0x12,
  0xf7, 0x1d, 0x4a, 0xef, 0xec, 0x0b, 0x10, 0xd0, 0xfb, 0xd1, 0x09, 0x1b, 0x7f, 0x30, 0x5b, 0x12,
  0xf8, 0x20, 0x6f, 0xde, 0xec, 0x5b, 0x5c, 0xf9, 0x0f, 0x0d, 0xeb, 0xf0, 0x1a, 0x2c, 0x5c, 0x03,
  0x22, 0x72, 0xf2, 0x68, 0x50, 0x32, 0xd2, 0xd6, 0x02, 0x0b, 0xdb, 0xd3, 0xcc, 0x00, 0x04, 0xf2,
  0x4a, 0xf6, 0xf5, 0x0a, 0x6d, 0xff, 0x6a, 0x17, 0x42, 0xe5, 0x55, 0x22, 0xd9, 0x42, 0xe8, 0xc2,
  0xcd, 0xf2, 0xe1, 0x28, 0xe4, 0xbf, 0xf7, 0x7f, 0x58, 0x2c, 0x51, 0xaa, 0x11, 0xf9, 0x27, 0x07,
  0x3a, 0xe4, 0x32, 0xf0, 0x33, 0x35, 0xc6, 0x0e, 0x3b, 0xff, 0x20, 0xe4, 0xba, 0x11, 0x22, 0x19,
  0x03, 0xdd, 0x11, 0xe1, 0x02, 0xed, 0xde, 0x34, 0x55, 0x5d, 0xe8, 0x05, 0x27, 0x26, 0x23, 0xfd,
  0xf1, 0x88, 0x01, 0xb0, 0xdf, 0xc2, 0xf3, 0x1f, 0xae, 0xa2, 0x98, 0x31, 0xcc, 0x01, 0xec, 0x40,
  0xac, 0xd8, 0x10, 0xf6, 0xf7, 0x00, 0xe9, 0xec, 0xf0, 0xa8, 0xeb, 0xc3, 0x47, 0xef, 0xe1, 0x01,
  0xf0, 0x9c, 0xd9, 0x81, 0x9c, 0x45, 0x98, 0x93, 0x1f, 0xed, 0x18, 0x40, 0xc8, 0x9c, 0x13, 0x15,
  0xd6, 0xf3, 0xcd, 0xe2, 0x2a, 0x97, 0x9a, 0x3d, 0x0c, 0x91, 0xdf, 0xdb, 0xaf, 0xef, 0xcf, 0xf9,
  0xb1, 0x27, 0x03, 0xb9, 0x86, 0xbf, 0x3c, 0x25, 0xea, 0xe4, 0xc3, 0x81, 0xc8, 0xbb, 0x94, 0xd7,
  0xaf, 0x95, 0x9a, 0x46, 0xec, 0x18, 0x1a, 0x10, 0xc0, 0x0e, 0x39, 0xaa, 0x22, 0x0d, 0xc9, 0xc1,
  0xa0, 0xaa, 0x93, 0xed, 0x27, 0xa9, 0x95, 0x46, 0x9e, 0xbc, 0x84, 0xf4, 0x82, 0xed, 0x94, 0xe6,
  0x10, 0x00, 0x34, 0x17, 0x34, 0x9f, 0x10, 0x35, 0x1c, 0x40, 0x99, 0xdd, 0x05, 0xa2, 0x19, 0x3f,
  0xa7, 0xb9, 0xf7, 0xca, 0xfd, 0x0b, 0x34, 0x21, 0x31, 0xc1, 0x5a, 0xf1, 0x08, 0x34, 0xa4, 0xd4,
  0xff, 0x10, 0x98, 0xc7, 0x00, 0xfa, 0x05, 0xed, 0x4e, 0xfb, 0x08, 0x23, 0xbb, 0x31, 0x9f, 0xfc,
  0xf9, 0xcc, 0x81, 0x28, 0x4b, 0xdb, 0xef, 0x0a, 0x29, 0xf6, 0x53, 0x01, 0x13, 0xe3, 0xbf, 0x3e,
  0xf0, 0x9d, 0xdf, 0x81, 0x9e, 0xac, 0x11, 0xbd, 0x26, 0x46, 0x1c, 0x17, 0xee, 0x24, 0x4f, 0xc4,
  0x92, 0x31, 0x97, 0xe3, 0xc1, 0x43, 0x0f, 0xf4, 0x15, 0xb6, 0x0a, 0x20, 0x6f, 0x46, 0xa6, 0xdb,
  0x25, 0xd2, 0xbc, 0x00, 0x11, 0x27, 0x2e, 0xd4, 0xdb, 0xe2, 0x21, 0x00, 0x81, 0x11, 0xbe, 0x56,
  0xcf, 0xdd, 0xb9, 0x06, 0x32, 0xe1, 0xa6, 0x70, 0xe8, 0xa7, 0xd2, 0x2b, 0xbc, 0xef, 0xd3, 0x4a,
  0x1d, 0x88, 0x24, 0xb4, 0xbc, 0xd1, 0x3c, 0xd4, 0x17, 0x18, 0x63, 0x0f, 0x4c, 0xd5, 0x11, 0x70,
  0xa0, 0x0c, 0x30, 0x44, 0xc1, 0x06, 0x5b, 0x69, 0xf8, 0xd4, 0x20, 0x3d, 0x42, 0x25, 0xf1, 0xc2,
  0xcd, 0x03, 0xcc, 0x27, 0xfc, 0xff, 0x70, 0xb2, 0xee, 0x27, 0xb4, 0xdf, 0xff, 0x51, 0x56, 0xe7,
  0x9a, 0xbe, 0xf3, 0x42, 0x35, 0xee, 0xa9, 0x13, 0xf6, 0x84, 0x5b, 0xcb, 0xd1, 0x7f, 0xd8, 0x5e,
  0x1f, 0xf0, 0x10, 0xc7, 0xdd, 0xff, 0xe6, 0xc7, 0x2a, 0x22, 0x7c, 0xe0, 0x18, 0x77, 0x21, 0x63,
  0x01, 0xc4, 0x1a, 0x21, 0xd2, 0xfc, 0xff, 0xff, 0x04, 0x00, 0x00, 0x00, 0x00, 0x01, 0x00, 0x00,
  0x49, 0xfd, 0xff, 0xff, 0x62, 0x27, 0x00, 0x00, 0x8c, 0x54, 0x00, 0x00, 0x55, 0x04, 0x00, 0x00,
  0xbe, 0xe4, 0xff, 0xff, 0x2f, 0x2b, 0x00, 0x00, 0x00, 0x34, 0x00, 0x00, 0x32, 0x39, 0x00, 0x00,
  0x5e, 0x41, 0x00, 0x00, 0xf4, 0x3f, 0x00, 0x00, 0x5a, 0x3a, 0x00, 0x00, 0x74, 0xe3, 0xff, 0xff,
  0x43, 0xee, 0xff, 0xff, 0xb8, 0x0e, 0x00, 0x00, 0x0d, 0x06, 0x00, 0x00, 0x78, 0x1a, 0x00, 0x00,
  0x1e, 0xff, 0xff, 0xff, 0xcd, 0xcf, 0xff, 0xff, 0x03, 0xdb, 0xff, 0xff, 0x4f, 0x14, 0x00, 0x00,
  0xa9, 0xe8, 0xff, 0xff, 0x7e, 0x3e, 0x00, 0x00, 0x9e, 0xf6, 0xff, 0xff, 0x5d, 0xdd, 0xff, 0xff,
  0x2e, 0x33, 0x00, 0x00, 0x30, 0xef, 0xff, 0xff, 0xbd, 0xdd, 0xff, 0xff, 0x34, 0x7a, 0x00, 0x00,
  0x7b, 0xeb, 0xff, 0xff, 0x11, 0xe0, 0xff, 0xff, 0x1b, 0xe6, 0xff, 0xff, 0x22, 0x37, 0x00, 0x00,
  0xe6, 0x33, 0x00, 0x00, 0xc7, 0xed, 0xff, 0xff, 0xae, 0xe6, 0xff, 0xff, 0xf6, 0xf9, 0xff, 0xff,
  0x8b, 0x2d, 0x00, 0x00, 0x30, 0x0f, 0x00, 0x00, 0x8e, 0xf1, 0xff, 0xff, 0x6c, 0x2a, 0x00, 0x00,
  0xc9, 0x0d, 0x00, 0x00, 0xcc, 0x51, 0x00, 0x00, 0x59, 0xf0, 0xff, 0xff, 0x0c, 0x1b, 0x00, 0x00,
  0x61, 0x2c, 0x00, 0x00, 0xe8, 0x39, 0x00, 0x00, 0x08, 0x30, 0x00, 0x00, 0x97, 0x1e, 0x00, 0x00,
  0xf6, 0x1f, 0x00, 0x00, 0x56, 0xee, 0xff, 0xff, 0xc2, 0xea, 0xff, 0xff, 0x17, 0x35, 0x00, 0x00,
  0x67, 0xf6, 0xff, 0xff, 0xc4, 0x33, 0x00, 0x00, 0x19, 0x04, 0x00, 0x00, 0xb5, 0xf6, 0xff, 0xff,
  0x3e, 0x0d, 0x00, 0x00, 0x3f, 0xe1, 0xff, 0xff, 0x68, 0xe0, 0xff, 0xff, 0xc2, 0xd8, 0xff, 0xff,
  0x78, 0xd3, 0xff, 0xff, 0x04, 0x13, 0x00, 0x00, 0x42, 0x60, 0x00, 0x00, 0xce, 0x29, 0x00, 0x00,
  0xde, 0xfd, 0xff, 0xff, 0x04, 0x00, 0x00, 0x00, 0x40, 0x01, 0x00, 0x00, 0xa2, 0xe3, 0xbe, 0x33,
  0xcf, 0x07, 0xe7, 0x12, 0x3f, 0x3b, 0x09, 0xe0, 0xc3, 0x36, 0xf5, 0xa2, 0x39, 0xec, 0x1a, 0x9a,
  0xdb, 0x4f, 0x0d, 0x22, 0xba, 0x07, 0x10, 0x38, 0x21, 0x0c, 0xc6, 0xe5, 0x20, 0xbd, 0xf4, 0x43,
  0xd8, 0xdc, 0x0e, 0xbc, 0x77, 0x0b, 0xab, 0xea, 0x4f, 0xa1, 0x4d, 0x05, 0xa8, 0x81, 0x96, 0xb3,
  0x66, 0x8e, 0xdb, 0xbf, 0xac, 0xac, 0x2a, 0xd5, 0xf6, 0x65, 0x22, 0x25, 0xd0, 0x37, 0x68, 0xb3,
  0xda, 0x47, 0x7d, 0x11, 0xcd, 0x64, 0x2c, 0xaf, 0xda, 0x45, 0x97, 0x40, 0xa0, 0xce, 0x95, 0x20,
  0x14, 0xc0, 0x04, 0xbd, 0x2c, 0x87, 0xd8, 0x1f, 0x15, 0xf0, 0xf0, 0x32, 0x20, 0x3f, 0x0a, 0x20,
  0x7f, 0xe1, 0xec, 0x2f, 0xc7, 0x58, 0x0d, 0xf6, 0x23, 0x0c, 0x26, 0x06, 0xe5, 0xdd, 0xf3, 0xf1,
  0xc6, 0x3f, 0xc6, 0x11, 0xd8, 0xbd, 0x0a, 0xe3, 0xec, 0xf0, 0x15, 0xed, 0xe7, 0x00, 0xef, 0x55,
  0x3a, 0x41, 0xf1, 0x10, 0x9d, 0xbf, 0x32, 0x1b, 0xbe, 0x09, 0x43, 0x3a, 0xd7, 0xcc, 0x22, 0xd0,
  0xe9, 0xbf, 0x10, 0x28, 0x01, 0x10, 0xd4, 0x88, 0xfa, 0xb6, 0xca, 0xbe, 0xaf, 0xc6, 0xeb, 0x1f,
  0xeb, 0x38, 0xae, 0x21, 0xee, 0xb9, 0xde, 0x42, 0x13, 0x32, 0xb6, 0x9b, 0x54, 0x0f, 0x0e, 0xb0,
  0x08, 0x29, 0x06, 0x06, 0x38, 0x1b, 0x02, 0xdb, 0x1b, 0xe3, 0x81, 0xa6, 0x18, 0xe1, 0xa6, 0xcc,
  0x33, 0xa1, 0x9d, 0xd9, 0x54, 0xcc, 0x95, 0x36, 0x14, 0x82, 0x3b, 0xf7, 0x03, 0x7e, 0xfd, 0xf1,
  0x36, 0x39, 0xb7, 0x23, 0x34, 0x23, 0x63, 0x11, 0x84, 0x2e, 0x1a, 0x3a, 0xf9, 0x03, 0xe7, 0x97,
  0xcb, 0x6a, 0x28, 0x4f, 0xc1, 0xf7, 0xfb, 0x83, 0xd3, 0x14, 0xbf, 0xb6, 0xc9, 0x08, 0x09, 0x13,
  0xa7, 0x17, 0x7f, 0x3e, 0x24, 0x19, 0xaa, 0xc8, 0xdb, 0xa6, 0x1a, 0x1b, 0xe3, 0x15, 0x9e, 0xe9,
  0x21, 0x04, 0xde, 0x8c, 0xbb, 0xfa, 0xbb, 0x31, 0x25, 0x00, 0xea, 0x0c, 0x2d, 0xfa, 0x2a, 0x06,
  0x3a, 0xce, 0x42, 0x3a, 0xa1, 0x0a, 0x01, 0xf1, 0x34, 0x23, 0x32, 0xea, 0x20, 0x38, 0xdd, 0xd7,
  0xce, 0xbe, 0x22, 0xbc, 0xe4, 0x0c, 0x13, 0xb8, 0x81, 0x9b, 0xbc, 0x20, 0x93, 0x09, 0x0b, 0xba,
  0xda, 0xd0, 0xcf, 0x33, 0xc5, 0x16, 0x44, 0x18, 0x06, 0xa9, 0xf9, 0x23, 0x2a, 0xff, 0xff, 0xff,
  0x04, 0x00, 0x00, 0x00, 0x14, 0x00, 0x00, 0x00, 0xfd, 0xfc, 0xff, 0xff, 0x4b, 0x07, 0x00, 0x00,
  0x19, 0x04, 0x00, 0x00, 0xbf, 0xfc, 0xff, 0xff, 0xd5, 0xf9, 0xff, 0xff, 0x4a, 0xff, 0xff, 0xff,
  0x04, 0x00, 0x00, 0x00, 0x08, 0x00, 0x00, 0x00, 0x01, 0x00, 0x00, 0x00, 0x02, 0x00, 0x00, 0x00,
  0x9c, 0xcc, 0xff, 0xff, 0xa0, 0xcc, 0xff, 0xff, 0x0f, 0x00, 0x00, 0x00, 0x4d, 0x4c, 0x49, 0x52,
  0x20, 0x43, 0x6f, 0x6e, 0x76, 0x65, 0x72, 0x74, 0x65, 0x64, 0x2e, 0x00, 0x01, 0x00, 0x00, 0x00,
  0x14, 0x00, 0x00, 0x00, 0x00, 0x00, 0x0e, 0x00, 0x18, 0x00, 0x14, 0x00, 0x10, 0x00, 0x0c, 0x00,
  0x08, 0x00, 0x04, 0x00, 0x0e, 0x00, 0x00, 0x00, 0x14, 0x00, 0x00, 0x00, 0x1c, 0x00, 0x00, 0x00,
  0x2c, 0x03, 0x00, 0x00, 0x30, 0x03, 0x00, 0x00, 0x34, 0x03, 0x00, 0x00, 0x04, 0x00, 0x00, 0x00,
  0x6d, 0x61, 0x69, 0x6e, 0x00, 0x00, 0x00, 0x00, 0x0b, 0x00, 0x00, 0x00, 0xc8, 0x02, 0x00, 0x00,
  0x60, 0x02, 0x00, 0x00, 0x10, 0x02, 0x00, 0x00, 0xc8, 0x01, 0x00, 0x00, 0x78, 0x01, 0x00, 0x00,
  0x30, 0x01, 0x00, 0x00, 0xf0, 0x00, 0x00, 0x00, 0xbc, 0x00, 0x00, 0x00, 0x78, 0x00, 0x00, 0x00,
  0x40, 0x00, 0x00, 0x00, 0x04, 0x00, 0x00, 0x00, 0xd6, 0xfd, 0xff, 0xff, 0x1c, 0x00, 0x00, 0x00,
  0x00, 0x00, 0x00, 0x09, 0x1c, 0x00, 0x00, 0x00, 0x20, 0x00, 0x00, 0x00, 0x04, 0x00, 0x00, 0x00,
  0x00, 0x00, 0x06, 0x00, 0x08, 0x00, 0x04, 0x00, 0x06, 0x00, 0x00, 0x00, 0x00, 0x00, 0x80, 0x3f,
  0x01, 0x00, 0x00, 0x00, 0x1e, 0x00, 0x00, 0x00, 0x01, 0x00, 0x00, 0x00, 0x1d, 0x00, 0x00, 0x00,
  0x9e, 0xfe, 0xff, 0xff, 0x14, 0x00, 0x00, 0x00, 0x00, 0x00, 0x00, 0x08, 0x10, 0x00, 0x00, 0x00,
  0x14, 0x00, 0x00, 0x00, 0x03, 0x00, 0x00, 0x00, 0x74, 0xcd, 0xff, 0xff, 0x01, 0x00, 0x00, 0x00,
  0x1d, 0x00, 0x00, 0x00, 0x03, 0x00, 0x00, 0x00, 0x1c, 0x00, 0x00, 0x00, 0x03, 0x00, 0x00, 0x00,
  0x02, 0x00, 0x00, 0x00, 0x42, 0xfe, 0xff, 0xff, 0x1c, 0x00, 0x00, 0x00, 0x00, 0x00, 0x00, 0x08,
  0x1c, 0x00, 0x00, 0x00, 0x20, 0x00, 0x00, 0x00, 0x03, 0x00, 0x00, 0x00, 0x00, 0x00, 0x06, 0x00,
  0x08, 0x00, 0x07, 0x00, 0x06, 0x00, 0x00, 0x00, 0x00, 0x00, 0x00, 0x01, 0x01, 0x00, 0x00, 0x00,
  0x1c, 0x00, 0x00, 0x00, 0x03, 0x00, 0x00, 0x00, 0x1b, 0x00, 0x00, 0x00, 0x05, 0x00, 0x00, 0x00,
  0x04, 0x00, 0x00, 0x00, 0x12, 0xff, 0xff, 0xff, 0x14, 0x00, 0x00, 0x00, 0x00, 0x00, 0x00, 0x1b,
  0x10, 0x00, 0x00, 0x00, 0x14, 0x00, 0x00, 0x00, 0x02, 0x00, 0x00, 0x00, 0xe8, 0xcd, 0xff, 0xff,
  0x01, 0x00, 0x00, 0x00, 0x1b, 0x00, 0x00, 0x00, 0x02, 0x00, 0x00, 0x00, 0x1a, 0x00, 0x00, 0x00,
  0x01, 0x00, 0x00, 0x00, 0x4e, 0xfe, 0xff, 0xff, 0x10, 0x00, 0x00, 0x00, 0x00, 0x00, 0x00, 0x01,
  0x18, 0x00, 0x00, 0x00, 0x1c, 0x00, 0x00, 0x00, 0x40, 0xfe, 0xff, 0xff, 0x00, 0x00, 0x00, 0x01,
  0x01, 0x00, 0x00, 0x00, 0x01, 0x00, 0x00, 0x00, 0x01, 0x00, 0x00, 0x00, 0x1a, 0x00, 0x00, 0x00,
  0x03, 0x00, 0x00, 0x00, 0x19, 0x00, 0x00, 0x00, 0x07, 0x00, 0x00, 0x00, 0x06, 0x00, 0x00, 0x00,
  0x7e, 0xff, 0xff, 0xff, 0x14, 0x00, 0x00, 0x00, 0x00, 0x00, 0x00, 0x02, 0x20, 0x00, 0x00, 0x00,
  0x24, 0x00, 0x00, 0x00, 0x01, 0x00, 0x00, 0x00, 0xde, 0xfe, 0xff, 0xff, 0x00, 0x00, 0x00, 0x01,
  0x01, 0x00, 0x00, 0x00, 0x02, 0x00, 0x00, 0x00, 0x02, 0x00, 0x00, 0x00, 0x01, 0x00, 0x00, 0x00,
  0x19, 0x00, 0x00, 0x00, 0x03, 0x00, 0x00, 0x00, 0x18, 0x00, 0x00, 0x00, 0x09, 0x00, 0x00, 0x00,
  0x08, 0x00, 0x00, 0x00, 0xce, 0xfe, 0xff, 0xff, 0x10, 0x00, 0x00, 0x00, 0x00, 0x00, 0x00, 0x01,
  0x18, 0x00, 0x00, 0x00, 0x1c, 0x00, 0x00, 0x00, 0xc0, 0xfe, 0xff, 0xff, 0x00, 0x00, 0x00, 0x01,
  0x01, 0x00, 0x00, 0x00, 0x01, 0x00, 0x00, 0x00, 0x01, 0x00, 0x00, 0x00, 0x18, 0x00, 0x00, 0x00,
  0x03, 0x00, 0x00, 0x00, 0x17, 0x00, 0x00, 0x00, 0x0b, 0x00, 0x00, 0x00, 0x0a, 0x00, 0x00, 0x00,
  0x00, 0x00, 0x0e, 0x00, 0x18, 0x00, 0x14, 0x00, 0x10, 0x00, 0x0c, 0x00, 0x0b, 0x00, 0x04, 0x00,
  0x0e, 0x00, 0x00, 0x00, 0x14, 0x00, 0x00, 0x00, 0x00, 0x00, 0x00, 0x02, 0x20, 0x00, 0x00, 0x00,
  0x24, 0x00, 0x00, 0x00, 0x01, 0x00, 0x00, 0x00, 0x6e, 0xff, 0xff, 0xff, 0x00, 0x00, 0x00, 0x01,
  0x01, 0x00, 0x00, 0x00, 0x02, 0x00, 0x00, 0x00, 0x02, 0x00, 0x00, 0x00, 0x01, 0x00, 0x00, 0x00,
  0x17, 0x00, 0x00, 0x00, 0x03, 0x00, 0x00, 0x00, 0x16, 0x00, 0x00, 0x00, 0x0d, 0x00, 0x00, 0x00,
  0x0c, 0x00, 0x00, 0x00, 0x5e, 0xff, 0xff, 0xff, 0x10, 0x00, 0x00, 0x00, 0x00, 0x00, 0x00, 0x01,
  0x18, 0x00, 0x00, 0x00, 0x1c, 0x00, 0x00, 0x00, 0x50, 0xff, 0xff, 0xff, 0x00, 0x00, 0x00, 0x01,
  0x01, 0x00, 0x00, 0x00, 0x01, 0x00, 0x00, 0x00, 0x01, 0x00, 0x00, 0x00, 0x16, 0x00, 0x00, 0x00,
  0x03, 0x00, 0x00, 0x00, 0x15, 0x00, 0x00, 0x00, 0x0f, 0x00, 0x00, 0x00, 0x0e, 0x00, 0x00, 0x00,
  0x00, 0x00, 0x0e, 0x00, 0x1a, 0x00, 0x14, 0x00, 0x10, 0x00, 0x0c, 0x00, 0x0b, 0x00, 0x04, 0x00,
  0x0e, 0x00, 0x00, 0x00, 0x24, 0x00, 0x00, 0x00, 0x00, 0x00, 0x00, 0x02, 0x30, 0x00, 0x00, 0x00,
  0x34, 0x00, 0x00, 0x00, 0x01, 0x00, 0x00, 0x00, 0x00, 0x00, 0x0e, 0x00, 0x14, 0x00, 0x00, 0x00,
  0x10, 0x00, 0x0c, 0x00, 0x08, 0x00, 0x07, 0x00, 0x0e, 0x00, 0x00, 0x00, 0x00, 0x00, 0x00, 0x01,
  0x01, 0x00, 0x00, 0x00, 0x02, 0x00, 0x00, 0x00, 0x02, 0x00, 0x00, 0x00, 0x01, 0x00, 0x00, 0x00,
  0x15, 0x00, 0x00, 0x00, 0x03, 0x00, 0x00, 0x00, 0x14, 0x00, 0x00, 0x00, 0x11, 0x00, 0x00, 0x00,
  0x10, 0x00, 0x00, 0x00, 0x00, 0x00, 0x0e, 0x00, 0x14, 0x00, 0x00, 0x00, 0x10, 0x00, 0x0c, 0x00,
  0x0b, 0x00, 0x04, 0x00, 0x0e, 0x00, 0x00, 0x00, 0x1c, 0x00, 0x00, 0x00, 0x00, 0x00, 0x00, 0x01,
  0x24, 0x00, 0x00, 0x00, 0x28, 0x00, 0x00, 0x00, 0x0c, 0x00, 0x10, 0x00, 0x00, 0x00, 0x0c, 0x00,
  0x08, 0x00, 0x07, 0x00, 0x0c, 0x00, 0x00, 0x00, 0x00, 0x00, 0x00, 0x01, 0x02, 0x00, 0x00, 0x00,
  0x02, 0x00, 0x00, 0x00, 0x01, 0x00, 0x00, 0x00, 0x14, 0x00, 0x00, 0x00, 0x03, 0x00, 0x00, 0x00,
  0x00, 0x00, 0x00, 0x00, 0x13, 0x00, 0x00, 0x00, 0x12, 0x00, 0x00, 0x00, 0x01, 0x00, 0x00, 0x00,
  0x1e, 0x00, 0x00, 0x00, 0x01, 0x00, 0x00, 0x00, 0x00, 0x00, 0x00, 0x00, 0x1f, 0x00, 0x00, 0x00,
  0x20, 0x30, 0x00, 0x00, 0xc4, 0x2f, 0x00, 0x00, 0x1c, 0x2f, 0x00, 0x00, 0x88, 0x2e, 0x00, 0x00,
  0x34, 0x2b, 0x00, 0x00, 0xd8, 0x27, 0x00, 0x00, 0x84, 0x24, 0x00, 0x00, 0x20, 0x21, 0x00, 0x00,
  0x8c, 0x1e, 0x00, 0x00, 0xd0, 0x1b, 0x00, 0x00, 0x24, 0x19, 0x00, 0x00, 0x80, 0x16, 0x00, 0x00,
  0xac, 0x14, 0x00, 0x00, 0xc4, 0x12, 0x00, 0x00, 0xec, 0x10, 0x00, 0x00, 0x08, 0x0f, 0x00, 0x00,
  0xf4, 0x0d, 0x00, 0x00, 0xcc, 0x0c, 0x00, 0x00, 0xb4, 0x0b, 0x00, 0x00, 0x90, 0x0a, 0x00, 0x00,
  0x8c, 0x09, 0x00, 0x00, 0x38, 0x08, 0x00, 0x00, 0x2c, 0x07, 0x00, 0x00, 0xd8, 0x05, 0x00, 0x00,
  0xcc, 0x04, 0x00, 0x00, 0x78, 0x03, 0x00, 0x00, 0x6c, 0x02, 0x00, 0x00, 0xf0, 0x01, 0x00, 0x00,
  0x24, 0x01, 0x00, 0x00, 0x80, 0x00, 0x00, 0x00, 0x04, 0x00, 0x00, 0x00, 0x72, 0xd0, 0xff, 0xff,
  0x00, 0x00, 0x00, 0x01, 0x18, 0x00, 0x00, 0x00, 0x20, 0x00, 0x00, 0x00, 0x3c, 0x00, 0x00, 0x00,
  0x1f, 0x00, 0x00, 0x00, 0x00, 0x00, 0x00, 0x09, 0x50, 0x00, 0x00, 0x00, 0x02, 0x00, 0x00, 0x00,
  0xff, 0xff, 0xff, 0xff, 0x05, 0x00, 0x00, 0x00, 0x54, 0xd0, 0xff, 0xff, 0x08, 0x00, 0x00, 0x00,
  0x10, 0x00, 0x00, 0x00, 0x01, 0x00, 0x00, 0x00, 0x80, 0xff, 0xff, 0xff, 0xff, 0xff, 0xff, 0xff,
  0x01, 0x00, 0x00, 0x00, 0x00, 0x00, 0x80, 0x3b, 0x1b, 0x00, 0x00, 0x00, 0x53, 0x74, 0x61, 0x74,
  0x65, 0x66, 0x75, 0x6c, 0x50, 0x61, 0x72, 0x74, 0x69, 0x74, 0x69, 0x6f, 0x6e, 0x65, 0x64, 0x43,
  0x61, 0x6c, 0x6c, 0x5f, 0x31, 0x3a, 0x30, 0x00, 0x02, 0x00, 0x00, 0x00, 0x01, 0x00, 0x00, 0x00,
  0x05, 0x00, 0x00, 0x00, 0xea, 0xd0, 0xff, 0xff, 0x00, 0x00, 0x00, 0x01, 0x18, 0x00, 0x00, 0x00,
  0x20, 0x00, 0x00, 0x00, 0x3c, 0x00, 0x00, 0x00, 0x1e, 0x00, 0x00, 0x00, 0x00, 0x00, 0x00, 0x09,
  0x78, 0x00, 0x00, 0x00, 0x02, 0x00, 0x00, 0x00, 0xff, 0xff, 0xff, 0xff, 0x05, 0x00, 0x00, 0x00,
  0xcc, 0xd0, 0xff, 0xff, 0x08, 0x00, 0x00, 0x00, 0x10, 0x00, 0x00, 0x00, 0x01, 0x00, 0x00, 0x00,
  0x13, 0x00, 0x00, 0x00, 0x00, 0x00, 0x00, 0x00, 0x01, 0x00, 0x00, 0x00, 0xae, 0xe5, 0xc1, 0x3d,
  0x42, 0x00, 0x00, 0x00, 0x46, 0x61, 0x63, 0x65, 0x52, 0x65, 0x63, 0x6f, 0x67, 0x6e, 0x69, 0x7a,
  0x65, 0x72, 0x5f, 0x31, 0x2f, 0x6f, 0x75, 0x74, 0x70, 0x75, 0x74, 0x5f, 0x31, 0x2f, 0x4d, 0x61,
  0x74, 0x4d, 0x75, 0x6c, 0x3b, 0x46, 0x61, 0x63, 0x65, 0x52, 0x65, 0x63, 0x6f, 0x67, 0x6e, 0x69,
  0x7a, 0x65, 0x72, 0x5f, 0x31, 0x2f, 0x6f, 0x75, 0x74, 0x70, 0x75, 0x74, 0x5f, 0x31, 0x2f, 0x42,
  0x69, 0x61, 0x73, 0x41, 0x64, 0x64, 0x00, 0x00, 0x02, 0x00, 0x00, 0x00, 0x01, 0x00, 0x00, 0x00,
  0x05, 0x00, 0x00, 0x00, 0x8a, 0xd1, 0xff, 0xff, 0x00, 0x00, 0x00, 0x01, 0x18, 0x00, 0x00, 0x00,
  0x20, 0x00, 0x00, 0x00, 0x3c, 0x00, 0x00, 0x00, 0x1d, 0x00, 0x00, 0x00, 0x00, 0x00, 0x00, 0x09,
  0xa0, 0x00, 0x00, 0x00, 0x02, 0x00, 0x00, 0x00, 0xff, 0xff, 0xff, 0xff, 0x40, 0x00, 0x00, 0x00,
  0x6c, 0xd1, 0xff, 0xff, 0x08, 0x00, 0x00, 0x00, 0x10, 0x00, 0x00, 0x00, 0x01, 0x00, 0x00, 0x00,
  0x80, 0xff, 0xff, 0xff, 0xff, 0xff, 0xff, 0xff, 0x01, 0x00, 0x00, 0x00, 0xd2, 0x19, 0x4b, 0x3c,
  0x6a, 0x00, 0x00, 0x00, 0x46, 0x61, 0x63, 0x65, 0x52, 0x65, 0x63, 0x6f, 0x67, 0x6e, 0x69, 0x7a,
  0x65, 0x72, 0x5f, 0x31, 0x2f, 0x65, 0x6d, 0x62, 0x65, 0x64, 0x64, 0x69, 0x6e, 0x67, 0x5f, 0x31,
  0x2f, 0x4d, 0x61, 0x74, 0x4d, 0x75, 0x6c, 0x3b, 0x46, 0x61, 0x63, 0x65, 0x52, 0x65, 0x63, 0x6f,
  0x67, 0x6e, 0x69, 0x7a, 0x65, 0x72, 0x5f, 0x31, 0x2f, 0x65, 0x6d, 0x62, 0x65, 0x64, 0x64, 0x69,
  0x6e, 0x67, 0x5f, 0x31, 0x2f, 0x52, 0x65, 0x6c, 0x75, 0x3b, 0x46, 0x61, 0x63, 0x65, 0x52, 0x65,
  0x63, 0x6f, 0x67, 0x6e, 0x69, 0x7a, 0x65, 0x72, 0x5f, 0x31, 0x2f, 0x65, 0x6d, 0x62, 0x65, 0x64,
  0x64, 0x69, 0x6e, 0x67, 0x5f, 0x31, 0x2f, 0x42, 0x69, 0x61, 0x73, 0x41, 0x64, 0x64, 0x00, 0x00,
  0x02, 0x00, 0x00, 0x00, 0x01, 0x00, 0x00, 0x00, 0x40, 0x00, 0x00, 0x00, 0x52, 0xd2, 0xff, 0xff,
  0x00, 0x00, 0x00, 0x01, 0x18, 0x00, 0x00, 0x00, 0x20, 0x00, 0x00, 0x00, 0x3c, 0x00, 0x00, 0x00,
  0x1c, 0x00, 0x00, 0x00, 0x00, 0x00, 0x00, 0x09, 0x50, 0x00, 0x00, 0x00, 0x02, 0x00, 0x00, 0x00,
  0xff, 0xff, 0xff, 0xff, 0x40, 0x00, 0x00, 0x00, 0x34, 0xd2, 0xff, 0xff, 0x08, 0x00, 0x00, 0x00,
  0x10, 0x00, 0x00, 0x00, 0x01, 0x00, 0x00, 0x00, 0x80, 0xff, 0xff, 0xff, 0xff, 0xff, 0xff, 0xff,
  0x01, 0x00, 0x00, 0x00, 0x58, 0xcc, 0x67, 0x3b, 0x1b, 0x00, 0x00, 0x00, 0x46, 0x61, 0x63, 0x65,
  0x52, 0x65, 0x63, 0x6f, 0x67, 0x6e, 0x69, 0x7a, 0x65, 0x72, 0x5f, 0x31, 0x2f, 0x67, 0x61, 0x70,
  0x5f, 0x31, 0x2f, 0x4d, 0x65, 0x61, 0x6e, 0x00, 0x02, 0x00, 0x00, 0x00, 0x01, 0x00, 0x00, 0x00,
  0x40, 0x00, 0x00, 0x00, 0xca, 0xd2, 0xff, 0xff, 0x00, 0x00, 0x00, 0x01, 0x18, 0x00, 0x00, 0x00,
  0x28, 0x00, 0x00, 0x00, 0x48, 0x00, 0x00, 0x00, 0x1b, 0x00, 0x00, 0x00, 0x00, 0x00, 0x00, 0x09,
  0xd8, 0x00, 0x00, 0x00, 0x04, 0x00, 0x00, 0x00, 0xff, 0xff, 0xff, 0xff, 0x06, 0x00, 0x00, 0x00,
  0x06, 0x00, 0x00, 0x00, 0x40, 0x00, 0x00, 0x00, 0xb4, 0xd2, 0xff, 0xff, 0x08, 0x00, 0x00, 0x00,
  0x14, 0x00, 0x00, 0x00, 0x01, 0x00, 0x00, 0x00, 0x80, 0xff, 0xff, 0xff, 0xff, 0xff, 0xff, 0xff,
  0x00, 0x00, 0x00, 0x00, 0x01, 0x00, 0x00, 0x00, 0x34, 0xfb, 0x11, 0x3d, 0x94, 0x00, 0x00, 0x00,
  0x46, 0x61, 0x63, 0x65, 0x52, 0x65, 0x63, 0x6f, 0x67, 0x6e, 0x69, 0x7a, 0x65, 0x72, 0x5f, 0x31,
  0x2f, 0x72, 0x65, 0x6c, 0x75, 0x34, 0x62, 0x5f, 0x31, 0x2f, 0x52, 0x65, 0x6c, 0x75, 0x3b, 0x46,
  0x61, 0x63, 0x65, 0x52, 0x65, 0x63, 0x6f, 0x67, 0x6e, 0x69, 0x7a, 0x65, 0x72, 0x5f, 0x31, 0x2f,
  0x62, 0x6e, 0x34, 0x62, 0x5f, 0x31, 0x2f, 0x62, 0x61, 0x74, 0x63, 0x68, 0x6e, 0x6f, 0x72, 0x6d,
  0x2f, 0x61, 0x64, 0x64, 0x5f, 0x31, 0x3b, 0x46, 0x61, 0x63, 0x65, 0x52, 0x65, 0x63, 0x6f, 0x67,
  0x6e, 0x69, 0x7a, 0x65, 0x72, 0x5f, 0x31, 0x2f, 0x70, 0x77, 0x5f, 0x63, 0x6f, 0x6e, 0x76, 0x34,
  0x5f, 0x31, 0x2f, 0x63, 0x6f, 0x6e, 0x76, 0x6f, 0x6c, 0x75, 0x74, 0x69, 0x6f, 0x6e, 0x3b, 0x46,
  0x61, 0x63, 0x65, 0x52, 0x65, 0x63, 0x6f, 0x67, 0x6e, 0x69, 0x7a, 0x65, 0x72, 0x5f, 0x31, 0x2f,
  0x62, 0x6e, 0x34, 0x62, 0x5f, 0x31, 0x2f, 0x62, 0x61, 0x74, 0x63, 0x68, 0x6e, 0x6f, 0x72, 0x6d,
  0x2f, 0x73, 0x75, 0x62, 0x00, 0x00, 0x00, 0x00, 0x04, 0x00, 0x00, 0x00, 0x01, 0x00, 0x00, 0x00,
  0x06, 0x00, 0x00, 0x00, 0x06, 0x00, 0x00, 0x00, 0x40, 0x00, 0x00, 0x00, 0xd2, 0xd3, 0xff, 0xff,
  0x00, 0x00, 0x00, 0x01, 0x18, 0x00, 0x00, 0x00, 0x28, 0x00, 0x00, 0x00, 0x44, 0x00, 0x00, 0x00,
  0x1a, 0x00, 0x00, 0x00, 0x00, 0x00, 0x00, 0x09, 0x20, 0x01, 0x00, 0x00, 0x04, 0x00, 0x00, 0x00,
  0xff, 0xff, 0xff, 0xff, 0x06, 0x00, 0x00, 0x00, 0x06, 0x00, 0x00, 0x00, 0x30, 0x00, 0x00, 0x00,
  0xbc, 0xd3, 0xff, 0xff, 0x08, 0x00, 0x00, 0x00, 0x10, 0x00, 0x00, 0x00, 0x01, 0x00, 0x00, 0x00,
  0x80, 0xff, 0xff, 0xff, 0xff, 0xff, 0xff, 0xff, 0x01, 0x00, 0x00, 0x00, 0xcd, 0x3e, 0x5f, 0x3d,
  0xe0, 0x00, 0x00, 0x00, 0x46, 0x61, 0x63, 0x65, 0x52, 0x65, 0x63, 0x6f, 0x67, 0x6e, 0x69, 0x7a,
  0x65, 0x72, 0x5f, 0x31, 0x2f, 0x72, 0x65, 0x6c, 0x75, 0x34, 0x61, 0x5f, 0x31, 0x2f, 0x52, 0x65,
  0x6c, 0x75, 0x3b, 0x46, 0x61, 0x63, 0x65, 0x52, 0x65, 0x63, 0x6f, 0x67, 0x6e, 0x69, 0x7a, 0x65,
  0x72, 0x5f, 0x31, 0x2f, 0x62, 0x6e, 0x34, 0x61, 0x5f, 0x31, 0x2f, 0x62, 0x61, 0x74, 0x63, 0x68,
  0x6e, 0x6f, 0x72, 0x6d, 0x2f, 0x61, 0x64, 0x64, 0x5f, 0x31, 0x3b, 0x46, 0x61, 0x63, 0x65, 0x52,
  0x65, 0x63, 0x6f, 0x67, 0x6e, 0x69, 0x7a, 0x65, 0x72, 0x5f, 0x31, 0x2f, 0x62, 0x6e, 0x34, 0x61,
  0x5f, 0x31, 0x2f, 0x62, 0x61, 0x74, 0x63, 0x68, 0x6e, 0x6f, 0x72, 0x6d, 0x2f, 0x6d, 0x75, 0x6c,
  0x5f, 0x31, 0x3b, 0x46, 0x61, 0x63, 0x65, 0x52, 0x65, 0x63, 0x6f, 0x67, 0x6e, 0x69, 0x7a, 0x65,
  0x72, 0x5f, 0x31, 0x2f, 0x64, 0x77, 0x5f, 0x63, 0x6f, 0x6e, 0x76, 0x34, 0x5f, 0x31, 0x2f, 0x64,
  0x65, 0x70, 0x74, 0x68, 0x77, 0x69, 0x73, 0x65, 0x3b, 0x46, 0x61, 0x63, 0x65, 0x52, 0x65, 0x63,
  0x6f, 0x67, 0x6e, 0x69, 0x7a, 0x65, 0x72, 0x5f, 0x31, 0x2f, 0x62, 0x6e, 0x34, 0x61, 0x5f, 0x31,
  0x2f, 0x62, 0x61, 0x74, 0x63, 0x68, 0x6e, 0x6f, 0x72, 0x6d, 0x2f, 0x6d, 0x75, 0x6c, 0x3b, 0x46,
  0x61, 0x63, 0x65, 0x52, 0x65, 0x63, 0x6f, 0x67, 0x6e, 0x69, 0x7a, 0x65, 0x72, 0x5f, 0x31, 0x2f,
  0x62, 0x6e, 0x34, 0x61, 0x5f, 0x31, 0x2f, 0x62, 0x61, 0x74, 0x63, 0x68, 0x6e, 0x6f, 0x72, 0x6d,
  0x2f, 0x73, 0x75, 0x62, 0x00, 0x00, 0x00, 0x00, 0x04, 0x00, 0x00, 0x00, 0x01, 0x00, 0x00, 0x00,
  0x06, 0x00, 0x00, 0x00, 0x06, 0x00, 0x00, 0x00, 0x30, 0x00, 0x00, 0x00, 0x22, 0xd5, 0xff, 0xff,
  0x00, 0x00, 0x00, 0x01, 0x18, 0x00, 0x00, 0x00, 0x28, 0x00, 0x00, 0x00, 0x48, 0x00, 0x00, 0x00,
  0x19, 0x00, 0x00, 0x00, 0x00, 0x00, 0x00, 0x09, 0xd8, 0x00, 0x00, 0x00, 0x04, 0x00, 0x00, 0x00,
  0xff, 0xff, 0xff, 0xff, 0x0c, 0x00, 0x00, 0x00, 0x0c, 0x00, 0x00, 0x00, 0x30, 0x00, 0x00, 0x00,
  0x0c, 0xd5, 0xff, 0xff, 0x08, 0x00, 0x00, 0x00, 0x14, 0x00, 0x00, 0x00, 0x01, 0x00, 0x00, 0x00,
  0x80, 0xff, 0xff, 0xff, 0xff, 0xff, 0xff, 0xff, 0x00, 0x00, 0x00, 0x00, 0x01, 0x00, 0x00, 0x00,
  0x8b, 0xc3, 0x2a, 0x3d, 0x94, 0x00, 0x00, 0x00, 0x46, 0x61, 0x63, 0x65, 0x52, 0x65, 0x63, 0x6f,
  0x67, 0x6e, 0x69, 0x7a, 0x65, 0x72, 0x5f, 0x31, 0x2f, 0x72, 0x65, 0x6c, 0x75, 0x33, 0x62, 0x5f,
  0x31, 0x2f, 0x52, 0x65, 0x6c, 0x75, 0x3b, 0x46, 0x61, 0x63, 0x65, 0x52, 0x65, 0x63, 0x6f, 0x67,
  0x6e, 0x69, 0x7a, 0x65, 0x72, 0x5f, 0x31, 0x2f, 0x62, 0x6e, 0x33, 0x62, 0x5f, 0x31, 0x2f, 0x62,
  0x61, 0x74, 0x63, 0x68, 0x6e, 0x6f, 0x72, 0x6d, 0x2f, 0x61, 0x64, 0x64, 0x5f, 0x31, 0x3b, 0x46,
  0x61, 0x63, 0x65, 0x52, 0x65, 0x63, 0x6f, 0x67, 0x6e, 0x69, 0x7a, 0x65, 0x72, 0x5f, 0x31, 0x2f,
  0x70, 0x77, 0x5f, 0x63, 0x6f, 0x6e, 0x76, 0x33, 0x5f, 0x31, 0x2f, 0x63, 0x6f, 0x6e, 0x76, 0x6f,
  0x6c, 0x75, 0x74, 0x69, 0x6f, 0x6e, 0x3b, 0x46, 0x61, 0x63, 0x65, 0x52, 0x65, 0x63, 0x6f, 0x67,
  0x6e, 0x69, 0x7a, 0x65, 0x72, 0x5f, 0x31, 0x2f, 0x62, 0x6e, 0x33, 0x62, 0x5f, 0x31, 0x2f, 0x62,
  0x61, 0x74, 0x63, 0x68, 0x6e, 0x6f, 0x72, 0x6d, 0x2f, 0x73, 0x75, 0x62, 0x00, 0x00, 0x00, 0x00,
  0x04, 0x00, 0x00, 0x00, 0x01, 0x00, 0x00, 0x00, 0x0c, 0x00, 0x00, 0x00, 0x0c, 0x00, 0x00, 0x00,
  0x30, 0x00, 0x00, 0x00, 0x2a, 0xd6, 0xff, 0xff, 0x00, 0x00, 0x00, 0x01, 0x18, 0x00, 0x00, 0x00,
  0x28, 0x00, 0x00, 0x00, 0x44, 0x00, 0x00, 0x00, 0x18, 0x00, 0x00, 0x00, 0x00, 0x00, 0x00, 0x09,
  0x20, 0x01, 0x00, 0x00, 0x04, 0x00, 0x00, 0x00, 0xff, 0xff, 0xff, 0xff, 0x0c, 0x00, 0x00, 0x00,
  0x0c, 0x00, 0x00, 0x00, 0x20, 0x00, 0x00, 0x00, 0x14, 0xd6, 0xff, 0xff, 0x08, 0x00, 0x00, 0x00,
  0x10, 0x00, 0x00, 0x00, 0x01, 0x00, 0x00, 0x00, 0x80, 0xff, 0xff, 0xff, 0xff, 0xff, 0xff, 0xff,
  0x01, 0x00, 0x00, 0x00, 0x82, 0x4c, 0x1d, 0x3d, 0xe0, 0x00, 0x00, 0x00, 0x46, 0x61, 0x63, 0x65,
  0x52, 0x65, 0x63, 0x6f, 0x67, 0x6e, 0x69, 0x7a, 0x65, 0x72, 0x5f, 0x31, 0x2f, 0x72, 0x65, 0x6c,
  0x75, 0x33, 0x61, 0x5f, 0x31, 0x2f, 0x52, 0x65, 0x6c, 0x75, 0x3b, 0x46, 0x61, 0x63, 0x65, 0x52,
  0x65, 0x63, 0x6f, 0x67, 0x6e, 0x69, 0x7a, 0x65, 0x72, 0x5f, 0x31, 0x2f, 0x62, 0x6e, 0x33, 0x61,
  0x5f, 0x31, 0x2f, 0x62, 0x61, 0x74, 0x63, 0x68, 0x6e, 0x6f, 0x72, 0x6d, 0x2f, 0x61, 0x64, 0x64,
  0x5f, 0x31, 0x3b, 0x46, 0x61, 0x63, 0x65, 0x52, 0x65, 0x63, 0x6f, 0x67, 0x6e, 0x69, 0x7a, 0x65,
  0x72, 0x5f, 0x31, 0x2f, 0x62, 0x6e, 0x33, 0x61, 0x5f, 0x31, 0x2f, 0x62, 0x61, 0x74, 0x63, 0x68,
  0x6e, 0x6f, 0x72, 0x6d, 0x2f, 0x6d, 0x75, 0x6c, 0x5f, 0x31, 0x3b, 0x46, 0x61, 0x63, 0x65, 0x52,
  0x65, 0x63, 0x6f, 0x67, 0x6e, 0x69, 0x7a, 0x65, 0x72, 0x5f, 0x31, 0x2f, 0x64, 0x77, 0x5f, 0x63,
  0x6f, 0x6e, 0x76, 0x33, 0x5f, 0x31, 0x2f, 0x64, 0x65, 0x70, 0x74, 0x68, 0x77, 0x69, 0x73, 0x65,
  0x3b, 0x46, 0x61, 0x63, 0x65, 0x52, 0x65, 0x63, 0x6f, 0x67, 0x6e, 0x69, 0x7a, 0x65, 0x72, 0x5f,
  0x31, 0x2f, 0x62, 0x6e, 0x33, 0x61, 0x5f, 0x31, 0x2f, 0x62, 0x61, 0x74, 0x63, 0x68, 0x6e, 0x6f,
  0x72, 0x6d, 0x2f, 0x6d, 0x75, 0x6c, 0x3b, 0x46, 0x61, 0x63, 0x65, 0x52, 0x65, 0x63, 0x6f, 0x67,
  0x6e, 0x69, 0x7a, 0x65, 0x72, 0x5f, 0x31, 0x2f, 0x62, 0x6e, 0x33, 0x61, 0x5f, 0x31, 0x2f, 0x62,
  0x61, 0x74, 0x63, 0x68, 0x6e, 0x6f, 0x72, 0x6d, 0x2f, 0x73, 0x75, 0x62, 0x00, 0x00, 0x00, 0x00,
  0x04, 0x00, 0x00, 0x00, 0x01, 0x00, 0x00, 0x00, 0x0c, 0x00, 0x00, 0x00, 0x0c, 0x00, 0x00, 0x00,
  0x20, 0x00, 0x00, 0x00, 0x7a, 0xd7, 0xff, 0xff, 0x00, 0x00, 0x00, 0x01, 0x18, 0x00, 0x00, 0x00,
  0x28, 0x00, 0x00, 0x00, 0x48, 0x00, 0x00, 0x00, 0x17, 0x00, 0x00, 0x00, 0x00, 0x00, 0x00, 0x09,
  0xd8, 0x00, 0x00, 0x00, 0x04, 0x00, 0x00, 0x00, 0xff, 0xff, 0xff, 0xff, 0x18, 0x00, 0x00, 0x00,
  0x18, 0x00, 0x00, 0x00, 0x20, 0x00, 0x00, 0x00, 0x64, 0xd7, 0xff, 0xff, 0x08, 0x00, 0x00, 0x00,
  0x14, 0x00, 0x00, 0x00, 0x01, 0x00, 0x00, 0x00, 0x80, 0xff, 0xff, 0xff, 0xff, 0xff, 0xff, 0xff,
  0x00, 0x00, 0x00, 0x00, 0x01, 0x00, 0x00, 0x00, 0xa2, 0x6b, 0x38, 0x3d, 0x94, 0x00, 0x00, 0x00,
  0x46, 0x61, 0x63, 0x65, 0x52, 0x65, 0x63, 0x6f, 0x67, 0x6e, 0x69, 0x7a, 0x65, 0x72, 0x5f, 0x31,
  0x2f, 0x72, 0x65, 0x6c, 0x75, 0x32, 0x62, 0x5f, 0x31, 0x2f, 0x52, 0x65, 0x6c, 0x75, 0x3b, 0x46,
  0x61, 0x63, 0x65, 0x52, 0x65, 0x63, 0x6f, 0x67, 0x6e, 0x69, 0x7a, 0x65, 0x72, 0x5f, 0x31, 0x2f,
  0x62, 0x6e, 0x32, 0x62, 0x5f, 0x31, 0x2f, 0x62, 0x61, 0x74, 0x63, 0x68, 0x6e, 0x6f, 0x72, 0x6d,
  0x2f, 0x61, 0x64, 0x64, 0x5f, 0x31, 0x3b, 0x46, 0x61, 0x63, 0x65, 0x52, 0x65, 0x63, 0x6f, 0x67,
  0x6e, 0x69, 0x7a, 0x65, 0x72, 0x5f, 0x31, 0x2f, 0x70, 0x77, 0x5f, 0x63, 0x6f, 0x6e, 0x76, 0x32,
  0x5f, 0x31, 0x2f, 0x63, 0x6f, 0x6e, 0x76, 0x6f, 0x6c, 0x75, 0x74, 0x69, 0x6f, 0x6e, 0x3b, 0x46,
  0x61, 0x63, 0x65, 0x52, 0x65, 0x63, 0x6f, 0x67, 0x6e, 0x69, 0x7a, 0x65, 0x72, 0x5f, 0x31, 0x2f,
  0x62, 0x6e, 0x32, 0x62, 0x5f, 0x31, 0x2f, 0x62, 0x61, 0x74, 0x63, 0x68, 0x6e, 0x6f, 0x72, 0x6d,
  0x2f, 0x73, 0x75, 0x62, 0x00, 0x00, 0x00, 0x00, 0x04, 0x00, 0x00, 0x00, 0x01, 0x00, 0x00, 0x00,
  0x18, 0x00, 0x00, 0x00, 0x18, 0x00, 0x00, 0x00, 0x20, 0x00, 0x00, 0x00, 0x82, 0xd8, 0xff, 0xff,
  0x00, 0x00, 0x00, 0x01, 0x18, 0x00, 0x00, 0x00, 0x28, 0x00, 0x00, 0x00, 0x44, 0x00, 0x00, 0x00,
  0x16, 0x00, 0x00, 0x00, 0x00, 0x00, 0x00, 0x09, 0x20, 0x01, 0x00, 0x00, 0x04, 0x00, 0x00, 0x00,
  0xff, 0xff, 0xff, 0xff, 0x18, 0x00, 0x00, 0x00, 0x18, 0x00, 0x00, 0x00, 0x10, 0x00, 0x00, 0x00,
  0x6c, 0xd8, 0xff, 0xff, 0x08, 0x00, 0x00, 0x00, 0x10, 0x00, 0x00, 0x00, 0x01, 0x00, 0x00, 0x00,
  0x80, 0xff, 0xff, 0xff, 0xff, 0xff, 0xff, 0xff, 0x01, 0x00, 0x00, 0x00, 0x1e, 0x03, 0x70, 0x3d,
  0xe0, 0x00, 0x00, 0x00, 0x46, 0x61, 0x63, 0x65, 0x52, 0x65, 0x63, 0x6f, 0x67, 0x6e, 0x69, 0x7a,
  0x65, 0x72, 0x5f, 0x31, 0x2f, 0x72, 0x65, 0x6c, 0x75, 0x32, 0x61, 0x5f, 0x31, 0x2f, 0x52, 0x65,
  0x6c, 0x75, 0x3b, 0x46, 0x61, 0x63, 0x65, 0x52, 0x65, 0x63, 0x6f, 0x67, 0x6e, 0x69, 0x7a, 0x65,
  0x72, 0x5f, 0x31, 0x2f, 0x62, 0x6e, 0x32, 0x61, 0x5f, 0x31, 0x2f, 0x62, 0x61, 0x74, 0x63, 0x68,
  0x6e, 0x6f, 0x72, 0x6d, 0x2f, 0x61, 0x64, 0x64, 0x5f, 0x31, 0x3b, 0x46, 0x61, 0x63, 0x65, 0x52,
  0x65, 0x63, 0x6f, 0x67, 0x6e, 0x69, 0x7a, 0x65, 0x72, 0x5f, 0x31, 0x2f, 0x62, 0x6e, 0x32, 0x61,
  0x5f, 0x31, 0x2f, 0x62, 0x61, 0x74, 0x63, 0x68, 0x6e, 0x6f, 0x72, 0x6d, 0x2f, 0x6d, 0x75, 0x6c,
  0x5f, 0x31, 0x3b, 0x46, 0x61, 0x63, 0x65, 0x52, 0x65, 0x63, 0x6f, 0x67, 0x6e, 0x69, 0x7a, 0x65,
  0x72, 0x5f, 0x31, 0x2f, 0x64, 0x77, 0x5f, 0x63, 0x6f, 0x6e, 0x76, 0x32, 0x5f, 0x31, 0x2f, 0x64,
  0x65, 0x70, 0x74, 0x68, 0x77, 0x69, 0x73, 0x65, 0x3b, 0x46, 0x61, 0x63, 0x65, 0x52, 0x65, 0x63,
  0x6f, 0x67, 0x6e, 0x69, 0x7a, 0x65, 0x72, 0x5f, 0x31, 0x2f, 0x62, 0x6e, 0x32, 0x61, 0x5f, 0x31,
  0x2f, 0x62, 0x61, 0x74, 0x63, 0x68, 0x6e, 0x6f, 0x72, 0x6d, 0x2f, 0x6d, 0x75, 0x6c, 0x3b, 0x46,
  0x61, 0x63, 0x65, 0x52, 0x65, 0x63, 0x6f, 0x67, 0x6e, 0x69, 0x7a, 0x65, 0x72, 0x5f, 0x31, 0x2f,
  0x62, 0x6e, 0x32, 0x61, 0x5f, 0x31, 0x2f, 0x62, 0x61, 0x74, 0x63, 0x68, 0x6e, 0x6f, 0x72, 0x6d,
  0x2f, 0x73, 0x75, 0x62, 0x00, 0x00, 0x00, 0x00, 0x04, 0x00, 0x00, 0x00, 0x01, 0x00, 0x00, 0x00,
  0x18, 0x00, 0x00, 0x00, 0x18, 0x00, 0x00, 0x00, 0x10, 0x00, 0x00, 0x00, 0xd2, 0xd9, 0xff, 0xff,
  0x00, 0x00, 0x00, 0x01, 0x18, 0x00, 0x00, 0x00, 0x28, 0x00, 0x00, 0x00, 0x48, 0x00, 0x00, 0x00,
  0x15, 0x00, 0x00, 0x00, 0x00, 0x00, 0x00, 0x09, 0xd0, 0x00, 0x00, 0x00, 0x04, 0x00, 0x00, 0x00,
  0xff, 0xff, 0xff, 0xff, 0x30, 0x00, 0x00, 0x00, 0x30, 0x00, 0x00, 0x00, 0x10, 0x00, 0x00, 0x00,
  0xbc, 0xd9, 0xff, 0xff, 0x08, 0x00, 0x00, 0x00, 0x14, 0x00, 0x00, 0x00, 0x01, 0x00, 0x00, 0x00,
  0x80, 0xff, 0xff, 0xff, 0xff, 0xff, 0xff, 0xff, 0x00, 0x00, 0x00, 0x00, 0x01, 0x00, 0x00, 0x00,
  0xfb, 0x9f, 0xfe, 0x3c, 0x8f, 0x00, 0x00, 0x00, 0x46, 0x61, 0x63, 0x65, 0x52, 0x65, 0x63, 0x6f,
  0x67, 0x6e, 0x69, 0x7a, 0x65, 0x72, 0x5f, 0x31, 0x2f, 0x72, 0x65, 0x6c, 0x75, 0x31, 0x5f, 0x31,
  0x2f, 0x52, 0x65, 0x6c, 0x75, 0x3b, 0x46, 0x61, 0x63, 0x65, 0x52, 0x65, 0x63, 0x6f, 0x67, 0x6e,
  0x69, 0x7a, 0x65, 0x72, 0x5f, 0x31, 0x2f, 0x62, 0x6e, 0x31, 0x5f, 0x31, 0x2f, 0x62, 0x61, 0x74,
  0x63, 0x68, 0x6e, 0x6f, 0x72, 0x6d, 0x2f, 0x61, 0x64, 0x64, 0x5f, 0x31, 0x3b, 0x46, 0x61, 0x63,
  0x65, 0x52, 0x65, 0x63, 0x6f, 0x67, 0x6e, 0x69, 0x7a, 0x65, 0x72, 0x5f, 0x31, 0x2f, 0x63, 0x6f,
  0x6e, 0x76, 0x31, 0x5f, 0x31, 0x2f, 0x63, 0x6f, 0x6e, 0x76, 0x6f, 0x6c, 0x75, 0x74, 0x69, 0x6f,
